#version: 0.2
h e
Ġ t
Ġ a
Ġ s
Ġ w
n d
Ġt he
e d
Ġa nd
Ġt o
Ġ b
i n
Ġ h
Ġw a
r e
o u
Ġ f
i t
Ġ l
Ġ c
Ġ d
e r
Ġ he
Ġ m
Ġ p
Ġwa s
o m
Ġ T
Ġ o
a y
a r
i s
in g
i l
Ġ g
i d
a t
e n
Ġ n
Ġs a
Ġh a
Ġ S
ĠT he
a n
i m
o r
o n
Ġ it
Ġt h
l l
l e
Ġ H
Ġhe r
o t
e t
i r
ĠS he
e s
ĠH e
Ġ in
v er
u t
o w
ĠThe y
c k
Ġ e
Ġ u
l d
Ġ y
o o
Ġsa id
i g
il y
Ġ "
Ġ r
Ġb e
a m
Ġs t
Ġ I
c e
k e
Ġs he
v e
p p
it h
Ġw ith
L ily
O n
Ġo n
Ġy ou
Ġo f
k ed
r i
Ġs o
n t
Ġh is
Ġp l
a d
ver y
Ġd ay
Ġth at
Ġu p
Ġpl ay
Ġha d
s t
Ġthe y
Ġw e
Ġ Lily
Ġm om
Ġf or
Ġ B
e l
u n
ou ld
' s
m y
T he
Ġl i
c h
en t
Ġha pp
Ġwa nt
it t
Ġs h
ou t
he r
Ġd o
l y
Ġn ot
om e
s e
Ġ very
ou nd
e nd
a ll
Ġw h
im e
itt le
Ġ k
Ġt ime
Ġl ittle
a l
Ġ Ċ
Ġthe re
Ġn e
h t
Ġ M
Ġ re
Ġhapp y
Ġs m
Ġb ig
Ġ is
ĠI t
Ġb ut
a ck
Ġa n
Ġsa w
ri end
Ġf riend
. "
Ġa s
r y
r a
On e
id e
a ke
' t
! "
u g
Ġl oo
v ed
t er
Ġwe re
o re
On ce
Ġl o
e c
Ġh im
Ġto o
Ġg o
Ġb o
Ġs e
ir l
Ġa re
Ġ j
ĠT im
ar d
Ġwant ed
il l
Ġg irl
Ġup on
Ġ out
Ġthe m
Ġa t
u r
i nd
Ġthe ir
f u
Ġs p
w ay
Ġ A
Ġsm il
Ġd id
Ġc ould
he n
Ġha ve
a in
ar t
Ġe x
he d
r om
Ġw ent
Ġa r
i c
Ġc an
Ġ J
l p
fu l
ĠB en
oo d
? "
h ing
Ġfriend s
Ġn am
ig ht
Ġa ll
Ġhe lp
Ġk n
u m
on e
ar k
Ġb ack
Ġs ay
Y ou
Ġf un
Ġc l
ĠT om
a re
Ġn o
Ġl e
o p
Ġsmil ed
Ġs c
Ġnam ed
Ġa l
ou g
Ġlo ved
s ide
el t
Ġ One
Ġm an
Ġas ked
i ck
Ġto y
Ġli ke
Ġf e
Ġf elt
Ġloo ked
Ġs ome
Ġar ound
Ġse e
Ġm e
am e
om et
Ġ W
Ġr o
Ġb r
u re
ĠTim my
Ġb ir
g et
i ce
Ġbo y
Ġw ould
Ġst art
on g
Ã ¢
â Ĥ
âĤ ¬
s s
Ġbir d
Ġs omet
Ġf a
d d
ing s
Ġa g
Ġw or
Ġwh at
ad e
Ġm ake
k ing
, "
i e
ĠB ut
ow n
Ġt re
Ġr an
get her
Ġ You
Ġa way
a g
ar ed
Ġsay s
Ġstart ed
ou d
i f
Ġm ade
Ġc ar
Ġsomet hing
Ġto gether
it ed
t her
Ġp ark
Ġc o
Ġsa d
Ġo ther
Ġne w
Ġex c
Ġp ut
Ġf rom
Ġp r
e ll
Ġ L
Ġl a
Ġh ug
b le
Ġm u
oo k
a ch
Ġag ain
Ġh ome
Ġw hen
Ġg ood
e p
h at
Ġwh o
es t
ri ed
Ġf ound
Ġf l
Ġthe n
Ġc h
Ġd ec
pp ed
Ġwa l
a s
Ġg et
q u
Ġplay ing
oug ht
p l
Ġ E
all y
Ġs w
ou s
n n
Ġth ings
Ġexc ited
Ġli ked
Ġg ot
u ck
r o
id ed
Ġdec ided
Ġb l
a ve
Ġc ame
Ġe very
ar a
Ġ D
Ġyou r
ĠM om
a x
Ġ v
Ġsc ared
u st
Ġon e
Ġdo g
Ġd own
n y
ou se
Ġf ind
Ġc are
Ġbe c
is t
Ġth an
Ġfe el
a p
u e
u dd
nn a
Ġd ad
Ġa b
The y
Ġm y
Ġloo k
Ġ ke
ou r
Ġw ill
ar n
Ġg r
u s
nd er
Ġg ra
way s
es s
Ġdid n
Ġp o
f e
Ġal ways
Ġtoo k
Ġab out
an t
b b
Ġmom my
Ġl ot
Ġkn e
Ġtoy s
er s
is e
Ġout side
it e
Ġtre e
Ġth ought
Ġb all
Ġ F
Ġm ore
ec i
ĠS am
en ed
c hed
Ġt a
Ġo ld
Ġh o
Ġle arn
re t
Ġin t
g ed
Ġkn ow
Ġla ug
Ġt ake
eci al
Ġsp ecial
Ġs or
udd en
Ġc at
Ġkne w
ĠM ax
i ve
Ġp e
i a
udden ly
Ġan y
Ġt r
f ter
Ġh ow
m a
Ġsh ow
in k
Ġsor ry
Ġt w
B ut
Ġmu ch
a u
is h
Ġr un
a nd
Ġha nd
Ġs l
v en
Ġh ouse
Ġo r
Ġo p
Ġs k
Ġm o
Ġcl o
Ġs un
Ġint o
Ġt ried
Ġin side
at e
Ġto ld
Ġwa ter
Ġ en
Ġth is
an k
Ġ if
um p
Ġpr oud
Ġ qu
Ġo ver
Ġcould n
T om
d y
Ġg ave
Ġhe ard
ĠS ara
Ġne ver
b y
Ġe ach
a ce
Ġro om
t y
ĠE very
Ġex pl
Ġe at
ot her
ĠW e
au se
Ġp ick
i on
Ġp ret
ĠA nna
Ġplay ed
M om
g e
et ter
Ġj ust
a k
Ġhug ged
Ġg re
he re
Ġof f
Ġc om
Ġwa t
ot h
Ġbo x
Ġn ice
' m
Ġbec ause
Ġst r
Ġne ed
il e
Ġman y
Ġf o
u c
Ġj o
Ġbe ar
Ġsm all
i z
Ġb u
Ġl ong
v ing
in e
g ry
or t
im al
Ġan imal
Ġs n
oug h
Ġt ry
Ġu nt
il d
s el
ur t
Ġunt il
ĠJ ack
s ed
Ġk ind
Ġlearn ed
Ġ im
Ġlo ve
Ġb etter
f t
Ġfl ow
Ġc all
ĠJ o
H e
Ġd on
Ġe nd
Ġa d
u ll
Ġb est
v ent
Y es
ar s
ur p
ad y
e m
re am
a ut
ur n
Ġc le
ĠM ia
ĠA nd
v es
Å ĵ
ard en
Ġ C
Ġg arden
Ġfa st
b er
Ġcare ful
Ġbe aut
ll y
T h
Ġe ven
p t
Ġb ra
i es
Ġthan ked
ĠS o
Ġf i
Ġc he
Ġlaug hed
Ġsk y
Ġb y
I t
ĠH er
Ġj ump
Ġg l
a se
Ġt e
Ġl oud
sel f
in y
Ġwa y
w n
Ġbeaut i
Ġc ome
le w
Ġl ist
Ġbeauti ful
Ġw o
Ġh ard
Ġlot s
Ġr a
Ġst ill
Ġf am
Ġanimal s
Ġ Ã¢
Ġh urt
Ġu nder
ĠThe n
ec t
Ġst ay
n ing
Ġl et
c t
Ġb oth
Ġc u
ĠH is
he s
b e
Ġsa fe
ĠF rom
oo l
re e
Ġco l
Ġtw o
Ġb ad
Ġim p
op le
Ġb ook
Ġre m
an e
Ġli ved
k ay
o ck
uc y
Ġwal ked
T im
a st
urp r
Ġbra ve
Ġsh ould
Ġit s
o b
is hed
Ġs urpr
Ġan gry
Ġfam ily
re ss
ig h
W hen
Ġpe ople
Ġf lew
Ġcall ed
N o
Ġr ed
Ġst or
i p
Ġf in
Ġso on
h n
L et
l ed
Ġke pt
Ġf ore
f ore
Ġd an
Ġsh are
Ġf ly
x t
is ed
dd ed
Ġp ic
âĤ¬ â
Ġdo or
Ġgo ing
Ġ P
ĠW hen
Ġpret ty
Ġke ep
Ġcle an
Ġro ck
Ġn ow
Ġd ra
Ġad vent
ar y
um my
Ġno ise
Ġop ened
Ġsh iny
ag e
Ġexpl ore
Ġw ind
Ġdo ll
Ġc on
Ġc ry
Ġ ide
Ġbe fore
i ed
il ly
B en
Ġre al
Ġst o
s o
W hat
Ġgr ound
Ġal so
le s
Ġt urn
Ħ ¢
âĤ¬â Ħ¢
Ġe y
T hat
Ġf ar
Ġide a
Ġf r
o on
Ġno dded
Ġcol or
Ġwa r
o y
Ġfeel ing
Ġpick ed
Ġu n
im b
t h
Ġwal king
ĠL ucy
Ġne xt
t hing
t ure
ĠD ad
Ġcl imb
Ġha s
u ch
Ġm a
Ġth r
Ġwh ile
e et
Ġb ed
Ġadvent ure
Ġsmil e
k es
ay be
Th ank
ic ed
g er
i ous
Ġbe ing
Ġ G
Ġd if
Ġw r
Ġclo s
Ġf ood
j oy
t ed
Ġg ive
Ġpic ture
Ġth ink
ĠS p
Ġloo king
Ġd el
f f
a c
Ġwa it
Ġtr uck
ug ht
Ġey es
Ġto w
t ing
Ġre pl
Ġbr o
Ġsto pped
Ġlist en
Ġa fter
Ġb re
Ġo wn
Ġv o
Ġwal k
em ber
ĠS uddenly
Ġgre at
Ġwo nder
Ġhand s
S uddenly
Ġsh out
Ġhe ad
Ġen joy
Ġimp ort
Ġe ver
Ġflow ers
Ġfore st
bb it
Ġnot iced
Ġbl ue
iz ed
S he
Ġa pp
Ġqu ick
Ġd is
Ġne ar
ir st
Ġd e
Ġimport ant
a ble
Ġrem ember
Ġf ish
ll ow
Ġs ound
Ġsl ide
ma z
Ġu s
Ġrepl ied
Ġa c
Ġa maz
Ġwor k
le ase
Ġr ain
Ġwat ch
Ġshow ed
Ġra bbit
g an
Ġo kay
Ġt al
by e
fe re
bb ed
Ġdif fere
Ġas k
Ġme an
Ġr ight
Ġy e
d ay
Ġwat ched
Ġbr ight
Ġfo llow
S o
W e
ĠSp ot
Ġevery one
Ġstr ong
Ġs qu
Ġst ick
Ġbe en
Ġu se
Ġm or
Ġvo ice
Ġt ra
er ed
Ġquick ly
at h
Ġw here
Ġ our
Ġy ell
Ġ N
ĠMom my
A nna
Ġdiffere nt
ĠB ob
Ġch ild
Ġbo at
n g
Ġcu ri
Ġs ure
ĠS ue
Ġbec ame
Ġgood bye
Ġfa ce
Ġpl ace
an ge
Ġh op
Ġh igh
a ught
Ġa m
Ġ R
L ook
Ġst ore
Ġclos er
Ġwar m
Ġc r
Ġdo es
Ġd ress
un ny
S ara
Ġm ag
Ġcuri ous
il a
J o
Ġc ook
Ġfor g
Ġbe l
Ġt ell
Ġfa v
nd ma
a ss
ou nt
c o
Ġth ree
le ep
Ġn ight
Ġop en
Ġc ake
m ore
Ġany more
Ġhe re
Ġbl ock
Ġb us
Ġf irst
it c
Ġp ull
is s
a ched
H er
ir ed
Ġbut ter
Ġ z
im es
ĠT h
or n
Ġsw eet
Ġp ain
Ġgra bbed
Ġk id
Ġp u
C an
is y
Ġon ly
Ġm on
Ġle a
Ġfe ll
Ġb a
Ġr u
Ġcon t
Ġbird s
Ġjump ed
Ġgl ad
Ġb it
Ġsa nd
itc hen
Ġk itchen
Ġhelp ed
Ġse es
Ġp er
Ġfi re
Ġfl o
Ġst op
ĠSara h
Ġhapp ened
Ġs ing
Ġgra ss
Ġb unny
Ġshout ed
Ġstor y
Ġt ri
nt s
ĠL et
Ġd r
A fter
a ir
ĠJ ane
pp y
Ġre ached
Ġbe h
Ġreal ized
Ġy ummy
Ġbr other
ĠD o
Ġl ady
Ġm um
Ġha ving
Ġpr in
Ġfav or
ĠA s
in s
' re
Ġm ess
Ġfavor ite
Ġre st
Ġc re
Ġdra w
Ġthr ough
Ġat e
Ġg ame
Ġh at
Ġl ess
Ġunder st
ĠEvery one
ak es
Ġso ft
z y
Ġp are
Ġth ing
Ġre ally
at her
Ġre ady
Mom my
Ġbe gan
w here
Ġpret end
Ġwor ld
ĠC an
ĠJo e
ĠT hat
Ġlook s
Ġhim self
k en
fu lly
Ġmag ic
Ġp ap
Ġd one
Ġbutter f
Ġma king
Ġc ut
Ġcom ing
at er
Ġd uck
Ġpo nd
Ġkid s
Ġwa ved
Ġwh y
Ġt ired
Ġf ro
Ġp rom
Ġfi x
o lly
st er
Ġwor ry
Ġm ouse
Ġp art
Ġst e
Ġcar s
Ġdel ic
Ġflow er
Ġnam e
ig n
Ġf ill
a isy
W ow
Ġto uch
ed dy
Ġfun ny
Ġcat ch
s h
b o
Ġu sed
Ġse en
Ġha ir
ĠJo hn
Ġta st
i ent
Ġto p
re l
Ġpare nts
Ġan other
i ver
Ġho pped
u ff
Ġc ried
Ġho ld
one y
m er
Ġc ool
Ġdo ing
Ġblock s
" .
h y
Ġp us
Ġsurpr ise
Ġl ight
Ġgre en
A s
Ġthan k
Ġless on
Tim my
at ion
Ġre ad
Ġd in
Ġflo or
Ġf ull
Ġw ood
Ġg i
D on
Ġd ri
ard s
Ġtre es
Ġrun ning
Ġwor ked
Ġwind ow
Ġye ars
Ġc ra
Ġd ro
Ġd ark
Ġ -
Ġbeh ind
Ġsp ot
Ġsm ell
Ġli kes
Ġw ished
Ġpap er
u ed
Ġyell ow
and y
re n
Ġb ow
u l
Jo hn
Ġsw im
Ġhapp ily
Ġs at
Ġb ag
Ġsh o
S am
Ġs leep
ar ing
Ġsurpr ised
el y
Ġfro g
Ġbutterf ly
i ke
Ġsw ing
Ġs et
Ġcare fully
ĠI n
Ġsl ow
Ġremember ed
Ġlo st
Ġco ld
Ġhe ld
ell o
Ġho le
Ġ ice
H ello
Ġlaug h
re w
Ġneed ed
Ġbu y
Ġper f
Ġle ft
on s
Ġmo ve
c ess
re ed
Ġany thing
Ġenjoy ed
Ġt all
Ġd ream
Ġwr ong
Ġar ri
u it
Ġhe ar
in ally
Ġa ir
Ġfa ir
Ġfollow ed
ro ss
Ġe l
Ġbook s
Ġchild ren
Ġh un
Ġdelic ious
Ġta ble
Ġfin ished
Ġcont in
Ġfriend ly
Ġd ir
Ġh ot
Ġsn ow
Ġher self
d s
ĠA fter
l f
Ġh ill
en s
Ġunderst and
Ġp lease
Ġclo se
in ed
Ġh id
Ġarri ved
Ġc ast
Ġel se
Ġar m
Ġwonder ful
Ġba by
Ġm ight
Ġg ent
Ġt ight
s p
Ġforg ot
ie ld
ĠS ally
Ġb ug
Ġcolor s
Ġre l
Ġbu ild
ĠD aisy
Ġbro ken
Ġa ble
Ġg one
a v
ĠBen ny
n er
ĠN ow
ĠL ila
Ġy es
at ter
Ġwa ll
Ġs ong
The n
i ch
Ġfill ed
Ġsqu ir
Ġag reed
Ġsome one
J ack
Ġcontin ued
ro om
Ġcre at
as ure
' ll
Ġc ount
Ġwant s
ĠE m
Ġsquir rel
Ġp ink
Ġlea ves
as k
Ġen ough
e y
ĠThe re
ĠTom my
Ġli on
F rom
am a
e e
O K
Ġmor ning
Ġmom ent
Ġv is
Ġfin ally
Ġget ting
Ġstay ed
Ġcook ies
Ġbre ak
a pp
an ce
Ġpo in
Ġbe ach
Ġ K
Ġfe w
Ġf ight
ĠM aybe
Ġsc ary
Ġsomet imes
c ed
ri es
r ow
as h
r ed
Ġdin ner
Ġturn ed
Ġf all
Ġhun gry
g on
Ġm other
Ġgra ndma
Ġw et
Ġj u
ĠW hat
Ġamaz ing
Ġtry ing
Ġc ream
a pped
H is
Ġdad dy
Ġperf ect
Ġm akes
Ġp i
Ġother s
Ġcast le
A t
Ġclimb ed
ou p
ke y
ĠTh is
Th is
Ġpicture s
ic y
Ġcom p
am p
Ġm et
Ġtal k
Ġmu s
o om
Ġwh ite
Ġlist ened
Ġsmil es
m an
Ġf ur
or ing
Ġball oon
Ġcl ot
ĠG ra
Ġclot hes
Ġal one
ĠB illy
Ġpo l
l c
Ġta il
r ot
Ġjo y
at ed
Ġpu ppy
O h
Ġm ar
Ġsp l
en ce
Ġwas n
Ġbr ought
Ġde ep
Ġevery thing
Ġse ar
Ġstr ange
Ġp et
is ter
ct or
Ġsp ark
d er
Ġs it
Ġgr ow
Ġwood s
Ġpull ed
l ing
Ġsa il
ĠT o
ot t
Ġw on
Ġr ide
Ġpl an
et er
Ġask s
Ġfo x
Ġp ie
Ġtre at
Ġdan ger
uff y
Ġvis it
Ġro ll
ĠA my
o s
Ġle ave
m ed
ĠJ en
Ġp at
uck y
Ġmus ic
Ġamaz ed
Ġwa ited
Ġt eddy
Ġh ide
m e
an g
e ver
Ġtow ards
M ax
ow er
Ġf ield
Ġp re
Ġla nd
Ġfly ing
z z
Ġp en
Ġs illy
Ġsh ared
Ġown er
ain ed
Ġrun s
Ġcl oud
ap e
ug g
Ġli ving
Ġqu i
Ġjo b
am es
Ġprom ised
Ġbel ie
ig g
O kay
Ġg u
Ġmor al
Ġs ide
or m
o l
g s
Ġl ake
Ġp a
Ġthink s
ck et
M aybe
op e
Ġpain t
Ġs ec
th y
Ġs ister
u ally
Ġpart y
Ġqui et
is es
Ġmu st
c le
ĠJ im
Ġr ace
av y
Ġm oney
Ġwe ar
s w
Ġwor ried
as ed
u p
Ġan sw
un ch
Ġslow ly
Ġp ot
Ġcolor ful
ec es
Ġgr ate
Ġfast er
Ġo w
Ġbr an
Ġpi eces
Ġdan ce
Ġb ott
Ġwe lc
Ġbro ke
Ġcu p
Ġs uch
Ġgrate ful
i x
Ġg if
Ġbig ger
Ġtra in
z e
p h
Ġsn ack
f ort
Ġch o
Ġre ach
Ġbl ank
ĠA ll
Ġpr o
Ġmon ster
Ġpl ant
Ġjo in
Ġr iver
le ss
Ġbl ack
Ġc andy
i re
Ġw in
Ġblank et
Ġsc ream
Ġe le
Ġmagic al
Ġtre asure
e ar
Ġprin cess
Ġ ve
Ġsm art
Ġb ike
Ġdanger ous
Ġs ign
Ġdra gon
Ġac ross
Ġmon key
S ure
Ġmo st
Ġevery where
ĠDad dy
Ġhelp ing
Ġb ar
Ġn ap
out h
Ġfar mer
Ġe m
Ġm outh
s et
W hy
Ġdis app
Ġwor ds
i pped
Ġj e
Ġst re
or ed
H i
e ared
m ing
Ġste pped
Ġth rew
Ġhe avy
Ġtow er
Ġdoll s
Ġp ass
Ġb ite
d e
Ġbow l
Ġdir ty
Ġsa me
Ġtw ins
Ġcry ing
Ġbe e
Ġsp r
id ent
e re
ĠM olly
Ġdo ctor
Ġac c
Ġbelie ve
Ġwould n
Ġb ath
Ġhe al
ĠF l
Ġh ig
ch ool
b ble
Ġcar rot
Ġclo sed
Ġhe art
Ġst uck
M ia
ck ed
Ġc our
Ġb uck
Ġfr uit
Ġm in
Ġat t
Ġte ac
ĠM r
Ġs chool
Ġbr own
Ġhop ed
ask et
ĠJ ill
it ing
Ġb asket
Ġs uddenly
Ġfeel s
Ġm ix
Ġch air
Ġeat ing
Ġto wn
Ġcl apped
Ġcour se
Ġcr ay
Ġco ll
Ġgent le
Ġfair y
pp ing
Ġp ack
Ġbut t
vent ually
Ġst and
i er
Ġdro ve
or s
Ġpus hed
b r
is sed
Ġwelc ome
t s
Ġsw ings
Ġhig her
Ġwith out
Ġne igh
Ġto day
Ġpo cket
or row
Ġh it
Ġteac her
Ġneigh b
or d
Ġp ers
Ġsm o
Ġpie ce
our n
Ġg ames
Ġche ered
ra ct
Ġw ings
Ġfor get
Ġb en
Ġexpl ained
Ġlong er
Ġj ourn
Ġy ard
Ġf ree
F inally
i ble
Ġacc ident
Ġc orn
e ad
Ġd ry
Ġal ong
h o
um b
c y
m ent
ĠM ary
Ġno ises
itt ing
Ġsa ng
Ġin st
Ġne ck
Ġhapp en
Ġl ate
Ġthr ow
Ġhug s
Ġyou ng
L ila
Ġturn s
ph ant
Ġstor ies
ve l
Ġsho es
Ġl on
Ġm iss
Ġadventure s
Ġsing ing
Ġtr ou
Ġwe ll
Ġse a
Ġup set
Ġl unch
Ġapp le
Ġlon ely
Ġke y
bb y
c hes
Ġele phant
ou n
Ġstre et
Ġsec ret
Ġpl ac
Ġbel ong
Ġd ist
Ġm ine
Ġto m
Ġw ish
Ġf ence
ount ain
Ġm at
e k
Ġsh ap
Ġsh ook
Ġexpl oring
Ġmo ved
Ġye ar
Ġp urp
Ġnear by
Ġs oup
aught y
Ġn aughty
Ġst ar
Ġw ise
Ġsh op
Ġbr ing
Ġst ars
ĠGra ndma
Ġow l
Ġj ar
fu sed
b ow
D o
ock ed
Ġin v
Ġex p
Ġc aught
y ard
Ġw he
Ġs u
w ard
Ġsee med
Ġback yard
Ġp h
Ġ es
a il
Ġrel ie
Ġdro pped
Ġrock s
ĠEm ma
aught er
ll o
Ġdr ink
Ġ 3
us h
Ġbuck et
ad ow
Ġpurp le
Ġsw am
Ġd es
Ġc a
c es
Ġre sp
Ġfar m
Ġta king
Ġor ange
Ġth ough
ion s
A nd
Ġma il
Ġshap es
Ġp ast
Ġc ow
Ġst u
co l
Ġwo ke
ĠTh ank
Ġben ch
un g
s y
Ġa f
Ġsound s
it y
Ġf it
Ġwonder ed
Ġbus y
Ġt iny
Ġo b
Ġs itting
Ġrain bow
Ġno se
Ġn est
es e
Ġd aughter
Ġm ark
Ġta kes
Ġm ad
f ish
t o
w eet
Ġk ite
Ġc ou
re ad
Ġ O
Ġnot hing
Ġhold ing
Ġju ice
Ġcom es
Ġarm s
th day
Ġp ig
Ġco at
ĠFl uffy
o g
in ing
Ġc ir
ĠIn side
Ġbran ch
ra id
Ġrelie ved
pp er
Ġaf raid
c ing
o se
id ge
Ġdri ver
Ġm il
ver ed
Ġsp oon
Ġfore ver
Ġcut e
Ġcar ry
Ġgif t
Ġs ick
Ġb oun
Ġli ft
Ġpe ace
st ing
O f
our s
Ġprom ise
ĠF inally
Ġhug e
Ġa ct
Ġto u
Ġtou ched
u nt
Ġpat ient
Ġk ing
Ġr ound
s c
Ġhe llo
c er
ĠC ome
Ġbir thday
Ġf ing
Ġl etter
Ġgra b
Ġche ese
le t
Ġsun ny
Ġexc iting
Ġint ere
Ġon to
et h
Ġlaug hing
Ġday s
bo ard
Ġjourn ey
Ġb and
Ġg igg
Ġcreat ure
Ġdis co
ĠM ama
itt ens
Ġbre ad
Ġre t
ar p
He y
sh ine
Ġbus h
p ed
Ġim ag
Ġli fe
g ged
Ġk ick
Ġp ower
Ġhop e
Ġshe ll
Ġcra w
Ġco zy
Ġswim ming
Tom my
Ġin c
Ġbott le
Ġsh arp
Ġs uc
Ġm ist
Ġw ra
g g
Ġcom fort
Ġinst ead
Ġwh ist
Ġmil k
Ġwatch ing
n ess
Ġret urn
Ġe ar
Ġsp in
Ġaccident ally
al m
Ġe as
Ġsun shine
t en
ĠSo on
Ġc ave
p a
ĠSam my
Ġsp o
Ġl ucky
Ġtal ked
Ġput s
Ġp udd
Ġh oney
Ġpoin ted
Ġcoll ect
Ġgi ves
Ġg ather
it ch
Ġ ent
Ġro ad
L ater
Ġb ought
Ġsmil ing
Ġany one
Ġsear ched
Ġc e
Ġh or
Ġl ater
Ġf an
b all
Ġsand w
r ound
Ġapp les
itt en
el s
ble m
ir t
Ġpro blem
Ġme et
B ob
iz e
Ġm ach
L ucy
Ġw om
Ġlo ves
Ġwom an
G ood
Åĵ I
Ġintere sting
ĠT weet
Ġpl ane
Ġpre s
Ġk iss
Ġheal thy
e b
Ġtast y
Ġp ile
Ġv ill
Ġduck s
ĠJim my
u b
o ve
Ġw ide
am ed
on t
Ġad m
a ur
Ġsp id
Ġcle ver
Ġe ag
Ġpr ot
Ġm atter
Ġtrou ble
Ġcray ons
Ġz oom
er ly
nd pa
Ġstor m
ow ed
ĠW ith
Ġcloud s
Ġpers on
Ġp ath
Ġp ill
ck s
Ġfe ather
Ġr ope
Ġp op
Ġprot ect
Ġsh ining
Ġsmell ed
Ġfr ont
Ġh on
Ġbutt on
Ġp ract
Ġspot ted
Ġmin ut
Ġscream ed
ĠE ll
Ġpres ent
Ġz oo
C ome
Ġa p
Ġsa f
Ġresp ect
Ġv al
Ġmu d
Ġdan ced
Ġor gan
Ġche er
Ġp ar
J im
Ġqu est
Ġapp eared
o nd
Ġwh ich
Ġpu zz
M olly
Ġse at
Ġte ach
Ġmy ster
J ust
Ġsnow man
is a
Ġsn ake
Ġth in
er t
a le
Ġas leep
Ġw ild
Ġs ur
Ġlove ly
ep end
Ġansw er
Ġwe aring
Ġgent ly
Ġneighb or
oo se
M um
Ġplac es
Ġb ark
Ġgi ant
Ġhor se
Ġgo es
Ġwho le
omet imes
Ġsear ch
Ġspl as
E very
ul ar
Ġimp ress
Ġcorn er
Ġdir t
S t
e en
Ġsh r
Ġm ed
Ġtri es
Ġtri p
Ġcon fused
ĠEm ily
Ġli ve
Ġd i
Ġm ind
l a
at o
Ġroll ed
Ġtast ed
n ic
Ġsl id
Ġc ard
ce an
Ġas h
Ġo cean
Ġsu pp
I n
Ġpic nic
Ġforg ive
Ġru de
Ġmach ine
ĠG o
Ġsp ent
Ġs er
e x
Ġte eth
Ġdri ve
itt y
Ġph one
ss ed
Ġo ven
ĠH ow
Ġp an
Ġla st
Ġp our
Ġc alm
Ġpretend ed
Ġdel ight
Ġcook ie
Ġspid er
Ġfe et
Ġfur ry
iz z
Ġl ay
un k
Ġfa ces
Ġwor m
ĠC h
um ber
Ġr ing
Ġre c
Ġhelp ful
Ġl ad
ĠM ittens
Ġe ventually
Ġwa ve
Ġw ip
Ġch ick
Ġm ountain
Ġsa l
Ġb an
Ġem b
on es
Ġtal king
Ġro b
Ġfo ld
Ġsh y
Ġc art
Ġtom orrow
Ġs el
Ġcho col
Ġt id
ĠJen ny
Ġsp read
Ġbu bble
Ġvill age
ar ge
if e
Ġrem ind
Ġ ign
Ġt un
Ġfo ot
Ġco in
Ġwr ite
Ġcou ch
Ġbuild ing
Ġlad der
Ġpus h
Ġfight ing
Ġsmo oth
h ile
Ġtreat s
Ġb lew
Ġtoo l
Ġch ased
Ġw ore
le x
ig hed
Ġst ret
M y
S oon
ar ra
Ġbug s
Ġhid ing
Ġemb arra
Ġkne e
Ġp ool
Ġc ross
op h
Ġwait ing
Ġst ep
Ġpudd le
Ġrob ot
at or
Ġneck l
Ġshe lf
Ġbe ll
m o
Ġfin ish
Ġc oo
n ot
al s
Ġst ir
Ġa nt
Ġwhen ever
Ġsong s
Ġsel fish
Ġm aybe
Ġcan not
Ġst ra
Ġstr ing
Ġso l
Ġchocol ate
ul t
Ġtast e
Ġre p
Ġsp e
Ġl arge
Ġh um
ĠJ ake
M ama
Ġp le
Ġn et
Ġpa w
ĠS t
le br
Ġsa ck
Ġfix ed
bo x
Ġlea f
ĠEvery where
Ġtid y
Ġwas h
Ġsc ar
ump y
Ġban an
Ġbar ked
o ld
Ġspr ay
Ġce lebr
ĠS ometimes
Ġst one
ĠJ ust
h nn
Ġg en
P lease
Ġcl oth
Ġcra b
ĠL e
D ad
Ġpeace ful
Ġcol our
ung le
ĠP lease
Ġhe l
hnn y
l ice
ir d
Ġj ungle
o in
Ġm issed
ig er
Ġd eter
Ġ '
ar m
N ow
Ġland ed
Ġdeter m
Ġfor ward
Ġembarra ssed
Ġjump ing
Sara h
Ġb at
Ġdec or
Ġhon est
ell y
Ġneckl ace
air s
ĠThe ir
d ge
Ġtr ust
Ġhe ars
Ġmo on
or ry
Ġsh irt
Ġstick s
Ġcreat ive
Ġsh aring
ĠT V
a king
Ġte a
Ġsuc cess
Ġcarrot s
Ġkn ocked
Ġdisapp oin
mo st
Ġme adow
Ġst ood
y ing
get able
Ġgen er
Ġwh is
Ġb al
Ġtight ly
Ġme ant
Ġve getable
ĠD on
Ġash amed
Ġbre ath
Ġle gs
n ed
Ġpl ate
Ġal most
Ġs our
Ġem p
Ġgr ay
d le
Ġgre w
ĠS ome
Ġpill ow
Ġtell s
Ġemp ty
g round
on y
Ġg as
Ġwhist le
Ġspl ash
Ġ On
i an
Ġunderst ood
Ġb er
B e
Ġshe ep
Ġcar ried
d en
Ġyell ed
ĠW hy
ĠL isa
T o
Ġle m
ar l
ĠT eddy
ust r
ĠA nn
v ous
Ġh ours
Ġdisappoin ted
Ġn ut
it al
Ġsnack s
Ġsa ve
Ġpol ice
er p
Ġno ds
h in
Ġwhis p
Ġje w
Ġthe se
W here
or k
Ġho sp
Ġspark ly
Ġgo ld
Ġhosp ital
et s
Ġk itten
ĠE ven
Ġsh ip
in a
ĠM um
Ġp ay
o bby
ĠTo gether
ur se
Ġb ored
Ġl ine
Ġgener ous
Ġfr ustr
Ġta ught
Ġhid den
Ġt est
Ġr ad
Ġstand ing
Ġche w
Ġscar f
Ġminut es
Ġreturn ed
if f
Ġknow ing
Ġh ur
Ġbl ow
Ġgr oup
Ġeas y
Ġbed room
Ġplant s
Ġp izz
Ġpol ite
Ġgl ass
Ġmyster ious
Ġwa ves
Ġsh ore
Ġs ighed
Ġse ed
Ġwo lf
Ġp ri
us ie
Ġsee k
Ġdeterm ined
k in
Ġthank ful
Ġpuzz le
ĠP eter
St op
Ġpower ful
Ġcl ass
J ane
Ġn er
Ġprin ce
Ġp ir
Ġf ig
ĠB e
Ġsleep y
f l
Ġpass ed
Ġsandw ich
Ġd rew
Ġner vous
Ġsp icy
' d
Ġfing er
Ġj elly
Ġfrustr ated
Ġpizz a
Ġmess y
Ġfan cy
Ġspo il
Ġmat ch
Ġg un
w ork
os aur
Ġg ate
Ġbr idge
The re
Ġlo ck
Ġfe ar
Ġt ick
au l
Ġclos et
Ġm ot
Ġre g
Ġk issed
Ġso ld
Ġfe ed
a f
Ġw is
Ġgather ed
Ġa v
Ġpo or
oo p
Ġcir c
Ġexc ite
ot e
Ġha ng
ell a
Ġes c
Ġv an
Ġcat erp
Ġcaterp ill
Ġfl ag
Ġp in
Ġgr umpy
Ġdin osaur
an o
id dle
u ce
Ġyour self
iss ors
Ġansw ered
Ġc ries
A re
Ġof ten
itt er
Ġtw irl
Ġche st
Ġ Z
s ist
sel ves
g ly
Ġho pping
p ack
Ġsc issors
m b
Ġte ars
S orry
Ġu gly
Ġm ummy
ĠR ex
er a
Ġc and
Ġb urn
ens ive
Ġde er
Ġdr op
ill ed
Ġf il
iz zy
Ġexcite ment
Ġl it
Ġsc r
Ġexp ensive
Ġwor king
Ġm iddle
Ġsa ved
ĠB r
Ġo k
Ġcaterpill ar
Ġta ken
Ġtr ue
Ġwa gged
Ġon es
Ġple ased
Ġcr own
Ġsp end
Ġb oring
ug ar
Ġle g
qu e
Ġpick s
oo f
Ġv ase
Ġt ent
Ġas king
bo dy
Jim my
u al
ĠB l
at es
Ġt ie
eci ally
Ġbr ush
Ġvegetable s
Ġgigg led
Ġbo ss
The ir
et e
W ho
Ġmist ake
s er
Ġc age
l ight
Ġm ir
Ġs ugar
Ġget s
Ġc ap
Ġrock et
ĠLe o
Ġst uff
Ġcomfort able
Ġpack ed
Ġe ld
S p
p ecially
Ġes pecially
ĠJo hnny
Ġdan cing
Ġcl own
Ġwa nder
Ġn umber
Ġs ight
Ġmed ic
Ġp ress
us hed
Ġkn ight
ot s
g gs
Ġfruit s
in ess
Ġdr um
Ġe ggs
Ġl ying
Ġf ake
r or
Ġd est
ag ed
Ġgl ue
Ġwalk s
Ġdist ance
Ġmedic ine
Ġsplas hed
Ġb ake
Ġfl ut
Ġsweet ie
Ġb one
Ġmo ving
Ġdraw ing
Ġdisapp eared
Ġsmell y
h a
Ġch ange
Ġwe ek
Ġcl ap
Ġle ad
Ġ OK
Ġbec ome
Ġpr ay
Ġlem on
Ġfeather s
Ġmo v
Ġlo se
Ġmom s
Ġli cked
Ġcall ing
Ġtw ist
Ġdog s
or y
ĠI f
Ġbath room
Ġplay ground
Ġf is
y al
en ny
Ġla zy
Ġwe ak
M e
S ally
Ġinc red
Ġro ar
Ġeld erly
Ġbo dy
?" .
Ġg ar
Ġc ri
Ġex am
Ġh orn
Ġcr ack
G ra
B illy
Ġquest ions
Ġwr ote
Jo e
Ġa dd
Ġy og
Ġyour s
Ġmir ror
Ġm ic
Ġno isy
ugg est
Ġf ather
Ġs uggest
Ġno d
Ġsk ipped
at ing
el p
ee z
Ġfl uffy
Ġ ed
Ġeag er
Ġwhe el
Ġex t
Ġd ish
Ġlo yal
ĠA t
Ġcle ar
Ġfam ous
Ġst ones
Ġl amp
Ġru ined
Ġd ig
l and
Ġr are
Ġor d
in ation
ĠE nd
Ġcont ent
Ġr ich
Ġt ape
Ġse ll
Ġfig ure
Ġdr ank
Ġm ap
Ġmar ch
Ġincred ible
Ġqu een
Ġr id
Ġgl ow
Ġshow s
Ġche ck
h ip
Ġju icy
Ġso ap
t i
Ġco vered
Ġ ind
Ġsail ed
Ġrel ax
Ġball s
Ġa w
im p
A my
ill i
Ġte am
Ġsho ot
Ġme asure
at ely
Ġdisco vered
Ġdec ide
Ġreal ised
umb led
Ġsw an
Ġneed s
Ġb orrow
Ġco ins
Ġstra w
f ic
Ġadvent ur
Ġbran ches
ce pt
ĠBl ue
Ġclean ed
H elp
Ġ No
J ill
Ġha m
Ġext ra
Ġtow el
as ing
ĠL ittle
Ġboy s
Ġbo ard
W ell
Ġmot or
Ġt iger
Ġb arn
Ġchick en
Ġmo d
Ġadventur ous
Ġdif fic
Ġt ag
Ġoff ered
Ġjo ke
Ġbubble s
Ġbal ance
Ġf ine
ke ep
Ġlift ed
i que
Ġcolour ful
Ġth ick
Ġfr own
Ġey e
Ġdiffic ult
Ġt urt
M ummy
Ġtr ack
Ġdo lp
Ġorgan ized
Ġto ug
Ġbott om
Ġhappen ing
Ġco ver
al ous
ra g
Ġun ique
p ort
Ġho se
Ġkn ife
Ġje alous
Ġwe ird
ĠS usie
Ġis land
Ġfr ight
ll a
Ġgar age
Ġman aged
c il
Ġhurt s
im ed
Ġpen cil
S ue
j ect
Ġwor d
Ġlearn ing
Ġcraw led
Ġar g
Sp ot
Ġco st
Ġcir cle
ĠM ark
Ġber ries
Ġsay ing
Ġkind ness
ur ed
Ġon ce
Ġballoon s
ol og
Ġtoug h
Ġmight y
Ġwa nd
Ġch ase
re ady
Ġba ld
Ġpoin ting
Ġt er
l ies
Ġfav our
ĠBr own
i v
Ġsh ake
ĠB obby
Ġloud er
keep er
u nd
i pper
Ġb atter
Ġjew el
ag es
Ġa dded
Ġs il
Ġun us
Ġg uit
Ġh unt
Ġhard er
Ġsp un
Ġgu ess
Ġal ready
Ġap olog
Ġed ge
he ad
Ġf our
Ġan g
Ġwh ale
Ġn orm
ĠK itty
Ġf ool
Ġli br
al k
Ġfavour ite
Ġunus ual
H ow
Ġd izzy
ra ge
Ġenjoy ing
Ġval u
a w
i pp
Ġp ump
Ġhat s
Ġsmo ke
Ġbelong ed
Ġcheer ful
Ġgra ce
Ġwra pped
Ġstraw ber
Ġimpress ed
ugg led
Ġrec ord
Ġsw ord
Ġtruck s
Ġgr own
Ġgi ving
Ġmark et
Ġre f
Ġtr unk
Ġnorm al
Ġlaugh s
an ged
ol a
Ġgra nd
Ġe ars
Ġguit ar
Ġloud ly
Ġh arm
Ġher o
illi ant
Ġbanan a
He re
Ġbox es
Ġproud ly
Ġturt le
Ġbr illiant
Ġsc are
at ure
Ġcirc les
il t
Ġter ri
Ġch oose
er y
Ġbrother s
y m
Ġboss y
Ġdream ed
Ġagain st
Ġesc ape
Ġinv ited
Ġgo at
Ġsk in
ip e
c ient
Ġhelp s
g y
Ġcomp et
Ġca b
Ġp il
Ġfright ened
Ġm elt
Ġpain ting
Ġmean s
Ġbird ie
Ġac cept
Ġfl ash
Ġpe e
Ġj ack
f ast
Ġd epend
Ġsaf ely
Ġsl ipped
Ġbutt ons
Ġstu bb
Ġwra p
Ġdes ign
Ġvalu able
Ġcray on
ĠD an
Ġst ream
Ġan cient
Ġwall s
ĠEll ie
Ġcab in
Ġbreak fast
Ġwa ke
Ġhapp iness
Ġstu dy
ed ient
ous es
Ġlo g
er ry
Ġsuccess ful
em o
ĠF red
Ġcl ay
or ge
Ġto ast
Ġknow s
Ġfool ish
Ġfall s
Ġstubb orn
Ġfr idge
Ġle an
app ing
Ġun l
y e
Ġnice ly
at ch
Ġsh ape
Ġmov ie
Ġfi er
om ed
Ġc udd
Ġr ough
Ġdream s
Ġno sy
ĠP ete
Ġc ity
Ġh ouses
Ġsp ace
Ġbl oom
Ġf at
Ġob edient
Ġdelic ate
Ġfier ce
ĠM y
Ġgra ndpa
Ġoff ice
a z
ad o
la imed
Ġtom ato
Ġsuggest ed
Ġ icy
Ġcompet it
Ġwa gon
ĠTo day
Ġsh ark
Ġnot ice
p es
Ġexc laimed
Ġde ad
Ġme m
Ġkind s
Ġwip ed
Ġmix ed
Ġshell s
e xt
Ġst ri
Ġuse ful
ut h
Ġpour ed
Åĵ Let
Ġc her
Ġlight s
Ġtool s
ĠBob o
Ġa unt
Ġlo cked
Ġsound ed
Ġsto ve
Ġth u
Ġexpl ored
Ġexcited ly
w ards
ĠR ose
Ġf rag
e orge
Ġro se
!" .
Ġe gg
Ġs on
ar ry
o ppy
Ġt imes
Ġsh adow
Ġc ro
ĠTweet y
Ġbag s
Ġen c
Ġf ountain
ent ion
o ot
ac he
d om
Ġthem selves
Ġl ow
Ġst umbled
Ġbus hes
Ġshow ing
Ġwe al
Ġspoil ed
Ġab ove
Ġsmall er
Ġfing ers
Ġre sc
Ġla b
Ġind epend
Ġperf orm
v ice
Ġthought ful
k n
Ġw itch
Ġjo g
Ġd ough
Ġfrag ile
E m
r ay
n a
Ġdepend able
Ġra ced
Ġen g
c orn
in al
Ġplay ful
Ġspin ning
Ġte le
Ġpar rot
art h
Ġhel m
Ġsee m
Ġro de
Ġstret ch
Ġbright ly
Ġprin t
orm ous
in es
Ġclo ck
Ġj am
Ġdelight ed
Ġadm ired
Ġen ormous
Ġbu ilt
Ġla w
Ġcount ed
Ġ U
Ġkick ed
Ġsw e
Ġor ig
Ġc op
Ġpract ice
Ġch anged
Ġr oof
Ġway s
ĠEll a
Ġsh one
re en
Ġr at
Ġtw ig
Ġremind ed
Ġac orn
Ġc am
Ġsun fl
Ġham mer
it her
i ence
Ġindepend ent
ee ze
Ġsn iff
Ġz ip
Ġb itter
Ġus ing
Ġhand ed
ĠYou r
Ġwhisp ered
mb re
an ut
Ġcho se
Ġch ir
kn own
Ġu mbre
Ġh oop
Ġc one
Ġlo ll
Ġsol ve
ĠMr s
Ġstrong er
Ġste al
Ġtun n
Ġjo lly
Ġser ious
Ġbe es
Ġorig inal
ĠM ar
ip op
Ġbe ak
Ġt ummy
Ġpop corn
Ġterri ble
Ġbra ce
Åĵ Yes
Ġloll ipop
Ġboat s
Ġm is
ic t
Ġpain ted
Ġf re
Ġall owed
Ġhair y
Ġmo der
ĠB ella
Ġsa uce
ia ble
Ġclean ing
Ġun known
Ġfind ing
Ġjo ined
Ġgas ped
Ġgu ard
Ġlea ving
Ġpot ato
Ġd ust
Ġsal ad
ĠB u
ie w
Ġbe an
Ġpick ing
up id
he t
Ġpump kin
S ee
in ary
ĠN emo
am ond
Ġcl um
Ġdo ve
ur ing
Ġb ump
an ger
Ġs ink
Ġcost um
Ġt ank
Ġha lf
Ġy et
Ġmet al
Ġdolp hin
Ġrel iable
Ġboun ce
Ġv iew
Ġto r
Ġdoes n
Ġdi amond
Ġth ose
ro be
Ġpo st
Ġfor th
Ġst amp
ag het
aghet ti
Ġad vice
Ġru bb
c om
Ġh ay
ĠS n
Ġmoder n
Ġbar ber
Ġ ing
Ġthin king
g u
Ġg em
Ġhold s
Ġpir ate
Ġreg ular
ĠA lice
Ġmar ble
eb ra
ug ged
red ient
Ġing redient
Ġcre ate
Ġy arn
Ġclum sy
Ġsleep ing
ĠGra ndpa
Ġsearch ing
Ġr ushed
Ġst airs
il ty
Ġweal thy
Ġst upid
Ġpre p
ĠWhen ever
Ġgu ilty
Ġtell ing
Ġpe anut
Ġche ap
Ġsp aghetti
Ġg oose
oph ie
Åĵ What
Ġch ar
Ġf lex
Ġm ask
ation s
Ġcomp ass
Ġru b
Ġpat ch
Ġmag n
Ġeng ine
ĠF r
Ġst at
Ġopen s
Ġar row
Ġz ebra
Ġsqu are
i o
ill a
Ġkn ock
Ġthu nder
eez ed
irst y
Ġumbre lla
Ġc ur
Ġang el
Ġcam era
ĠM ike
Ġcra zy
co d
Ġdri ving
Ġgrace ful
G o
âĤ¬â Ģ
Ġsh iver
Ġbe et
Ġwas hed
Ġpop ular
Ġbu ll
Ġcarry ing
Ġd ull
Ġst age
umb ers
is k
Ġmiss ing
ĠD ucky
Ġspark led
Åĵ It
M ary
f a
Ġfriends hip
Ġtr uth
Ġme al
Ġseed s
Ġflex ible
Ġcom b
Ġimpress ive
Ġt ied
Ġlibr ary
Ġsn e
t ime
Ġpe bble
Ġcare less
up er
Ġjack et
Ġp atter
Ġdel iver
Ġimag ined
Ġshe l
Ġn ature
Ġpers ist
Ġend ing
Ġre ward
is ion
Ġdest ro
Ġhand le
Ġru bbed
Ġfre sh
Ġingredient s
Ġdream ing
Ġsh ocked
ri c
Ġlo ad
Ġpri ze
Ġs udden
ĠD ave
Ġcro cod
oom y
Ġpatter n
ie f
Ġpig e
Ġcompass ion
i bb
Ġent h
Ġflash light
Ġsad ly
Ġth irsty
Ġen vel
ĠF in
Ġenc ou
Ġstr anger
in ce
ÅĵLet Ã¢
Ġenth us
Ġwhe els
em ent
Ġfor k
ars h
Ġdisco ver
Ġt em
Ġread ing
Ġn umbers
Ġdes k
Ġear ly
Ġs uit
Ġw ire
Ġpen ny
Ġpee ked
Ġbutterf lies
Ġmail box
Ġcry st
Ġsp illed
a wn
Ġg um
Ġbrace let
Ġtor n
l oo
Ġr ug
Ġstop s
Ġen v
Ġre ce
Ġcomp ut
b led
Ġa head
Ġsur f
Ġspr ing
Ġan x
Ġsor ts
ĠB ear
ell ig
com fort
Ġc ere
Ġor der
Ġob ject
Ġtow ers
Ġb ent
Ġwar ned
Ġw ing
Ġpen gu
Ġhum ble
Ġint ellig
ĠW hile
Ġe arth
Ġpu p
Ġspo ke
ĠM ummy
g est
Ġwindow s
ĠM andy
Ġun comfort
Ġplac ed
Ġav o
Ġp ow
ic hes
O w
Ġuncomfort able
Ġp ant
Ġtra vel
Y ay
Ġpa le
Ġbad ly
Ġnot e
Ġanx ious
Ġsunfl ower
Ġslid es
Ġold er
Ġtra p
Ġbig gest
Ġsc ale
Ġcom pl
i kes
Ġflut e
Ġst ack
Ġcouldn Ã¢
Ġsc oot
Ġstat ue
Ġgrow ing
ĠP e
Ġcount ing
Ġcoo king
Ġbeet le
Ġtunn el
Ġcelebr ate
Ġcomp let
Ġli z
Ġm el
ho st
ĠB ill
Ġso fa
Ġcup board
Ġharm less
Ġmu sh
Ġn ail
Ġsc atter
Ġmo le
ĠK im
Ġbeaut y
Ġs uper
Ġval ue
Ġn urse
Ġper m
Ġde af
Ġpersist ent
W hile
Ġ er
Ġhun g
Ġsh ut
Ġjump s
Ġcrocod ile
ĠHe re
Ġcr ane
Ġg host
Ġgif ted
Ġtri ck
Ġchar ming
Ġre fused
ĠG ive
Ġne at
Ġnam es
Ġcou rage
Ġy awn
Ġc urt
Ġfl our
ĠL ola
c ream
Ġra ven
op us
Ġcere al
Ġb ase
Ġp ony
ct opus
Ġt ur
ic es
Ġsandw iches
ĠTo by
Ġpretend ing
Ġcurt ain
Ġsupp ort
Ġsn uggled
Ġord inary
u d
Ġdestro y
Ġch asing
a id
Ġun iver
Ġquest ion
ac hes
ĠL ook
Ġtri ang
Ġenvel ope
Ġdraw er
D aisy
Ġset t
Ġc amp
us ed
Ġcomput er
Ġcraw l
a by
Ġlive ly
Ġv i
Ġs end
Ġatt ract
Ġru les
Ġo ctopus
A lice
Ġgl oomy
Ġcart oon
Ġintellig ent
Ġun cle
Ġm ay
ip s
Ġpi ano
Ġspe ed
Ġcryst al
Ġcoll ar
Ġtur key
Ġpack age
Ġsh aking
Ġhelm et
c u
Ġpar ade
Ġblue ber
Ġmush room
udd y
Ġneed le
Ġcreature s
ĠE ventually
o e
Ġph ot
Ġtwirl ed
Ġhur ry
he art
a ff
ill ie
st ri
R e
Åĵ That
en ry
Ġliz ard
u bby
er able
or ant
ce ed
Ġal ert
Ġt ask
g ust
Ġsold ier
Ġth ief
Ġst ation
Ġmis erable
arl ie
Ġpe pper
Ġfire man
Ġhunt er
Ġb icy
Ġdis gust
Ġany where
Ġd ug
c ut
Ġcar p
Ġen er
i est
Ġse al
Ġre sist
Ġwis hes
Ġl ed
Ġv ide
co a
Ġign orant
Ġbe ep
Ġband age
Ġstick ers
Ġhelp less
Ġboun ced
Ġsc reen
Ġrep e
t ter
G ive
Ġrad io
Ġtra sh
Ġpract iced
Ġsec ond
Ġsh ine
Ġmu ff
Ġle ash
Ġch ance
Ġimp at
Ġletter s
Ġm ill
Ġattract ive
Ġto oth
Ġcu be
Ġstret ched
Ġstir red
Ġno body
Ġth read
um mer
Ġch ubby
ur b
Ġp and
Ġcri cket
Ġpast a
Ġje ep
Ġpige on
Ġcompassion ate
I f
Ben ny
Ġj et
Ġf u
Ġg ir
s es
Ġtr ump
ĠG eorge
Ġdecor ate
ĠC l
ar ian
Ġt ire
Ġco coa
or able
Ġbright er
Ġcl ub
Ġdist urb
Ġstep s
c col
Ġsuc ceed
ĠP olly
Ġimpat ient
ccol i
Ġcompetit ive
Ġrespect ful
Ġfur ther
Ġj ug
Ġo tter
Ġtrou bled
Ġit self
Ġpress ed
a ked
n oon
Ġcand le
Ġb et
Ġafter noon
ol in
Ġatt ic
Ġstart s
ĠA l
Ġo stri
ĠW h
Ġm ug
Ġp un
Ġrest less
Ġt ap
Ġsome where
Ġcarp et
Ġr ibb
ĠA re
Ġsho e
Ġdisgust ing
Ġd ess
Ġtr ay
Ġwa ff
Ġany way
Ġqu ar
Ġall ig
Ġad orable
st ic
aur ant
Ġv ine
Ġsk ip
Ġfor t
Ġshout s
Ġnut s
Ġg or
Ġle op
Ġc ase
g n
Ġrest aurant
Ġfear ful
Ġenv ious
Ġpant s
Ġsc rew
c ome
op ter
ic opter
Ġsweet heart
Ġc ards
Ġfil thy
L ittle
Ġdist ant
ia stic
Ġtrump et
ĠS h
Ġenthus iastic
Ġexp er
Ġgigg le
Ġh ipp
Ġbro ccoli
Ġcoo ked
Ġhel icopter
Ġmonkey s
ar oo
ang aroo
Gra ndma
Ġh ook
n ight
Ġre co
Ġp or
gg ing
Ġsand box
ĠW ould
ĠW here
ĠBrown ie
ir it
Ġt en
Ġnow here
Ġback pack
Ġso ar
Ġadm ire
Ġh arsh
Ġs ent
Ġb ri
ĠL ee
cy cle
Ġbat ht
Ġscoot er
ll ie
Ġp ipe
Ġexpl ain
Ġbel t
Ġme as
g ie
Ġbatht ub
op l
Ġa nts
er opl
Ġcount ry
Ġbark ing
Ġk angaroo
Ġqu ite
Ġpo em
Ġun pack
p ar
Ġa eropl
st airs
Ġspe ak
Ġcow s
Ġsp ell
Ġtem p
Ġl id
Ġhapp ier
Ġleop ard
Ġsqu ash
Ġbicy cle
Ġrep air
im i
Ġm ama
ĠEvery thing
Ġse par
Ġlisten ing
Ġs ummer
Ġc ush
Ġst ared
Ġfire work
Ġbre at
ĠA lex
Ġmess age
uc t
Ġdidn Ã¢
Ġgrab s
Ġloo p
Ġmu le
Ġgi ven
Ġc omet
Ġostri ch
h ood
Ġhum an
Ġgor illa
ap a
Ġsor t
Ġpa id
Ġimp ro
J enny
ĠJoe y
Ġyog urt
y ear
Ġmod est
Ġfind s
Ġob ser
Ġdess ert
Ġme at
ĠS ophie
Ġallig ator
Ġu r
i pping
Ġhe dge
B ye
Ġvi olin
Ġmel on
Ġsp irit
Ġjelly fish
s hed
ĠS m
Every one
Ġpull s
Ġspl it
Ġresc ue
Ġtri pped
uck ed
Ġpaw s
Ġpro v
Ġs ize
Ġf ive
Ġwhe at
Ġho les
Ġforg ave
Ġro ared
Ġcat s
Ġp urse
ĠP at
oph one
Ġpil ot
Ġreco gn
Dad dy
Ġra ft
Ġhipp o
Ġha ll
Ġt ax
Ġca ct
Ġshe et
Ġpus hing
Ġswing ing
Ġin se
Ġorgan ize
Ġb ikes
Ġs le
c i
Ġp al
Ġsc old
Ġbeh ave
Ġsal t
Ġr ice
Ġsh ade
Ġstart ing
Ġhair cut
Ġo at
Ġb in
Ġlight ning
Ġtriang le
ĠTweet ie
Ġbu zz
e er
Ġf le
Ġener gy
ĠSn ow
b ul
lc ano
Åĵ You
Ġrid ing
Ġp ed
al ed
isk ers
Ġb ur
Ġpor ch
Ġfrown ed
Ġkn ot
Ġe ither
Ġle ar
Ġm ath
Ġlear nt
eb ook
Ġli p
il ing
Ġnot ebook
se um
Ġtra ins
Ġend ed
Ġwall et
in king
Ġch alk
Ġbanan as
Ġl end
Ġl uck
Ġcact us
re ci
Ġeven ing
Ġpand a
Ġstick er
Ġswe ater
Ġro d
Ġvo lcano
Ġpap ers
Ġmu seum
Ġjo kes
Ġapp reci
u be
Ġli ons
Ġpal ace
Ġbo ots
Ġtax i
Ġstrawber ry
Ġbear s
Ġroll ing
Ġneighb our
Ġch ain
Ġshop keeper
Ġmic r
Ġbar rel
Ġhad n
ast ic
Ġer as
f fe
Ġsh akes
ic er
oo ped
Ġm ild
Ġsil ver
ffe e
Ġla und
ur ch
ĠR ed
pl ay
Ġre ind
Ġal ive
Ġsmell s
ĠAnd y
Ġlaund ry
Ġste ak
Ġso ck
Ġstr ugg
ir on
Ġpo le
Ġgo al
ĠJ erry
Ġavo c
Ġin k
Ġmicr ophone
Ġput ting
Ġsoft ly
Ġpus hes
Ġvis ited
Ġo l
ed y
Ġtri cks
Ġcl apping
ĠT r
Ġmagn et
Ġju dge
Ġdraw ings
Ġsh ield
Ġp ad
Ġfall ing
Ġt ube
Ġcol ours
Ġsail or
Ġsho vel
Ġlean ed
Ġair port
Ġzoom ed
Ġh ive
H a
Ġshel ter
Ġbelong s
Ġam bul
Ġunl ock
Ġpengu in
ag gie
Ġspr ink
ha ppy
Ġche cked
Ġin sist
Ġr ag
Ġquar rel
Ġmar ched
el ery
Ġclimb ing
hin o
ĠB et
Ġdis play
c ast
Ġreind eer
Ġg ro
Ġo y
ĠP aul
Ġsa us
Ġaeropl ane
en se
Ġdis hes
Ġav ail
op hy
Ġd ive
Ġpol ish
Ġdon Ã¢
Ġambul ance
Ġgra pes
Ġbark s
Ġfield s
g es
Ġele v
Ġsand cast
Ġpe ek
Ġapolog ized
Ġy ach
ĠP apa
Ġco ffee
Ġtr ophy
Ġsk ill
a it
sel y
Ġcostum e
Ġso il
Ġhop ing
an ic
Ġplan et
Ġrubb er
Ġfeel ings
Ġun happy
ĠB unny
ĠO r
Ġar t
r on
Ġmed al
Ġelev ator
Ġrain ing
ch anic
Ġdrop s
Ġfil m
Ġshr imp
Ġk itty
Ġr hino
n ger
Ġpr un
âĤ¬âĢ ľ
Ġavail able
Ġminut e
Ġc ord
Ġthank s
Ġst om
Ġmar ry
Ġm en
Ġw ool
Ġinc l
ect ed
Ġfis her
Ġshould n
Ġbasket ball
Ġc elery
Ġher b
Ġbu l
ree ze
Ġon ion
Ġsh ort
Ġperfect ly
Ġyach t
Ġeras er
Ġme chanic
ĠB uddy
Ġp age
Ġimag ine
Ġwin ter
Ġre ver
Ġfl ies
n am
Ġcomplet e
Ġdi ary
Ġapp l
Ġclo sely
Ġinse ct
Ġmag az
e ath
Ġcard board
ĠW ill
Ġeag erly
Ġjourn al
Ġplay er
Ġve nd
ĠWh iskers
Ġba king
Ġdis ag
Ġf urn
it ure
Ġqu it
ĠSm ith
Ġgl ove
Ġbul b
a zz
Ġfurn iture
Ġstuff ed
Ġtreasure s
Ġt ub
g en
qu it
Ġimag ination
Ġbreak s
Ġsk ull
ec ause
Ġhead ed
Ġch urch
Ġw ife
Ġfree z
Ġfrog s
Ġcool er
Ġp air
an y
Ġcount er
Ġt ut
Ġkn ob
ma nd
Ġp it
Ġsw itch
w een
or ies
st ead
Ġfa ctor
Ġfoot ball
r ight
if l
aul ifl
Ġs ym
Ġsun set
pl ace
Ġoff er
id es
Ġbet ween
Ġli e
Ġche ek
Ġmo s
C h
quit o
Ġmotor cycle
Ġfactor y
Ġcup s
ĠT ed
Ġsw ung
Ġchir p
Ġshout ing
Ġfl ame
Ġtw ink
Ġblow ing
ke let
p e
Ġpe ach
Ġsun g
Ġc aulifl
Ġh ut
. .
Ġgo lf
bo l
nam ent
l ass
Ġpain ter
ĠM imi
Ġvend or
af fe
Ġor nament
Ġsee ing
Ġvide o
Ġhot el
Ġmos quito
c cer
Ġfold er
Ġpir ates
a b
iz es
Ġcush ion
Ġco al
Ġcreat ed
Ġk ay
Ġthrow s
Ġsym bol
Ġmix er
Ġhead s
Ġo il
Ġfr ame
ors es
Ġfisher man
m m
ĠMar ia
ĠB aby
ĠB un
ang u
z zy
Ġso ccer
cer os
Ġpo pped
Ġc able
Ġs kelet
Ġcaulifl ower
Ġp ine
Ġbatter y
e f
Ġh orses
Ġatt ention
Ġwip e
Ġl angu
Ġstu d
Ġforgot ten
Ġla ser
Ġli ves
Ġwe ather
Ġa x
Ġcelebr ated
os ie
Ġpow der
ro d
ĠL illy
re nder
Ġm op
Ġtra il
Ġs ince
ĠGo d
Ġfis hing
Ġr ot
aw s
ĠI Ã¢
Ġphot o
Ġsur round
Ġma ze
Ġsle pt
it es
el come
Ġwa ving
ĠR o
Ġyog a
Ġrhino ceros
un ately
Ġsne ak
Ġan ch
Ġde ar
ĠGra ce
Ġint rod
Ġgir affe
Ġpo ke
In side
Ġsw amp
Ġpoin ts
Ġfle a
Ġit ch
lass es
Ġb reeze
Ġpoin t
Ġglow ing
Ġfire place
Ġit Ã¢
n ey
Ġsung lasses
You r
ĠCh arlie
Ġking dom
Ġv et
Ġsu b
Ġ iron
Ġtut or
Ġmem ories
Ġstre ng
ĠAnn ie
sp ap
Ġpet als
Ġv est
Ġre ve
Ġtun a
Ġpare nt
Ġax e
Ġcompl ain
Ġmist akes
Ġbase ball
Ġnew spap
Ġdan cer
her o
Ġce iling
Ġfo g
Ġ ig
ĠS andy
Ġchick ens
Ġgre edy
ro sc
Ġstreng th
ck ey
Ġsquirrel s
Ġig loo
Ġho ckey
Ġskelet on
Ġgr in
Ġanch or
Ġs ir
u es
Ġsuper hero
Ġgold en
Ġarg ue
Ġsniff ed
Ġnap kin
Ġgro cer
E ventually
ch ie
Ġmusic ian
ĠT ony
rosc ope
ĠU n
Ġtra ve
Ġtemp le
Ġst aff
Ġhang ing
med i
Ġun if
Ġsk irt
Ġbu ry
Ġag ree
medi ately
Ġsqu e
Ġdis cu
Ġunif orm
Ġeat en
Ġthe ater
Ġmeet ing
Ġmic roscope
ĠJ ess
ist ol
Thank s
Ġsl ipper
Ġwelc omed
Ġz ipper
Ġshould er
Ġinv est
ss ible
Ġquiet ly
Ġse as
Ġp istol
Ġl ime
Ġpin ch
Ġfl apped
ch air
Ġinvest ig
Ġslipper y
Ġmin er
er c
Ġf ought
Ġrad ish
Ġaccept ed
ree k
Ġthrow ing
Ġdoor s
Ġboun cing
ĠIn stead
m en
Ġpl astic
To day
h ouse
Ġco b
Ġcall s
Ġstick y
Ġc reek
Em ma
t ress
Ġpe ar
Ġmat tress
Q u
Ġkay ak
t ain
Ġsur render
Ġmo ves
ĠH enry
ac es
Ġno vel
all ey
Ġv room
W ait
Ġcu b
Ġc ared
Ġfreez er
Ġlaw y
Ġs uff
l er
Ġavoc ado
is on
au d
Ġlot ion
ĠM illie
c ase
Ġwr iting
Ġre ef
Ġfa uc
Ġnew s
t e
Ġoy ster
w as
in ked
Ġarm chair
w eb
Ġv alley
Ġmake up
Ġinvestig ate
an ny
Ġsail ing
Ġmyster y
Ġt ug
Ġreg ret
Ġcher ries
Ġcri b
Ġex erc
Ġfauc et
was her
im ney
Ġwor th
Ġsplas hing
Ġtick et
Ġto il
Ġcollect ed
ĠK ate
Ġspray ed
To gether
Ġag re
Ġmagaz ine
Ġch imney
Ġpresent s
Ġpre vent
Ġwa gs
Ġcob web
N ext
Ġhapp ens
Ġdish washer
ÅĵIt Ã¢
Ġpass port
Ġent ered
Ġqu ack
Ġte ar
Ġcast les
Ġscold ed
Ġve il
Ġshr ugged
Sam my
Ġh ar
Ġsepar ate
Ġappl aud
Ġwe igh
i ves
Ġtoil et
Ġche ss
le nd
Ġal arm
Ġblanket s
Ġr ake
Ġt ucked
Ġign ored
ĠDan ny
Ġcho ice
e ve
Ġlawy er
Ġcoat s
i ved
Ġkiss es
Ġcand les
Ġclass room
ĠR u
Ġpudd les
Ġhop es
Ġatt ach
Ġapp ro
Ġfollow s
Ġeas ily
et y
Ġap art
r ing
s it
Ġbee f
Ġdisapp ear
Ġchair s
Ġburn ed
Ġb other
Ġstra ight
Ġlet ting
Ġy ield
ĠN ext
eter in
eterin arian
Ġcan e
Ġdress ed
Ġtrust ed
Ġv eterinarian
Ġra z
Ġwar d
Ġs izes
Ġtele ph
Ġlangu age
Ġcar ing
Ġbl inked
ĠS u
ra ged
at ched
Ġr ise
Ġjewel ry
Ġplan es
id ay
Ġward robe
A nn
Ġre qu
Ġshow er
Ġkeep ing
Ġo ak
v ision
Ġst able
ĠH arry
Ġmiss ile
Ġcross ed
Ġla wn
Ġnewspap er
Ġcl aws
Ġteleph one
Ġbooks he
M andy
Ġcabin et
Ġst ro
Ġpuzz les
r s
Ġs igh
Ġtr ade
m end
Ġroom s
Ġc ell
iv al
Ġa ut
Ġinc re
Ġin f
un a
Ġscr atch
Ġtorn ado
Ġwhisp er
ĠM iss
Ġsn ap
Ġbook case
ang es
Ġamaz ement
Ġblueber ries
amp oo
ct ion
Ġsqu eezed
om mend
B ecause
Ġbookshe lf
Ġper fu
Ġrec ommend
ĠR osie
Ġdel ay
Ġop era
Ġp ra
Ġsub way
at ie
Ġgr ill
Ġg ym
Ġraz or
ĠA b
Ġtele vision
Ġrequ est
ĠS ee
gg y
Ġp ur
Ġcraw ling
Ġpo ked
ĠHe lp
om es
ict ion
âĤ¬ .
Ġb ill
Ġfollow ing
Ġho l
Ġbl ouse
Ġsp ear
Ġmin t
Ġexper ience
ĠTr ue
Ġli cks
Ġsqu eeze
Ġf ile
Ġhol iday
Ġl umber
Ġsh ampoo
Ġste am
Ġde mand
Ġcr ow
iction ary
Ġimpro ve
Ġser ve
fort unately
Ġring ing
Ġcl iff
Ġribb on
Ġperfu me
I s
Ġim mediately
a h
Ġhelp er
Ġf est
Ġmuff in
bb ie
Ġd ictionary
Ġgrow led
Ġbe gged
Ġshr ink
Ġis n
Ġmat ches
Ġide as
Ġwarm th
Ġpr op
i b
Ġmust ache
Ġbl ood
Ġwas te
Ġbird c
Ġsn eeze
Ġinv ite
h ic
Ġve hic
up s
ore s
uck ily
ĠJ ul
Ġrabbit s
Ġbirdc age
Ġal right
Ġg ear
Ġfu el
Ġwe ep
Ġmar ried
Ġy ucky
Ġinst r
Ġflut ter
Ġfall en
as is
ĠR e
Ġca lend
Ġber ry
Ġref re
Ġr ow
Ġra il
l ier
D id
Ġpast ry
Ġworm s
Ġlaug ht
Ġbrave ly
Ġbel ow
uc ture
Ġw igg
Ġkne el
Ġstr ucture
ĠCl ara
Ġwander ed
Ġsurpr ises
W ill
Ġb le
is ing
Ġunderstand ing
Ġp ages
Ġhurt ing
Ġlaught er
Ġd ire
Ġo asis
Ġcalend ar
Ġair pl
Ġdra in
O k
Ġheart s
omed ay
Ġent er
Ġit em
ink y
ĠI s
as p
Ġhar b
om ob
Ġcra sh
Ġsaf ety
Ġap ron
Ġflo at
Ġre aches
Ġbu ried
Åĵ No
Ġbat he
Ġaut omob
Ġadm ir
Ġcap tain
ache l
Ġj unk
Ġro ot
Ġstrawber ries
Ġrelax ed
Ġbuck le
Ġmy self
Ġsandcast le
ht ray
Ġign ore
Ġskill s
or al
Ġpl ates
L isa
W elcome
Ġwh ip
ĠF o
' ve
Ġmoment s
Ġas htray
Ġsp ade
Ġrever se
ic ing
ar i
Ġfest ival
ĠW ho
ĠK ing
Ġqu iz
' .
r iger
c akes
Ġbe amed
Ġref riger
Ġsn apped
Ġra ise
Ġs omeday
Ġrefriger ator
Ġrece ived
Y uck
Ġear lier
Ġto ng
ĠFr eddy
Ġv ac
Ġmod el
Ġwe ap
Ġteach ing
ĠPe ople
Ġma ss
Ġli c
Ġharb or
Ġsa ving
ap ed
ĠSnow y
Ġvan ished
Ġspark ling
Ġinsist ed
Ġspot s
Ġbump ed
Ġso cks
ĠIt s
Ġth umb
an na
Ġsupp ly
x y
iss ion
Ġd ried
Ġprep are
Ġto es
ig ail
Ġjew els
Ġj ail
Ġbal an
Ġblack board
Ġspend ing
Ġscatter ed
ĠBe fore
Ġsc ooped
Ġsett led
Ġspark le
Ġperm ission
am ber
Ġkn own
ct ly
ĠM ay
Ġbreat he
Ġbo ot
Ġyawn ed
Ġa chie
W ith
Ġdestroy ed
Ġwaff le
ĠJ ames
Ġre s
Ġte ase
Ġhard ly
ant ly
Ġrepl ace
Ġbath robe
Ġencou raged
Ġrem ain
Ġd are
Ġdecor ations
Ġlemon ade
Ġpr ide
st ers
Ġrem ove
Ġpull ing
Ġha nger
op s
Ġsit s
ĠH ave
P eter
Ġcudd led
av id
Ġh ate
Ġd aisy
Ġbean s
Ġresp ons
Ġs imp
Ġp ort
iz ard
Ġlic ense
s ing
Ġchirp ing
Ġpra ised
re at
ent s
Ġhit s
Ġsuff er
Ġpatient ly
xt ure
Ġbuzz ing
Ġfast est
Ġm ention
Ġe qu
Ġdress es
Ġr hy
s ity
n ies
o sed
Ġm all
Ġble ed
Ġappreci ate
Ġdest ination
Ġh omes
Ġtall er
Ġpo ppy
Ġn ation
Ġfl av
Ġautomob ile
Ġd igg
Ġgu y
i um
Ġw ine
Ġp alm
Ġclimb s
Ġbelie ved
Ġwas hing
M mm
Ġgl o
Ġdigg ing
Em ily
Ġsh ot
Ġhe sit
A ll
f ied
Ġinf ant
Ġappro ached
Ġlab el
Ġdeep er
Ġto re
Ġn one
Ġch amber
Ġsc ore
Ġrest ore
Ġm itten
u de
Ġher s
ĠO llie
ĠT ina
Ġstrugg ling
Ġdiffere n
Ġsaus age
Ġhe at
r m
Ġpillow s
Ġpun ish
Ġhill s
Ġtong ue
Ġhur ric
Ġsn eezed
Ġw izard
Ġsp ort
Ġbill board
Ġbra in
Ġprov ide
ĠE ach
J ake
Ġdiscu ss
Ġthr illed
Ġaw e
Ġup stairs
Ġwar ning
Ġpan ic
Ġtwist ed
Ġuniver se
Ġgl owed
Ġvac ation
Ġpart s
Ġsol ved
Ġwor se
Ġcr unch
Ġpo ison
Ġfire f
Ġthe rm
os ity
Ġairpl ane
Ġset ting
Ġe vent
Ġshe d
ĠC o
be y
all en
M ark
Ġto ur
Ġplay s
Ġexam ine
Ġran ch
Ġrem ained
Ġspark les
Ġneighbor hood
Ġhurric ane
Ġflo ated
Ġinv it
Ġtherm omet
Ġch allen
Ġshoot ing
Ġch ores
Ġor anges
Ġst y
th m
Ġweek s
ĠM aggie
Ġle ak
Ġuniver sity
ĠBet sy
Ġrepe at
ĠEvery day
Ġbit es
Ġpaint s
Ġthermomet er
The se
ad ium
Ġb ang
Ġfix ing
Ġflo ating
Ġmeas ured
g ing
S h
Ġsupp osed
Ġst adium
Ġd uring
Ġgrin ned
Ġsurround ed
!" ,
! '
Ġrhy thm
asp oon
Ġpa used
d o
Ġcon f
F l
Ġbr ings
Ġf ut
Ġcher ry
Ġmass age
Ġgif ts
Ġfa sc
Ġfut ure
Ġsign s
Ġmarble s
Ġsprink les
Ġcollect ion
Ġte aspoon
Ġgre y
bble s
Ġj azz
ÅĵI Ã¢
Ġmem ory
J en
r ise
N ot
ĠBu zz
Ġfl ood
Ġstom ach
Ġwis dom
em ember
Ġdisco very
Ġact ually
W ould
Ġg ust
Ġincl ud
Ġvehic le
Ġse w
is hing
Ġt ide
Ġl ily
Ġgirl s
Ġsun rise
ĠG ood
ĠL iz
v et
Ġme owed
l s
Ġelephant s
ÅĵThat Ã¢
Ġchew ed
Ġexerc ise
Ġur ge
Ġr ush
Ġmail man
Ġl ugg
er o
Ġdec ision
um ble
Ġstr ang
Ġobser ve
Ġweap on
Ġun ite
Ġlugg age
Ġfasc in
Ġsc ur
i ers
Ġpo ssible
ĠL ater
Ġcartoon s
Ġso re
Ġto e
Ġtomato es
Ġfold ed
Ġcur led
all ow
Ġgra pe
ĠRu by
Ġmelt ed
Ġr ust
Ġs ip
c les
Ġ V
Ġsun light
Ġchir ped
it ies
Ġcollect ing
Ġsp ill
Ġc akes
u ing
Ġminer al
Ġ x
ĠR achel
Ġbr us
s on
Ġdifferen ce
e ed
ĠJo y
Ġjo gging
Ġproblem s
Ġtrack s
Ġwhere ver
Ġb es
L e
er ation
Ġmountain s
Ġb ak
Jo hnny
A l
Re ady
Ġslid ing
Ġman age
ĠM e
et ch
Ġla id
ip ment
Ġwater ed
Ġli ck
Ġadmir ing
ĠSp ike
Ġsat is
Ġcont ain
c ious
Ġpotato es
Ġequ ipment
o ved
Ġpet ted
r r
Ġsk ipping
Ġpattern s
ĠSome one
Ġtwig s
Ġkind ly
Ġseat s
Ġbri cks
Ġsold iers
E x
Ġe mer
b ers
z ag
Ġsl ice
Ġglo ves
Ġrece ive
joy ed
Ġcontin ue
und ay
dd y
om as
Ġsp aces
Ġlet s
w alk
Ġg ain
Ġco pper
Ġstrang ers
Ġkeep er
Ġord ered
Ġover joyed
Ġgot ten
Ġz ipped
Ġwhist ling
Ġwat ches
m other
Ġpig s
Ġland s
Ġg az
Ġbes ide
ĠS unday
Ġsaf ari
ĠC at
Åĵ Thank
Ġpray ed
ĠSt eve
Ġbe g
bb led
Ġpe ered
S usie
Ġsp it
Ġe ff
Ġmarch ing
Ġinvit ation
Ġour s
Ġnet work
ĠP enny
Ġside walk
as es
Ġearth qu
Ġeag le
ig zag
Ġgl itter
Ġacorn s
Ġwood en
Ġdog gy
Ġdrink s
Ġdisag reed
ir p
Ġwe ight
Ġwere n
Ġgrocer y
Ġn avy
Ġatt ached
Ġra ised
Y um
l oe
ĠLet Ã¢
Ġbe at
ĠP oppy
Ġcomp any
ĠM illy
f y
O uch
he st
Ġm ister
Ġon wards
" ,
Ġhapp iest
Ġburn ing
Ġw re
Ġra cing
Ġf ed
Be fore
M oral
Ġspoon s
Ġcra shed
Ġbr id
ĠSp ark
se ek
Ġcrunch y
ĠSh aring
Ġpeanut s
Ġhis t
ĠR a
Ġme ow
Ġwhist led
Ġhur ried
n ie
Ġpri ce
Ġacc om
Ġtre mb
Ġbri ck
Ġfl ap
Ġoff icer
Ġrefre shed
Ġop eration
Ġscr atched
Ġhist ory
Ġp ies
Ġwork s
Ġcle aring
ĠS ad
Ġex a
Ġprep ared
Ġfirework s
Ġbow ed
Ġrem em
am b
Åĵ We
Ġlip s
Ġesc aped
ad ed
am ie
Ġremem bers
Re ally
Ġprun e
Ġplant ed
ĠCh r
Ġtal ent
Ġmen u
ĠK atie
Ġeas ier
Ġdinosaur s
Ġbuild ings
ĠAb igail
Ġbrid ges
Ġcom fy
Ġreve aled
Ġturn ing
R o
Ġby e
Ġhat ed
Ġ Qu
Ġol ive
Ġscream s
Ġbra nd
ĠL una
ĠZ oe
Ġc hat
Ġaccom pl
Ġrecogn ized
Ġsell ing
Ġcre pt
d ie
Ġwar n
Ġsnow ball
Ġpre cious
ĠN ot
omet hing
ĠF ro
Ġland sc
Ġstri p
Ġpad d
Ġmu ddy
Ġw id
xy gen
Ġdr inking
Ġs ings
Ġsett le
Ġearthqu ake
ect ure
ĠRe my
ĠM at
Ġbed s
Ġsimp le
Ġpu pp
Ġeff ort
Ġremind er
Ġsl ip
c c
Ġmeas uring
Ġl ecture
Ġper ched
Ġspaces hip
Ġapp ear
Ġser ved
Ġb ones
Ġwonder s
Ġvo ices
Åĵ Can
Ġshadow s
Ġwait s
Ġevery day
Ġcudd le
Ġped al
Ġrespons ible
ff ic
Ġve l
Ġcomfort ed
Ġcirc us
Ġso ared
Ġv ict
Ġrain ed
Ġagre ement
Ġp itch
Ġo bey
Ġany time
Ġsucceed ed
Ġall ow
Ġz igzag
Ġt ip
Ġc al
Ġfa sh
Ġtra pped
Ġwhat ever
Ġtast es
Ġsecret s
Ġsho pping
Ġvill ag
Ġapolog ize
Ġlandsc ape
ĠD avid
Ġran g
Ġcut ting
Ġvel vet
Ġpet s
Ġprin ter
Ġb un
Ġdisturb ed
Ġtra ffic
Ġitem s
Ġbring ing
Ġwa ist
Ġste el
Ġoat s
Ġpract icing
Ġswim s
Ġrest ed
Ġexa ctly
Ġvisit ing
L uckily
Ġsc oop
Ġol ives
Ġact iv
Ġsister s
Ġcostum es
iz ing
anna h
Ġansw ers
ĠFr ank
i en
m ble
la ire
Ġbr ushed
Ġmouth s
is hes
Ġsty le
Ġso ak
ĠP r
Ġfash ion
Ġcuri osity
ĠS unny
n eath
Ġre le
Ġout do
Ġbre aking
Ġown ed
ĠN ut
Ġlady b
Ġim age
Åĵ Don
Ġencou rage
m are
Ġben eath
Ġfascin ated
T weet
ic orn
Ġkn elt
Ġwaff les
om ing
Ġvillag ers
Ġun icorn
Ġunder ground
Ġnail s
igg y
Ġle ather
ter day
Ġsad ness
Ġunl ocked
Ġd ied
ent y
Ġcatch ing
Ġo xygen
ĠCh irp
Ġgrand mother
Ġdown stairs
Ġrecogn ize
ĠIt Ã¢
Ġcre ation
Ġtre mble
ind a
Ġjo gged
ĠJ e
ist en
Ġche f
Ġmon sters
Ġpup il
Ġeat s
i k
Ġnight mare
ĠThe se
Ġwant ing
Ġdoctor s
Ġc ape
Ġstri pes
Ġso aring
ĠHow ever
Ġblueber ry
Ġstr uggled
Ġfam il
le y
ĠB eth
Ġwonder ing
Ġbleed ing
Ġpun ished
Ha ppy
Ġlem ons
Ġg ained
Ġplan ned
Ġf etch
Ġn icer
ĠS omething
Ġmiss ion
ay la
d am
Ġc aut
Ġherb s
Ġguess ed
F irst
Ġdra g
Ġexam ined
Ġsteal ing
Ġsit u
Ġare a
Ġs i
Ġmach ines
Ġfree ze
ĠF irst
Ġcomp le
u ke
Ġarg ued
Ġintrod uc
Ġstir ring
Ġpil es
Ġchallen ge
S ometimes
Ġr ipped
Ġs ix
Ġbe nd
Ġfire men
U n
Ġstud ied
Ġt ugged
ĠSu zy
Ġb are
Ġwa gging
Ġzoom ing
Ġvict ory
ag ull
Ġaccident s
ĠO w
O r
Ġsatis fied
Ġprop erly
Ġbun nies
Ġinstr uct
D ave
Ġwre ck
Ġwin ning
Ġkey s
u x
Ġshiver ing
loo king
ĠUn cle
ul u
Ġincre ase
Ġtun e
Ġex it
d ing
Ġm ice
Ġgather ing
Ġload ed
Ġoutdo ors
Ġte asing
Ġwin ner
Ġfiref ight
Ġse agull
Ġtwirl ing
Ġdecor ated
ux u
Ġpe el
Ġsl apped
Ġpe arl
Ġneighbour hood
Ġsupp lies
Ġsight s
Ġunder neath
Ġdes er
Ġyell ing
Ġperm it
Ġpan cakes
us an
ĠK e
Ġpe aches
Ġtick ets
Ġan n
Ġrid es
Ġbeg in
Ġsi ren
o h
Ġbur row
en a
ĠJ an
Ġwe ighed
Ġmix ing
Ġrele ased
Fl uffy
ak y
ĠT w
Ġsne aked
Ġdraw s
ind y
Ġconf ident
. '
Ġreal ize
ic a
Ġinstruct ions
Ġl uxu
ĠFl oppy
Ġspid ers
Ġcont ro
L ola
Ġd am
s hing
Ġintrod uce
ĠNut ty
B ella
Ġmuff ins
Ġsol ut
Ġpin ched
Ġbu dge
Ġz ero
C l
Ġlet Ã¢
ĠRa bbit
ĠL ucky
Ġstudy ing
Ġcompetit ion
Ġlo ving
ĠJul ie
Ġin ch
a les
Ġprin ted
Ġop in
Ġstr uck
Ġba ked
Ġre lease
Ġbeh a
Ġpocket s
Ġshould ers
Ġb unch
Åĵ Look
Ġfro sting
Ġl ines
ĠD id
ĠCo co
Ġdec ides
Ġgigg ling
Good bye
Ġbro om
Ġemer gen
Ġour selves
ĠL ike
n es
Ġcon es
Ġstamp s
Ġpast el
Ġtrave ll
Ġwe b
G eorge
ĠO l
Åĵ Hello
Ġst air
Ġladyb ug
ĠP ip
ĠSt op
Ġru ler
Ġs ides
bb ing
Ġscur ried
Ġmark s
Ġst itch
Ġgr ant
Ġt im
o ed
âĤ¬âĢ Ŀ
a is
M ike
Ġstr ings
Ġprun es
M r
And y
ed nes
ednes day
Ġpo king
T eddy
Ġdri ft
Ġpe ars
Ġrepe ated
g ers
Ġag o
Ġkeep s
Ġclap s
ĠA m
Åĵ This
ant a
Ġcrow d
Ġstretch ing
ay s
ĠTh omas
Y e
l ow
Ġru in
Ġbrus hes
k ins
l en
ĠH op
ĠB ig
Ġdemand ed
ir a
Ġmention ed
Ġst ing
Ġkick ing
o dy
Ġprin ts
Ġneighb ors
Ġto night
Ġtouch ing
ĠChirp y
ĠJo sh
Ġm ast
Ġsweet ies
ow ers
Ġprotect ed
Ġwr ites
ues day
v a
ĠW ednesday
j am
Ġyou th
Ġgood night
uct antly
Ġbucket s
Ġribb ons
as hed
Ġforg i
ti est
Ġv ent
Ġpar ked
Ġso aked
Ġpret tiest
ex p
ick y
Ġcamp ing
ĠCh loe
h ins
Ġbare ly
Ġpro ject
z ie
Ġhorn s
Ġdiscover ing
Ġboun cy
b ies
E lla
ick ed
B obby
M ar
ri age
A h
ĠT iny
P ete
ĠS ure
ĠA n
ÅĵDon Ã¢
Ġe ast
Jo ey
Ġ Once
ĠB ir
Ġtwink ling
Ġsto le
Ġd ent
Ġsor ting
Gra ndpa
Ġexp ect
Ġsurf ace
Ġv owed
Ġte xture
Ġw est
ĠT uesday
Ġintere st
Ġgaz ed
Ġres ult
Åĵ Why
Ġpur red
ĠG r
Ġmov ies
Ġguy s
Ġba bies
Ġste ep
Ġcaut ious
Ġsh ock
ĠC arl
ĠR ob
exp ected
Ġbe ard
ĠBu bbles
F r
Ġpow ers
Ġapplaud ed
z en
Ġcontro l
Ġent ire
th ank
Ġpebble s
Ġ 1
Ġloo se
Ġsil ence
Ġtick le
Ġur ged
Ġact ed
Ġgun s
Ġluxu ry
Ġdrag ons
Ġdra gged
Ġun expected
ed ding
Ġdolp hins
H enry
Ġfl at
as on
Ġemergen cy
Ġcat ches
U h
Ġfa b
Ġfab ric
Ġrock ing
Ġchew ing
er n
Ġm ittens
Ġcomple ted
Ġcurtain s
un e
Ġmus cles
Ġstri ke
M aggie
Ġbl ink
Ġdire ction
Ġintroduc ed
u ly
Ġch ips
Ġpat ience
Ġimport ance
Ġb ank
Ġhon k
Ġrel uctantly
Ġsl im
eez ing
Ġhig hest
Ġseas on
Ġe ight
Ġfig ured
Ġshiver ed
ust ed
Ġsolut ion
R emember
Ġlibr arian
Ġachie ve
Ġrock ed
Ġshel ves
Ġch ases
Ġcont est
Ġscream ing
Ġfro zen
Ġpour ing
ĠJ amie
ĠBet ty
Ġrepl ac
ĠZ oom
R ex
Ġw ound
Ġrubb ing
Ġst aring
Ġtheir s
Ġcr umb
Ġt i
Ġhug ging
Ġro aring
es ome
Åĵ Oh
Ġdri ves
Ġsor ted
Ġsn ail
led ge
ĠAnn e
Ġincl ude
Ġsaf er
F red
Ġm ater
Ġmater i
ĠS anta
Ġplan ets
f it
Ġsitu ation
Ġgre et
Ġpolice man
Ġfood s
Ġcur ly
Ġcan Ã¢
Ġknow ledge
Ġsigh s
it ely
Ġus ual
ir ts
v in
Ġaw esome
Ġpass ing
Ġsh ined
Ġex ha
Ġflag s
Ġd ared
Ġbalan cing
Ġmat ched
Ġyou Ã¢
Ġpl enty
Ġtow els
Ġout fit
Ġslim y
ul ts
Ġli ed
Le o
Ġhome work
th ough
Ġcheer ing
Ġpretend s
Ġbra very
ĠA unt
ac ob
av i
Ġhe el
ĠL ulu
Ġtr uly
jam as
Ġw edding
Ġrainbow s
ĠT illy
Ġgo als
Ġzoo keeper
ĠH oppy
Ġsaus ages
ĠMat t
Ġrest ing
Ġaccompl ish
J ames
ĠS usan
Ġth reat
ĠC laire
cu se
Ġpat ted
Ġpaint ings
Ġca used
Ġrad ishes
Ġreach ing
D anny
ĠC ar
Ġpack ing
Ġarg uing
P aul
Ġgrow ling
Ġbloom ing
Ġspray ing
K itty
Ex cuse
Ġfo c
.. .
a a
ĠAl ways
ĠL ou
izz ie
Ġexha usted
i ar
Ġwait er
Gra ce
Ġstrugg le
ber t
Ġmark ers
Ġsweet s
Ġkneel ed
Ġg e
ĠJess ie
Ġmot ion
Ġp out
Ġstick ing
Ġwork er
Ġpadd led
ĠF or
en ces
Ġs way
ĠMom o
Ġb oo
Ġstart led
Ġgrow l
Ġtrave led
Ġsu itc
im mer
Ġsl ed
Ġsn ugg
S ophie
Ġman e
Ġresc ued
he llo
Ġwr itten
Ġcub es
Ġinv iting
Ġsp ike
Ġsl ap
Ġexp ected
Ġflav or
Ġcut s
Ġc ent
Ġbott les
Ġdust y
Ġreve al
Ġsing er
Ġbe ad
Ġmatch ing
Ġregret ted
Ġhe av
Ġgu est
le e
Ġlearn s
Ġprincess es
Ġtremb ling
Ġbloom ed
Ġcreat ing
Ġf art
Ġf ir
Ġarri ve
Ye ah
y ou
Ġpencil s
Ġrecord ed
Ġreplac ed
p ite
Ġ Yes
Ġmar riage
ais ies
Ġobser ved
Ġla p
Ġinclud ed
n joy
Ġdisag ree
Ann ie
Ġch uck
Ġd aisies
Ġpray er
Ġpot s
Ġtim er
Ġfir m
Ġpa jamas
Ġactiv ities
Ch arlie
Ġdark ness
Ġwork ers
Ġwor ries
ĠL inda
Ġroad s
Ġrem oved
Ġorgan izing
Ġ ĠĊ
Ġvent ured
ĠH a
Ġwire s
Ġrelie f
Ġus es
Ġst are
Ġcomplet ely
M rs
ang led
Ġcountry side
Ġfair ies
ĠM ad
u zz
Ġopen ing
ĠB y
Ġwas ted
Ġle ap
ver s
Ġstore keeper
Ġown ers
ĠA bby
at y
Ġran ger
ĠB o
Ġrep ly
Ġc ott
Ġbe lly
Ġfa ult
ĠSad ly
Ġpol ishing
ĠJ u
Ġpart ic
Ġquack ed
Ġun f
Ġlead er
ĠJohn son
id ing
Ġbec oming
Ġst ern
low ly
or a
ĠQu ack
ĠJe ff
Ġk ites
Ġfl ames
After wards
Ġl amb
ct ions
Ġwasn Ã¢
Ġfa ced
Ġevery body
ess ie
ĠO ut
Ġpoem s
Ġpengu ins
Ġagre es
ĠJ ones
How ever
Ġmelt ing
Ġsees aw
Ġvan ish
ĠJen na
Ġsque aled
Ġfold ing
Ġsc ales
ĠUn fortunately
ĠP inky
ĠB oth
Ġheal ed
Ġcrab s
Ġth ro
ĠL uke
Ġopin ion
Ġw ink
Ġhelm ets
Ġlo gs
Ġus ually
ĠM art
he ll
or ds
ĠLe ave
Ġthro at
Ġsc ra
Ġr ipe
Ġcrumb s
Ġd ipped
op es
Ġtra ctor
ĠChr ist
Ġc ash
l ings
Ġlollipop s
Ġa st
Ġteac hes
Ġr isk
i very
Ġseem s
Ġcom m
Ġtwink le
Ġgrocer ies
Ġdent ist
ĠFo llow
Ġd en
H arry
Ġstay ing
ĠB ye
Ġpol ished
Ġpee king
Ġprov ided
a ze
Ġknight s
as m
id s
Ġsn akes
Ġval ued
ell e
Ġinterest ed
Ġblow s
Ġcautious ly
Ġscr u
ĠDo lly
A lex
ĠA dam
Ġcrack ed
ĠP ut
Ġrub s
Ġr ings
Ġun ited
ĠW atch
ara way
oph ia
Ġwin ked
Ġf araway
Ġprotect ing
Ġf reed
Ġdes ert
Ġmar ked
Ġbalan ced
Ġmiss es
m as
ĠS orry
M ittens
Ġyou nger
Ġclos es
E llie
Ġfore head
Ġsing le
Ġwr ist
Ġchuck led
Ġwander ing
Ġlisten s
Ġsign ed
g o
b oo
Ġro bb
Ġfu zzy
Ġbo om
Ġpartic ular
ĠK ayla
Ġpast ries
Ġbead s
A b
Ġro ses
Ġhow ever
Ġact ions
ĠH annah
ĠFo x
Ġdire ctions
Åĵ Mommy
Ġcop y
ĠSu zie
ĠL izzy
Ġcrack ers
Ġnap s
Ġc ough
Ġsplas hes
r ance
Ġc ous
Ġro ots
ig i
Ġyes terday
Ġfill ing
pp ers
ÅĵWhat Ã¢
Ġdel ivery
ĠN ina
Ġsnowball s
au ra
Ġrest ored
Ġbak er
Ġsw ooped
Ġcon n
Ġst em
il es
Ġwigg led
Ġg aze
Ġflutter ed
ar ling
ick ey
Ġroll s
B ad
d ies
Un fortunately
Ġphot os
ab el
Ġsuitc ase
Ġti pt
Ġsome body
Ġb umpy
ĠChrist mas
S andy
il o
Ġ Y
Ġsl am
Ġsw irl
Ġcelebr ation
Ġitch y
S ome
bb ly
Ġref le
Ġpast els
Ġstro ll
Ġped als
Ë ľ
âĤ¬ Ëľ
ol ine
Ġtrip s
Ġfro ze
Ġback ed
Ġtall est
Ġcash ier
Ġaw ake
at ches
Ġtw in
Ġc ause
ĠP ipp
ĠDo ggy
il ity
Ġdark er
Ġdeterm ination
Ġl ined
Ġsec ure
ĠKe ep
Ġrem ote
Ġne ct
Ġnect ar
Ġspe aking
or med
an es
ĠM any
Ġp iggy
Ġcomplain ing
ĠF riend
Ġw ow
Ġkne es
Ġb ars
K ate
Ġrecord ing
p er
Ġact ing
M ay
Ġple asure
oy s
Ġheal th
Ġsil ent
Ġaccomplish ment
R un
Ġsneak y
Ġvide os
?" ,
Ġli qu
Ġt y
Ġent rance
ĠB ird
M illie
Ġcolour ed
Ġg lee
B un
Ġwe ars
Ġin sp
es mer
Ġdeliver ed
ĠPr in
bo at
Ġrock ets
Ġh i
ĠE njoy
Ġo pp
N ina
Ġmil es
Ġm esmer
Ġcheek s
ĠBe ing
Ġtri cked
y ond
Ġbe yond
Ġa ff
Ġno on
Ġinsect s
se qu
Ġafter wards
Ġglass es
T ime
um m
Ġs ib
Ġhis sed
ĠM o
Ġstay s
Ġcon sequ
c ited
Ġsto len
k y
Ġbowl s
To by
Ġtick led
ĠNot hing
Ġjo king
R ose
Ġfart her
aff es
Ġsc aring
F ine
Ġso bbed
Ġcolor ed
Ġbur st
S ad
Ġs ense
Ġtrick y
Ġmask s
Ġsandcast les
ar ter
Ġatt ack
Ġru le
Ġinstr um
Ġgir affes
Ġcover s
ik i
Ġp ause
? '
B l
Ġde al
Ġhand ful
Ġcal med
Åĵ Come
Ġtalent ed
Ġt angled
Ġsm arter
Ġcand ies
th s
Ġadd ing
are n
Ġsh irts
Ġl ung
Ġscar ves
Ġind eed
ĠSpark y
Ġachie ved
Ġcho ices
ĠJess ica
ig ers
ri ous
L illy
Ġliqu id
o ssible
Ġbeh avi
Ġconsequ ences
P olly
Ġyour selves
Ġlead ing
Ġbatter ies
ch oo
Ġhesit ated
ĠM on
Ġimp ossible
Ġbump s
ep t
Ġread s
Ġbad ge
ĠT ara
Ġm i
Ġpad dle
Ġmi xture
il ed
ĠTw o
ĠM el
Ġexplore rs
Ġclown s
Ġd arling
Ġmagn ets
Ġkick s
ou ch
an a
ĠG et
ĠL izzie
n ers
Ġweep ing
Ġrecommend ed
Ġexper ien
Sh h
Ġseas hell
ĠC indy
Ġgrace fully
Ġbak ery
Ġfl apping
ang ing
Ġseek er
ĠJ on
ugg les
Ġsal ty
at ul
Ġimpro ved
Th ose
W he
br ush
co at
v est
Ġsw ept
Ġfirefight ers
r ig
ĠJul ia
Ġdeser ve
ur ry
Ġwip es
Ġstro ked
M illy
Ġcompl ained
Ġbegin ning
ĠJ acob
ĠM ickey
Ġmushroom s
y an
ĠE l
ĠS qu
R u
ĠHa ppy
Ġc ust
Ġhid er
Ġth orn
ĠS que
ĠP andy
ob ody
Ġse ven
Ġobject s
itc hes
Ġknock s
Ġcan s
Ġte ased
Ġbase ment
Ġtravell ed
Ġste er
Ġhor iz
Åĵ Do
D ays
ĠPrin cess
Ġt igers
Ġth ird
ĠSn uggles
ÅĵYou Ã¢
Ġpart ies
Ġhe aring
Ġsn uck
Ġcup cakes
Ġhead ing
Ġcl ick
Ġhoriz on
Ġrain coat
ĠL arry
Ġsecond s
Ġcust om
t le
Ġd ots
el ia
ĠG igi
Ġsib lings
ĠL ena
Ġdrum s
Ġfe ver
Ġmark er
ind r
Ġsmile y
Ġyell s
Ġflutter ing
ĠP l
n o
Ġperform ance
Ġart ist
an s
Ġhall way
Ġbe am
ĠL uckily
Ġsn atched
Ġlight er
Ġbed time
Ġru ining
Ġjack ets
st ep
Åĵ Hi
Ġbuy ing
Ġra indr
p are
Ġfamil ies
Ġwe e
ig ning
Ġgem s
Ġwouldn Ã¢
Ġne ither
Ġcon cer
ĠWith out
d ri
Ġcelebr ating
Ġpay ing
ĠS lowly
Ġscru bbed
rig ued
Ġlet t
ĠW ater
Ġpupp ies
Ġann oy
Åĵ Wow
ĠJ azz
Ġdoll house
umb ling
Ġam ong
Ġcream y
Ġdrift ed
Ġriver s
Ġlett uce
b and
Ġpeace fully
Ġtree house
Ġwid ened
Ġwa dd
Ġscr atches
Ġwra pping
at ur
Bob o
T ina
c ers
Ġr umble
ad es
iv ity
Ġre pa
Ġtask s
Ġhid es
ĠBu zzy
Ġrust y
Ġbeha ved
Ġplay ers
a el
D an
Ġw ins
al ph
ĠEvery body
Ġl un
Ġwon Ã¢
Ġcudd ly
Ġfa ct
Ġun s
Ġl ower
Ġreward ed
immer ing
f all
Ġwill ing
Ġneed les
oun ce
A n
Ġcreat ivity
Ġarrow s
Ġshr inking
Ġinclud ing
Ġrepa ired
Ġsour ce
Ġlo sing
Ġc or
Ġe ch
Ġfe ars
Ġpass en
Ġtemp er
ie ce
Ġgrand pare
Ġch oo
Ġtipt oed
Ġcre ations
it ched
j o
ĠJ une
ong r
T r
d ed
Ġta pped
Ġde f
Ġgrass y
ich ael
Ġminer als
Cl ara
Ġr ising
ĠGood bye
Ġsepar ated
Ġsprink led
ĠA bbie
he w
Ġchef s
Ġch op
Ġimag ining
Ġtem pt
Ġg ross
Ġgrant ed
G reat
Ġare n
Ġa ud
ĠR ock
ongr atul
ĠEm my
ĠS ophia
Ġt iss
ĠZ ip
Ġswims uit
Ġl imes
ĠL aura
Ġscrew dri
ish y
Ġpan s
Ġdecor ating
Ġpout ed
Ġc oup
Ġstom ped
Ġback wards
ĠP o
im on
Ġhesit ant
Ġdam age
Ġe arn
ho g
H ave
Ġon ions
Ġgra bbing
Ġpe ppers
Åĵ My
Ġsp ong
it ude
Ġsquare s
Ġst ung
Ġprin ting
Ġto dd
Ġunpack ed
c l
Ġtr amp
nt il
Ġplan ning
ment s
Ġdi ving
Ġch ip
Ġslow er
P at
ĠJ ay
Ġheav ier
Ġcow b
Ġbel oved
Ġgrow ls
Ġraindr ops
Ġmateri als
ĠOl ive
ĠR emember
Ġsail boat
Ġwr ink
Ġsnow men
W h
Ġm er
Ġprom ises
Ġrec ipe
Me ow
Ġscrewdri ver
c ope
Ġpoin ty
Ġavo id
Ġsurround ings
Ġrust ling
Ġcous in
Ġforgi ven
Y ummy
Ġaud ience
Q ue
ed s
ke nd
Ġneighb ours
Ġgo bbled
Ġst ool
Ġcent er
Ġwee kend
Ġsl ices
Ġblock ing
Ġto uc
Que en
Ġwip ing
Ġtemper ature
B ill
Ġwind y
Ġtramp oline
Ġar r
Ġre fu
in t
Ġhelp ers
Ġdiscu ssed
F or
y es
Ġwo bbled
Ġr ip
us hing
K atie
st y
ĠE arth
Ġhedge hog
Ġcoup le
p r
itt ed
ĠSt ella
Ġdesign ed
ĠP am
u zzy
O ops
Ġfe ast
ĠE ls
Ġno ses
Ġdream t
Ġcorn ers
F o
e al
un ched
ĠR obby
Ġornament s
Ġpe cked
Ġslam med
a e
Ġaff ord
ch ild
Ġswan s
E w
Ġh us
Ġsport s
ile y
Ro ar
Ġh itting
ĠM ira
ĠD r
Ġstreet s
Ġtiss ue
Ġag e
Ġwa g
ab ly
ar row
Ġas ide
Ġdad s
Ġrequest ed
o ey
Ġme als
Ġac he
Ġfork s
cc oon
Ġra ccoon
Ġst ain
Ġcurious ly
Ġrefle ction
Ġspong e
Ġwarn ings
Ġduck ling
Ġspark s
B aby
Ġsunfl owers
Ġbow s
Ġplan s
ck y
Ġpret t
ĠN ick
Ġsnow fl
ĠB inky
Ġshap ed
Ġtail s
Ġlean ing
Ġvan illa
Ġfamil iar
- -
Ġd et
id o
Ġdan ces
Ġg ri
J ul
it ion
Ġbreat hed
Ġcolor ing
n e
Ġad ult
Ġremember ing
F in
Ġspread ing
Ġdoll ars
Mar ia
Ġgreet ed
ĠRo bert
Ġsa le
Ġshop s
Ġint rigued
os en
Ġch osen
Ġgas p
ĠB ee
us ing
Ġtw ice
ĠR yan
Ġpray ing
Ġgrand child
ak er
ĠTh ose
P e
Ġthr own
Ġprett ier
Ġforget s
Ġscrew s
Ġast ron
ll en
ĠT ess
Ġtunn els
Ġh our
ĠS c
Ġpot ion
ara c
S urpr
Ġm oo
Ġenthus i
Ġastron aut
Ġtouc hes
Ġ Queen
Ġre ason
ott en
ĠGr anny
Ġenthusi asm
Ġsw ords
Ġsail ors
Bl ue
Ġhus band
Ġd aring
Ġgarden er
ert ain
W oof
Ġspoon ful
Ġsuperhero es
end y
ĠChr is
Ġcor re
B oo
Ġwis hing
Ġhop s
Ġz ipping
ĠThank s
Ġsk unk
Ġw oof
Ġle ast
Ġfl ight
Ġdo d
Ġre ass
Ġsp ikes
Ġmagic ian
Ġforget ting
ĠO ur
Ġgrandpare nts
Ġch anging
ĠN obody
m allow
Ġm arsh
Ġsc amp
Ġr otten
Ġbo dies
Ġborrow ed
Ġflav ors
Ġp ens
ĠBlue y
ĠAb i
Ġcount s
Ġhope ful
Ġencou rag
ĠFin n
Ġ1 0
ent ly
f ly
Ġne are
Ġch arac
Ġguest s
Ġcharac ter
Ġmesmer ized
oun ced
Ġsend ing
ĠFriend s
Ġmus cle
ĠMike y
Ġsnugg le
on i
st ick
Ġhero es
Ġneat ly
Fr ank
ĠC ra
Ġbuzz ed
ĠRo ver
Ġsea w
ĠSque aky
O ur
Ru by
Whe e
ĠM ilo
Ġgrow s
Ġwrap s
t he
Ġste ady
ĠU ntil
Ġfeed ing
w k
ir rel
Ġn ibb
Ġpo ss
Ġhands ome
Ġco nd
Ġn ine
Ġdeliver ing
Ġmarsh mallow
ĠL isten
Ġpol itely
Ġo h
Ġdi ved
M iss
ar mer
Ġsuffer ing
Ġal ien
Ġon ward
ant ha
T w
bb a
Ġmin ts
Ġnap kins
Ġsn eezing
Ġzebra s
ye ars
Ġpl ucked
Ġwarm er
Ġhon ked
Ġcra shing
Ġbath s
Ġde fe
Tweet y
Ġpl ain
Ġthat Ã¢
Ġpo ster
Ġmatter s
me al
op sy
ect ion
Ġlift s
Ġembarra ss
Ġrefre shing
Ġstud ents
B y
ĠJu dy
Ġseaw eed
Ġlun gs
Ġincre ased
Ġuns ure
ĠBir thday
Åĵ Mom
ĠMart ha
Ġsc en
Ġstand s
all owed
Ġcre w
Ġsw allowed
Ġoat meal
Ġtodd ler
ĠE x
Ġprop er
Ġjoin ing
Ġexp ress
Ġwhisp ers
Ġprep aring
Ġd ip
Åĵ But
Ġthu d
Ġgl ued
ĠH oot
ast er
Ġr opes
Ġam ount
Ġresp ond
Ġtoast er
S u
Ġwater ing
Ġperf ormed
Ġlead s
ĠSt ar
Ġd ie
Ġtremb led
Sad ly
Ġstar fish
Ġdan cers
Ġwo bbly
Ġpress es
Ġbu lly
Ġtriang les
Ġlesson s
w hile
Ġha wk
Ġcon fl
Ġbit ing
N emo
Ġpu ff
Ġpost man
Ġcush ions
Ġresist ed
Åĵ Well
Ġm erry
Ġpop s
Ġfl as
Ġscra ped
ĠMay a
Ġge ese
B ack
Ġtalk s
Ġfoc used
Ġfreed om
Ġr ushing
Ġso fter
Ġad ults
Ġwadd led
Ġpan icked
v ant
Ġsniff s
ĠK iki
Ġsl ips
Ġtr ot
D ucky
ion a
Ġneckl aces
Ġpupp et
Ġfirm ly
ad os
Ġdro pping
Ġencourag ing
ĠS un
Ġjoy ful
Ġdraw ers
Ġfiref ly
on na
Ġwr igg
Ġwigg le
Ġfrown ing
Åĵ Where
Ġtest ed
Ġtable s
B r
Ġwater fall
Ġnervous ly
Ġr out
Ġwor n
Ġf aded
Ġbl ast
Ġlift ing
Ġscamp ered
Ġe v
Ġhuman s
Ġexpl o
b ird
f ia
M imi
Ġdriver s
Ġappreci ation
re y
le ts
V ery
i ppy
Ġsp at
ĠOn ly
ĠZ oey
c ake
Ġthought s
Ġdra wn
Ġfirefight er
B et
Ġp ours
Ġquarrel ing
Ġtwink led
Ġrobb er
Ġthrough out
Ġstack ed
Ġleap t
ret ty
Ġrespect ed
Ġsque ak
ĠThat Ã¢
Ġpige ons
Ġdress er
Ġo cc
ĠL ove
Ġpen nies
Ġfit s
rr r
b ut
Ġsc ient
ĠAl ong
ĠFro sty
an while
Ġco c
Ġmast er
Ġscient ist
Ġpol ar
ro ken
Ġmon ths
ĠSt ay
n ow
Ġover come
Ġel f
ĠJan ie
Ġbra vest
Ġavoc ados
L isten
ĠB aa
Ġn ur
Ġnot es
Ġstrong est
e ars
Ġplay time
Ġg onna
Ġsa n
T ony
Ġwe pt
f ire
ĠMar ie
ĠAs h
ĠT ake
Ġman ag
ĠMe g
Ġcon vers
ĠSqu irrel
e el
Ġco sy
Ġsc ored
ĠTo dd
Ġm unch
Ġc ertain
b age
Ġn ood
Ġech oed
Ġwa kes
Ġsp ins
M ine
Ġcold er
Ġgar bage
u rious
Ġpe ck
eez es
Ġperform ing
ĠSad ie
ĠFro g
Ġsweet est
Ġdesign s
Ġexplore r
Ġpro ve
Ġplay room
Ġsan k
Ġtri cycle
o ke
Ġfl own
pl ash
Ġpump kins
Ġpr ob
c a
Ġforgi ving
Ġprob ably
im ent
L ike
Ġto ssed
Ġg est
Ġbeha ving
Ġmarshmallow s
ĠF ido
ĠJack y
ĠB essie
Ġrobot s
c her
Ġsa dd
Ġbl inking
Ġgu ide
p lease
ry ing
bb ling
K im
Ġsqu eezing
ÅĵI f
b roken
Ġsh own
ĠQu ick
Åĵ Okay
Ġsqu ishy
Ġcobweb s
Ġca using
es pite
und red
.. ."
Ġhair d
Ġc ongratul
Ġbell s
Ġsp ices
Ġpassen gers
am my
Ġcra ft
Ġtight er
ĠC he
Ġm ate
Ġang els
Ġyield ed
? !"
M ad
ĠZ ara
ĠF ire
Ġt ies
ad ing
fu s
Ġheal ing
Ġp ound
ĠF armer
Ġrever sed
D avid
ild a
ĠOw l
Ġn apping
Ġgigg les
D uring
E ven
Ġa imed
Qu ick
u pt
Ġnear ly
Ġoff ic
Fo llow
Ġdist ract
Ġpay s
Ġsew ing
allow een
Ġinstrum ents
Ġun w
Ġconfl ict
Ġk ittens
Ġwid er
Ġn uzz
Ġre un
f ound
m ates
Ġt il
Ġdoor way
ay ing
Ġy um
Ġsh oo
Ġcl ues
Ġpaint brush
Ġ 2
Ġin j
Ġappreci ated
Ġbrus hing
Ġc oug
ĠJack ie
ĠU nder
Ġcott age
W atch
ĠH alloween
Ġgrand d
Ġe ase
ĠM ouse
Ġbr u
Ġact ion
Al right
ĠS imon
Ġpath s
Ġblock ed
Ġload ing
Ġpassport s
Ġheart broken
Ġa is
an cy
Ġbit s
on ies
Ġmer ma
Ġp ins
Ġbel ts
Ġsl ipping
Ġlay ing
ant astic
Ġmail ed
ide y
Ġswe ep
Ġrepe ating
Ġfigure s
ĠT una
J erry
ĠM abel
ast y
ĠAl i
Ġres ults
is c
Ġan ger
Ġso aking
Ġtwist y
ĠP atch
Ġev il
Ġtwist ing
Ġaccompl ished
Ġwith in
ĠW ell
ĠL i
in o
Ġcross ing
Ġconn ected
Ġpuzz led
ĠM ichael
Ġu nd
Ġsurf ing
Ġsuff ered
Ġdam aged
Ġt uck
Ġswe at
ĠW endy
âĤ¬ ,
Ġbreat hing
Ġrespons ib
Ġoy sters
ĠAm elia
Ġse ver
T ed
Ġbus es
Ġshr ug
Ġshovel s
Ġlick ing
Ġbehavi or
Ġnood les
Ġsever al
Ġh undred
P oppy
Ġro ars
Ġtow ard
Ġdes pite
Ġrisk s
Ġfin ishing
Ġhaird ress
l ves
ight ing
Åĵ Please
ĠR alph
Ġbrace lets
Ġstream ers
Ġlend ing
Ġt ying
Ġhum ming
Ġsupport ed
Ġsurrender ed
Ġdef in
Ġaw oke
Ġenc ount
Ġfle as
d a
an ie
Ġrain y
by es
V room
ĠR ay
Ġqui eter
Ġsh ady
Ab igail
Ġclean er
St eve
Ġluck ily
Ġgood byes
ĠH oney
Ġwho se
ĠRo bbie
When ever
Ġign oring
ĠBu bba
Ġr ather
Ġf antastic
un ity
Åĵ Of
Ġst itches
Surpr ise
Ġcudd les
T ake
er k
is ions
Ġtable t
Ġsl ither
Ġed ges
Ġfrown s
ĠMad die
Ġp onies
dd ing
Ġcloud y
ec ca
ĠFl opsy
Ġhand ing
Ġfin al
Ġsp ed
en ing
Ġhairdress er
Ġc oral
Ġthorn s
Ġdr own
Ġel bow
Ġsnowfl akes
on nie
ag ic
Ġdefin itely
Ġrain s
Ġcott on
ĠF uzzy
ĠH olly
ĠB ecause
pp ies
Ġsur v
i el
ath y
Ġk ings
Ġgest ure
c row
Ġsmall est
Ġbat tle
ĠBir dy
ĠU p
Ġs y
Ġwis ely
Ġremind ing
Ġdrive way
Åĵ Now
Ġcorre ctly
w he
Ġnew found
Ġs ou
Ġdec isions
Ġshark s
Ġpri ck
Ġpeel ed
Ġcho pped
Ġv ines
Ġstud ent
Ġsque aked
H annah
Ġwe eds
ĠG reen
Ġfis hes
a bby
h il
Ġsymbol s
Ġsn ort
Ġwar ri
Ġgrand son
Ġ X
Ġsimp ly
c ent
Ġn asty
Ġwo bble
Ġexerc ises
Ġgrandd aughter
Ġband ages
Tr ue
on se
Ġsto pping
Ġresp onse
Ġex cept
Ġinsp ired
ĠK aren
Ġn i
step s
Ġocc as
A dam
Ġaf ar
Ġban ged
Ġtravel s
Ġl ent
Ġfl ipped
Ġd arl
Ġdarl ings
Ġt ipped
Be ep
Ġdisturb ing
ĠRock y
Ġt ar
Åĵ Hey
Ġfill s
w orm
Th omas
ĠFred die
Ġped aled
Ġmast erp
f ather
Ġspit s
Ġtravell ing
Ġbird house
Ġfoot steps
Ġpunish ment
l ine
Ġchocol ates
Ġpur r
Ġscare crow
so l
Ġcon vin
ĠAl though
eel ing
el ie
Ġship s
J amie
Ġpresent ed
ĠPipp in
Ġcongratul ated
Ġwindows ill
Ġsurf board
Ġplant ing
Ġant ic
Ġadd ress
Ġapolog ised
ĠR uth
cited ly
m ered
Ġforest s
m s
Ġarr anged
ĠW elcome
dd ie
Ġbelie ving
Ġtrot ted
Ġreass ured
Ġreun ited
ĠI m
Ġre app
ĠJo jo
ĠG ina
Jo sh
Ġcl erk
Ġno dding
Ġbus iness
ĠMe gan
Ġche ers
Ġcamp fire
Ġbackpack s
r is
Ġmagn if
Ġli es
ook y
Ġsuit s
Ġencourage ment
S ince
ĠSp idey
Ġmar ve
Ġsail s
Ġterri fied
Ġfoc us
per ate
Ġkn ots
iss a
Ġcover ing
ut ter
Ġoffic ers
Ġpo ppies
iz a
Ġimag es
Ġactiv ity
Ġgri p
mand a
Ġm ood
Ġsmell ing
Ġexp ert
Ġy el
ĠA ng
ott e
Ġtar get
Ġd ep
id er
B unny
Ġch illy
Ġsurpr ising
Ġspill s
ink le
Ġyel ped
Ġch anges
Ġdelay ed
Ġwrink led
Ġtest ing
Ġconcer t
Ġtast ing
Ġmasterp iece
w e
ĠF ighting
Ġspeed ing
Ġcalm ly
P enny
art led
arl otte
ĠR ain
Ġge ars
Ġ Okay
Ġsniff ing
Ġcomfort ing
at s
Ġbra ver
Ġsuggest ion
M at
M ira
ĠL ia
ac le
Ġple aded
ĠA ny
J ess
Ġlab els
Ġdiscuss ing
ac les
Ġmerma id
ĠSnow man
Ġdisplay ed
ĠLou ise
Ġmagaz ines
Ġsp ies
Ġmis chie
Ġst umble
Ġworry ing
Ġbother ing
Ġaw are
Ġmischie vous
Ġhe ight
em ma
Ġunderstand s
ash a
fl ies
Ġadmir ation
ĠT ry
Ġun fortunately
Ġbelong ings
Ġcrown s
Ġart work
Ch loe
Ġeffort s
Ġp uck
Ġal though
Ġfox es
Ġj ars
Ġbury ing
p en
ail s
sc reen
Ġtool box
Ġh oo
Ġsa v
Ġsell er
Ġb uddy
ĠDave y
Ġrefu se
ri er
Ġexperien ced
Ġb less
ig hing
Ġdragon fly
in ted
Ġdec l
Ġb itten
Ġqu e
Ġbasket s
w hat
Ġvehic les
w ise
i bbit
ĠA lly
v room
Ġdis c
atur day
b ell
Ġpack ages
Ġt umbled
Ġseashell s
Ġannoy ed
Ġsol ving
ĠE va
Ġpe as
ugg ing
Ġd ump
ĠS aturday
Ġfire s
Ġme mb
ip es
ĠK aty
Ġpand as
Ġmemb ers
Åĵ The
Ġwarm ly
Ġmom ma
Ġtre ated
Ġpo sit
Ġtrouble s
Ġrot ting
Ġsun screen
K e
ĠW ally
Ġsqu aw
Ġweal th
ĠFro ggy
Ġmateri al
Ġnibb led
ain t
Me anwhile
B eth
Ġcon qu
Ġsc ent
Ġpray ers
Ġunt ied
Åĵ Sure
ĠSo fia
D ear
Ġstom p
Ġconvers ation
R achel
A ny
ĠW il
Ġgaz ing
Ġdis o
ĠO ther
Ġarg um
Ġco ach
Ġpart ed
Ġinsist ing
Ġenv iron
Ġloop s
Qu ack
Ġs ill
ong o
J oy
Ġteacher s
Ġsew ed
ĠD ory
Ġcoll ap
Ġenviron ment
Ġjo ins
Ġra ces
Ġstor ed
ĠP en
Ġwhisper ing
Ġord ers
G et
Ġscur rying
Ġencount ered
Ġbe a
ĠDo g
Ġtil ted
pp a
ort unately
ĠSam antha
Ġjo ked
Ġex ch
atter ed
Ġsp ooky
ĠD uck
Ġpurp ose
ĠPe pper
Ġtw eet
Good night
Ġperm itted
ĠPipp a
Ġlo ses
a ven
or der
air y
Ġhoop s
Ġshe ets
Ġcowb oy
Ġto ss
e edy
Ġgen ie
Ġty pe
Ġm aker
ig ger
Ġdiamond s
Ġpupil s
Ġscr am
Ġquar re
ĠF iona
Ġtr ans
isc uit
Ġa im
ĠFl o
Ġantic ip
u el
Ġend s
Ġg ap
Ġturt les
Ġbeam ing
Ġque ens
ĠD espite
Ġglitter ing
Ġtub es
Ġneare st
Ġdon key
Ġser vant
Ġcle ared
Ġspell s
Ġopp ort
A m
Åĵ See
Ġvisit ors
illi am
Ġwh imp
R osie
Ġta pping
Ġunt ie
Ġstro ke
Ġcustom ers
Ġr in
