#version: 0.2
Ġ t
h e
Ġ a
Ġt he
Ġ s
i n
Ġ w
Ġ o
e r
r e
n d
i s
Ġ b
Ġ f
Ġo f
Ġ c
Ġt o
h a
e s
e d
Ġ $
Ġ p
Ġ T
Ġ m
Ġa nd
Ġ d
a l
Ġ is
Ġ =
i t
a n
o u
o n
Ġ 1
ĠT he
e n
a r
o r
in g
a t
Ġ l
Ġ n
Ġ g
a c
e t
Ġ e
Ġ 2
a s
Ġ h
i l
Ġ he
Ġ ha
o m
Ġ in
i d
a y
o w
0 0
Ġ S
o t
l e
Ġ +
Ġ x
i m
Ġw e
ha t
v e
i c
Ġ 3
# #
u m
Ġ \
Ġs o
Ġ v
u t
Ġw as
i r
Ġa n
Ġf or
i on
Ġ H
s t
Ġ 4
Ġ -
Ġ u
b er
Ġ re
q u
en t
r i
Ġ I
l l
Ġo n
um ber
Ġs a
Ġ 5
Ġt hat
Ġ it
Ġs t
o o
Ġ r
Ġa re
Ġhe r
i v
w er
Ġ y
Ġb e
u e
l d
Ġs he
s wer
Ġan swer
o re
Ġ L
i g
Ġt h
a k
a m
Ġ 6
Ġ W
c e
r ac
' s
Ġc an
l y
a d
ĠH e
Ġn e
Ġ *
Ġa s
ac h
Ġv al
Ġn umber
ĠS he
t al
Ġto tal
$ .
Ġd ay
it h
Ġval ue
at ion
Ġ "
Ġc o
Ġw ith
Ġ A
Ġ k
Ġ (
ou r
s e
il l
p p
Ġ M
h t
Ġh is
v er
Ġs e
ĠThe y
Ġha s
Ġ B
Ġe ach
} {
Ġd o
Ġp l
Ġe qu
Ġ 8
Ġb y
i f
Ġw h
b le
e nd
f rac
an t
u l
r o
in d
t er
Ġ1 0
Ġha ve
il y
Ġm an
## ##
Ġ ####
he r
u n
al l
a g
u r
c h
oo k
Ġt im
n ow
Ġp er
Ġu p
O n
r om
Ġ J
Ġs p
Ġb ot
n t
Ġ 7
Ġsa id
a in
Ġthe re
e l
Ġ1 2
t h
Ġg et
Ġthe y
Ġequ ation
Ġa t
er s
Ġ$ \
ou nd
ĠW e
Ġs id
Ġman y
Ġha d
Ġne ed
ĠI f
ak e
Ġbot h
ĠL ily
Ġf rom
5 0
ac k
ĠT o
Ġl e
c t
ha n
ic e
Ġ2 0
Ġ N
Ġpl ay
a re
ou ld
Ġ 9
p l
es t
o x
k ed
g ht
1 0
r a
Ġs h
Ġp o
Ġw ant
Ġh our
re s
Ġw ill
Ġt w
ĠThe re
Ġy ou
Ġsid es
id e
i a
Ġg iv
ar s
Ġ C
Ġco st
< <
> >
$ ,
Ġtim e
f ore
2 0
Ġf ind
ic h
Ġu n
Ġn ot
om e
i e
on e
Ġm om
at e
m y
r y
ent s
ou nt
c o
00 0
Ġm in
i es
l es
u b
Ġw hat
ar t
k s
Ġwh ich
in e
Ġe x
Ġ F
Ġp ro
re e
er e
it t
Ġt han
Ġf ri
Ġf e
Ġso l
Ġ j
Ġa ll
Ġth is
u d
o p
Ġm e
Ġ 0
Ġs m
Ġ D
Ġfri end
Ġm u
ar d
Ġl o
Ġw ere
Ġ On
Ġha pp
Ġb ut
Ġb u
Ġ E
m at
Ġmin ut
er y
ĠS o
ĠThere fore
Ġgiv en
Ġ Ġ
Ġh ow
Ġy e
Ġthe n
Ġl i
f t
Ġa l
Ġ /
Ġg o
Ġsol ve
Ġ3 0
ĠN umber
ig ht
he n
Ġin t
Ġ1 5
Ġo ut
Ġc om
} $.
Ġc l
Ġ X
Ġd id
k e
i ve
i p
Ġthe m
1 2
ĠI t
a nd
ar ia
Ġv ery
e g
Ġr o
itt le
er m
Ġb ig
ic k
now n
Ġl ittle
k nown
Ġon e
Ġun known
ay s
Ġthe ir
Ġv aria
ir st
Ġhour s
Ġm ore
ĠT im
Ġa m
Ġminut es
Ġc h
Ġvaria ble
Ġw or
Ġ qu
Ġk now
it e
d ot
Ġhapp y
t s
g e
ĠL et
a b
Ġsa w
Ġo r
e c
4 0
Ġc on
Ġh im
b ox
ver y
Ġwe e
ow n
Ġtw o
Ġto o
. "
Ġs c
ir d
p res
Ġp r
he s
c dot
box ed
ĠH ow
' t
oo d
6 0
Ġd iv
is t
Ġre m
Ġf irst
im pl
ĠOn e
v ed
Ġ <<
Ġw at
Ġl ook
on g
ĠW hat
impl if
ir l
o l
f ter
ou ght
Ġa r
c k
a u
! "
ar n
1 00
Ġa d
ag e
Ġg irl
Ġp e
rac t
ar k
} $
Ġ5 0
Ġa b
Ġm il
ak es
o y
as t
Ġmu ch
l f
Ġf l
On ce
u s
Ġ6 0
implif y
ing s
Ġ &
ad e
g et
Ġm ake
es s
in ce
Ġ4 0
an g
Ġb l
Ġfriend s
ul t
Ġam ount
Ġ P
al ly
8 0
ĠB en
ĠT om
Ġs et
he d
ĠI n
Ġwant ed
1 5
e p
Ġ1 00
Ġle ft
Ġth ree
am e
Ġup on
r t
Ġ1 6
Ġw ould
Ġf o
Ġwee k
Ġc ould
Ġtim es
as s
Ġg r
Ġe very
co nd
Ġu s
q rt
Ġs qu
3 0
2 5
Ġb ack
i z
one y
s qrt
Ġin c
Ġse cond
Ġw ent
an s
ow s
Ġp a
Ġst ud
Ġd own
on s
Ġt ri
Ġwh o
ri x
ĠS ince
Ġm oney
Ġb r
Ġf un
Ġsm il
g s
Ġw r
Ġ R
Ġw hen
Ġli ke
Ġ2 4
Ġne w
o s
Ġ2 5
Ġb ook
Ġm ade
Ġst art
Ġint o
I f
Ġye ars
Ġhe l
Ġo ld
get her
Ġt e
Ġdo es
y s
d ay
c es
Ġday s
o ve
Ġb ox
p s
Ġc ar
t her
Ġmil es
Ġd ec
Ġa pp
as e
a x
mat rix
Ġb all
Ġsqu are
Ġs um
t ract
Ġt r
Ġ1 4
et erm
ĠB ut
Ġm on
? "
is h
o d
am ed
Ġhel p
u re
op le
ub tract
Ġt ake
Ġ1 8
Ġb oy
T he
Ġs ome
Ġ G
Ġpe ople
w ay
a ve
Ġneed s
it s
Ġ$ (
Ġ\ \
Ġse e
ĠTim my
Ġb re
Ġc u
et s
u g
Ġwat er
Ġpo s
Ġa g
Ġ if
ain ing
Ġp ound
Ġn amed
p matrix
Ġre pres
ri ght
) ^
id ed
om et
Y ou
Ġfe et
Ġstud ents
Ġo ther
Ġe at
eterm ine
s ide
Ġs l
h b
ou t
s o
f er
Ġfo ll
el t
Ġto gether
1 6
Ġb ird
h ing
Ġa way
w e
ac e
Ġco l
ble m
est ion
Ġpro blem
Ġqu estion
Ġlo ved
Ġad d
ult ip
or m
Ġw al
Ġal so
x t
ĠJ o
Ġb ought
Ġas ked
an ce
ot her
a v
Ġg re
Ġha lf
ou se
Ġf elt
Ġar ound
oo l
Ġe arn
Ġsmil ed
Ġh ome
Ġpo in
Ġmon th
Ġa fter
ir c
ot al
f f
ac t
Ġp ark
Ġrem aining
ou s
Ġd etermine
Ġp ut
it y
Ġlook ed
im es
il d
Ġtw ice
id ing
Ġr an
en ce
ĠT otal
Ġwr ite
n e
o b
n a
Ġbe c
p er
i al
Ġb et
or s
Ġab ove
Ġl ong
en g
Ġrepres ents
Ġc at
Ġpound s
Ġr un
Ġsm all
i re
f ul
Ġsp end
Ġ K
Ġ1 3
Ġdo g
mat hb
he re
Ġre ad
Ġ8 0
Ġ1 1
mathb f
Ġp ie
Ġs implify
Ġdiv ide
Ġequ al
o g
Ġ2 00
ag es
Ġint eg
Ġc ook
Ġstart ed
g h
Ġn o
u c
ĠT h
Ġd if
n y
Ġf ound
Ġs ha
Ġsp ent
Ġbu y
Ġdo ll
Ġg ot
, "
Ġh o
^ {
) $
Ġso ld
Ġdif fer
ot s
Ġtoo k
v ing
Ġs omet
ar a
are d
â Ĥ
âĤ ¬
Ġg ave
Ġbook s
Ġbre ak
en s
f orm
Ġc ha
2 4
Ġ You
e m
it ed
ultip ly
ar y
Ġy our
ou d
Ġf our
e ll
Ġinc hes
Ġse ll
ard s
Ġs ays
2 00
Ġag ain
Ġp ic
1 4
Ġre d
h n
al s
Ġd ist
u es
v en
Ġt erm
Ġh ouse
eng th
Ġcon t
Ã ¢
Ġ\ [
Ġo ver
b in
u st
ĠA n
ĠM om
ĠD iv
Ġb ag
Ġg ood
ra w
pp ed
pres s
ĠDiv iding
Ġsa d
Ġt ree
Ġ3 6
ou gh
eg in
1 8
ct ion
il e
b egin
Ġt akes
Ġsomet hing
i ble
Ġapp les
ĠS am
ĠThe n
Ġme ans
t imes
Ġfoll ows
Ġex c
1 1
) (
Ġg ra
Ġplay ing
a p
o st
) ;
W hat
Ġye ar
o nd
Ġs ubtract
Ġl ength
u ll
form ation
or t
or n
Ġf act
Ġc and
Ġin formation
Ġm ar
ĠS implify
Ġre ce
Ġp re
ver age
ĠSimplify ing
\ ]
p i
w n
Ġc he
is e
Ġc al
Ġdec ided
Ġl ess
Ġis ol
ĠA fter
Ġl et
Ġare a
Ġ$ <<
Ġisol ate
iv ed
Ġp ack
Ġbl ue
Ġcom p
7 5
ic es
Ġan y
ang le
ĠE ach
Ġ12 0
Ġsid e
Ġf in
Ġfor m
Ġm at
Ġ en
t y
ĠH er
{ \
Ġn ow
Ġto ys
Ġro om
Ġs w
1 3
ut e
Ġpr ice
ĠW hen
ĠJo hn
am es
Ġc ame
Ġd ad
Ġof f
au se
Ġth ird
ra ve
Ġth ings
Ġs u
Ġpos it
Ġli ked
ig h
t e
Ġp ages
Ġd is
Ġcost s
Ġp ay
u ck
Ġu se
Ġf ish
Ġcook ies
Ġa verage
ub st
Ġnumber s
e ct
Ġe nd
ĠA nd
ubst it
Ġab out
Ġpie ces
or d
Ġwor k
Ġon ly
b les
ur n
ak ing
Ġst ore
Ġcl ass
m on
Ġpoin ts
Ġan g
Ġh ug
Ġs k
m e
Ġthe se
an k
Ġbec ause
ĠM ax
Ġpro d
w ays
Ġexc ited
Ġposit ive
ĠS ara
re es
Ġc are
Ġd on
in s
Ġfl ow
Ġm y
ĠJ ack
Ġ9 0
it ion
le ct
Ġit s
Ġal ways
} \
in k
Ġd r
Ġwant s
g ed
) ,
Ġgiv es
3 6
Ġsc ore
o es
ud d
Ġf r
Ġth r
ch ool
m ent
ĠH is
Ġp ur
at es
ir s
Ġsh ow
we en
i x
Ġan im
Ġsa me
Ġfe el
Ġha nd
Ġus ed
Ġsc ared
Ġl ar
Ġw here
Ġbet ween
Ġp art
c ks
Ġl au
Ġdid n
Ġd ig
Ġo p
Ġp ain
= \
um p
Ġw a
Ġ4 5
c c
Ġe g
Ġt ick
Ġch o
ar m
t ing
Ġs al
Ġ1 9
Ġ2 8
Ġbot t
Ġch ild
Ġex press
Ġp en
Ġwal k
Ġpl ant
Ġprod u
en ed
Ġg all
Ġs chool
a ble
Ġout side
Ġle arn
co s
Ġ1 7
Ġk ne
ĠAn na
an e
ĠF rom
. $
re n
Ġth ought
Ġc r
Ġ3 2
Ġsp ec
Ġdist ance
Ġa ge
Ġf ood
Ġmom my
d er
Ġto y
Ġ4 8
Ġ2 7
Ġbe fore
Ġf am
Ġd raw
le ft
Ġ O
Ġ2 1
Ġplay ed
ion s
ig n
Ġ3 5
Ġs un
c irc
Ġne xt
Ġ1 50
a il
p h
, $
9 0
Ġfact or
Ġe ven
Ġm et
im e
Ġspec ial
c ul
s in
Ġgre at
Ġpos s
s es
Ġst ill
Ġre st
Ġg l
Ġval ues
Ġc re
Ġc le
ĠTh is
Ġspend s
Ġ z
c ha
or ry
Ġmar bles
ĠA m
um e
ĠF or
Ġto ld
at ed
v es
Ġin side
. \]
^ \
Ġmu st
Ġ3 00
Ġha r
ĠC ost
Ġanim als
Ġterm s
Ġinteg er
Ġkne w
Ġwee ks
Ġdiffer ent
4 5
ĠB ob
ĠE very
Ġm ultiply
ĠS ubtract
Ġst r
Ġposs ible
l ed
Ġo un
e ep
is s
Ġbox es
udd en
Ġre s
ind er
Ġ2 2
re d
Ġt ry
ĠSubtract ing
iz z
Ġdoll ars
( -
Ġc ars
g in
Ġat e
Ġwe ight
Ġeg gs
Ġun its
s on
Ġsp e
Ġs orry
Ġc ur
Ġgre en
Ġsh ould
c ent
Ġre al
Ġfam ily
udden ly
Ġd ri
Ġl ast
Ġb ase
Ġm o
) )
Ġm akes
au ght
Ġwh ile
Ġc ards
Ġg ard
b y
1 20
se lf
Ġc all
- -
Ġdiv is
am s
Ġpa id
Ġtri ed
Ġf ill
Ġgard en
Ġor der
Ġj ust
Ġinteg ers
b e
o in
ad y
Ġcal cul
o se
e qu
s h
Ġcon s
Ġs ur
i ed
ul ar
Ġneed ed
Ġsh ir
Ġex pl
at s
Ġoun ces
ur t
Ġb as
Ġk il
Ġho ld
Ġo wn
Ġ ve
Ġexpress ion
Ġbl o
Ġsa nd
Ġpur cha
Ġcol lect
= <<
p e
Ġpr oud
ĠN ow
Ġl ist
et er
ter s
Ġu nt
Ġchild ren
Ġ$ -
Ġne ver
el s
Ġex p
Ġpic ked
Ġ7 5
Ġbu ys
Ġbr other
Ġc irc
ul a
Ġcould n
1 7
) $.
Ġ im
Ġin it
Ġpre t
Ġspe ed
Ġcont ain
Ġ right
Ġunt il
nd er
Ġcom mon
ĠM ia
3 2
g er
Ġb ill
Ġrece ived
Ġ4 00
Ġgall ons
$ ?
Ġrem a
Ġhe ard
Ġpain t
( \
3 00
b all
Ġfl o
Ġg ame
Ġ7 0
Ġn ice
Ġflow ers
c il
5 00
ri gin
Ġhug ged
b ab
ur ing
re nt
ĠS uddenly
Ġball s
Ġdiv ided
Ġcle an
b ed
v ent
Ġp izz
Ġt rave
ri es
co l
Ġdiffer ence
an c
e e
4 00
il ity
1 50
Ġtri angle
s s
' m
} $,
Ġye ll
Ġ1 80
Ġpen cil
Ġl it
Ġsl ices
Ġb o
Ġg u
u res
Ġl ine
Ġin ter
Ġb est
Ġk ind
Ġcand y
Ġj ump
at h
ut s
an ge
Ġo rigin
Ġcu ps
n ing
Ġtick ets
i ous
Ġpr ime
Ġs at
Ġt all
d d
Ġpro bab
Ġbag s
Ġlau g
p ort
Ġadd ition
Ġst ick
m a
Ġgo ing
is ed
ou p
av es
p r
Ġp u
2 8
Ġs ay
a z
il ly
3 5
Ġtri p
p m
Ġb ed
at er
Ġform ula
Ġcur rent
Ġprodu ct
Ġd el
Ġcom bin
ad s
Ġbet ter
Y es
ĠSo l
Ġrema inder
Ġpoin t
ro om
Ġthr ough
L et
at i
Ġlearn ed
Ġc ub
Ġbe ar
Ġhe ight
Ġn ight
Ġv ol
Ġs er
s ing
Ġw ay
Ġwal ked
Ġdis c
1 9
c hed
Ġlo ve
6 00
Ġcl os
ubstit ut
Ġf ly
ĠSol ving
i ke
Ġget s
Ġan other
Ġd eg
Ġprobab ility
d y
i ally
ĠAm ount
Ġc ome
Ġfoll ow
l og
ĠF in
7 0
Ġu nder
Ġbe ing
Ġcu p
Ġf ive
Ġ U
Ġ5 00
oo se
a ut
Ġc ount
is hed
Ġd e
ri ed
f e
Ġearn ed
Ġt rees
Ġe m
ultiply ing
ĠL uc
Ġf ract
Ġcho col
im um
Ġpa per
Ġminut e
re as
at or
ang es
o ons
er t
ip s
ubstitut ing
} }
Ġ2 6
Ġwor d
Ġbu ild
iz e
Ġfr u
Ġsell s
Ġr ain
Ġst ay
Ġor anges
Ġsk y
Ġp h
Ġg ive
Ġdo gs
Ġ( -
l ine
ĠM r
ĠA s
Ġw ind
Ġsha re
Ġcare ful
Ġt urn
Ġaddition al
Ġf le
Ġyell ow
_ {
) .
Ġmet ers
Ġwh ite
t he
2 2
Ġhar d
l s
Ġ\[ \
if t
Ġbe aut
ĠF r
l o
Ġk id
Ġc han
ep t
Ġro ll
Ġper cent
Ġthan ked
Ġd ro
res s
r ic
ĠA l
te xt
Ġst o
Ġf arm
Ġper son
Ġlaug hed
Ġme an
Ġ4 2
Ġg ames
or y
ic ed
Ġk eep
in y
Ġsa fe
Ġ7 2
N umber
Ġpencil s
Ġbas k
Ġdig it
2 1
Ġ V
e b
or ies
ĠE x
Ġa c
Ġ6 00
ĠFin ally
k es
t a
Ġwe igh
Ġw ays
nt s
Ġl ot
ĠM ultiplying
Ġ2 3
ell y
4 8
Ġs we
ar r
o on
Ġ& =
Ġh igh
I t
Ġcl im
Ġsecond s
ĠS ubstituting
g est
Ġl oud
Ġ Ã¢
}{ \
Ġs is
Ġcha r
Ġl ots
Ġcom pl
2 7
c hes
Ġblo cks
Ġbeaut if
Ġre c
Ġbe en
Ġbeautif ul
Ġl ived
at her
ĠM ond
Ġc ase
Ġn od
ow er
Ġl ab
Ġinit ially
Ġc ake
Ġgr ound
Ġbut ter
m ber
Ġcan s
i an
ac es
Ġb ad
Ġc ent
ro ss
ire d
Ġwa it
p t
et e
) *
Ġ1 000
ĠMond ay
Ġf ull
Ġus ing
ubstit ute
Ġcalcul ate
ĠLuc y
Ġp ass
th ing
in n
Ġs n
Ġlo st
Ġwat ch
Ġdisc ount
Ġ( $
Ġ ent
Ġpic t
Ġf ast
Ġp are
u nd
Ġlit ers
Ġs ubstitute
Å ĵ
Ġtr uck
op e
Ġfract ion
{ -
Ġbu s
) --
ĠM ar
ĠC ar
Ġcall ed
9 9
Ġk ept
Ġmonth s
Ġle aves
Ġ ice
le ep
Ġsu ch
Ġr ound
Ġchocol ate
Ġf ore
Ġ2 40
Ġfle w
â Ģ
g an
k ay
um my
Ġvol ume
Ġr ate
Ġword s
Ġr a
Ġgra nd
ord in
Ġpa irs
han k
Ġre ct
Ġre g
equ iv
Ġcl ot
Ġearn s
Ġorigin al
Ġe y
Ġsol ut
Ġsmall est
Ġcombin ed
Ġre w
Ġch ick
Ġk n
Ġmil k
Ġr ad
Ġb rave
) );
ĠC om
Ġb ro
Ġch oose
Ġh urt
the ta
Ġbott les
iv en
Ġs ong
Ġscore d
Ġm aking
Ġqu ar
Ġte am
Ġpizz a
" ,
Ġang ry
Ġpl ace
Ġsis ter
re w
Ġlook ing
Ġshir ts
ab b
Ġcirc le
b s
ĠA t
al e
Ġgirl s
Ġm ag
Ġa cc
id es
Ġop ened
Ġwor ked
Ġkid s
Ġrun s
ab les
ĠJo e
y c
ll y
Ġs ing
Ġwalk ing
u ff
iz ed
d ed
is f
pp ing
Ġa ble
Ġflo or
g r
) =
Ġv is
Ġre pl
ĠJ en
em ber
ic ks
Ġf ro
Ġpa ir
ĠS ue
Ġ6 4
Ġw all
Ġdeg rees
Ġsur pr
er ed
og r
Ġboy s
ie ld
Ġsat isf
Ġso on
ĠF irst
Ġs ix
l a
p ha
Ġme mber
Ġeat s
Ġc m
Ġb ow
1 000
Ġp ick
Ġfo ot
Ġbask et
ĠJ ane
ant s
Ġl ight
un ch
Ġbird s
Ġlab el
ĠE m
Ġexpl ore
as h
Ġpret ty
ic al
Ġsh iny
Ġm orn
ri b
Ġle ast
Ġmorn ing
ĠSara h
} (
ĠT ues
Ġst op
Ġhand s
Ġc ut
p ot
in es
Ġr abb
Ġpl an
} }$.
it c
Ġ3 3
Ġw ood
Ġb ars
o ver
Ġc ry
bin om
z en
ation s
Ġlar ge
Ġpart y
Ġkil ogr
Ġey es
Ġ5 6
ĠTues day
a ir
Ġbl ack
Ġno ise
uc ks
p es
Ġd uring
Ġdo or
Ġs it
ĠJ ames
Ġso d
pm od
Ġcr ay
Ġbr own
I n
Ġe l
Ġpare nts
ag on
Ġme as
Ġco ver
ati o
Ġh ot
Ġp ot
Ġb ar
Ġ1 60
ultip le
Ġ ide
Ġang le
Ġpro f
ed s
om es
Ġj elly
ĠA dd
Ġnod ded
Ġrad i
l ud
Ġt able
re ady
Ġal ready
Ġus es
Ġcollect ed
Ġad vent
Ġcu st
Ġsell ing
Ġlar gest
N o
} }{
Ġm ultiple
Ġm ax
Ġha ving
Ġfun ction
Ġco ff
inn er
Ġfour th
Ġf av
Ġsh oes
ar ing
Ġs leep
in ks
Ġrew r
Ġhe ad
id er
ĠM ary
ay be
ĠJ im
( (
Ġm other
ck et
Ġb ab
7 2
Ġ5 4
ĠC h
Ġcust om
Ġbe l
Ġf ire
j oy
Ġ <
Ġbott le
Ġre qu
Ġwor th
)-- (
Ġp ull
id ent
Ġwat ched
e ver
il a
Ġm id
a is
Ġd ress
Ġt y
id ay
Ġco ins
Ġd i
Ġide a
Ġc aught
n es
Ġcurrent ly
am p
t o
Ġplant s
Ġpack s
Ġfeel ing
Ġse es
ct or
âĢ Ļ
Ġsand w
( "
s ed
Ġevery one
Ġt en
Ġe le
Ġpo p
Ġr atio
ĠMom my
Ġd ou
l ing
iv es
Ġcre am
Ġdig its
Ġsw im
ll s
Ġsl ide
Ġlist en
ĠS t
Ġcal ories
c ess
Ġdo zen
in a
Ġfore st
Ġm ess
Ġrewr ite
Ġop en
ur s
ĠD ad
Ġen joy
T hat
Ġrem ember
Ġro ot
at ive
Ġsmil e
Ġc ents
Ġequation s
â Ħ
âĤ¬ âĦ
âĤ¬âĦ ¢
Ġsto pped
T hank
, -
Ġpu pp
id th
Ġs now
er ry
Ġf ar
Ġcray ons
Ġg as
in ed
Ġb an
Ġst e
Ġpr in
as on
Ġcol or
ĠM ark
6 4
Ġj u
Ġcoff ee
L ily
Ġapp le
Ġl a
Ġweigh s
ĠN e
Ġr ide
Ġ3 4
ĠW ed
an y
Ġat t
Ġfav or
8 00
Ġr ow
Ġwho le
Ġne ar
Ġt al
us h
ĠWed nes
Ġban an
Ġto w
and ing
^{ -
Ġb it
Ġre ach
Ġen ough
f l
Ġto p
al ign
es e
Ġj ob
Ġf ace
p oin
Ġbre ad
u p
Ġw ond
Ġ9 6
W e
t ed
Ġstr ong
r at
Ġim port
Ġrun ning
Ġcontain s
Ġcha irs
Ġst re
} =\
Ġwor ks
m ents
itc hen
ĠU sing
Ġtr ain
Ġw on
Ġin v
Ġk itchen
ĠWednes day
i er
Ġp ens
r ow
Ġa ir
Ġo ur
Ġ5 2
Ġfin ish
Ġmax imum
Ġk g
le x
) $,
am ps
Ġnot iced
Ġbec ame
ĠFr iday
o lly
Ġmo v
Ġper f
Ġto mat
Ġse qu
3 3
Ġshow ed
Ġs ound
Ġgr oup
Ġt est
Ġte ac
Ġb at
Ġqu ad
Ġbo at
Ġdivis ible
on es
Ġw he
Ġflow er
Ġha ir
Ġit em
Ġfe ll
Ġcand ies
le ase
Ġcat ch
Ġbill s
un g
Ġcat s
Ġqu ick
Ġbr ought
ĠB illy
d iv
Ġrepres ent
} .\]
Ġm od
2 50
Ġe ver
i ent
Ġ2 9
Ġprof it
Ġrabb it
i b
Ġam az
Ġinc reas
ĠAdd ing
Ġf ur
Ġgo ld
Ġpercent age
Ġo kay
Ġ5 5
Ġle gs
Ġd en
Ġfru it
g es
Ġfe wer
Ġj ar
Ġre ac
1 80
Ġp ar
Ġp ig
as ter
Ġsp l
Ġgra b
Ġball oons
ĠS pot
2 6
Ġrepl ied
Ġ2 50
Ġw arm
ĠT hat
at ing
Ġc orn
Ġstick ers
Ġp ays
Ġso ft
Ġc ard
Ġsh op
y l
Ġm ed
Ġsh o
Ġradi us
Ġs ure
Ġd inner
Ġimport ant
Ġgl ass
2 3
Ġl unch
at ur
or ing
Ġcompl ete
e ff
$ -
ou n
Ġm ult
Ġpo nd
Ġgr ass
Ġclos er
ber ries
L ook
by e
ĠS ally
Ġvis it
Ġfavor ite
Ġfact ors
Ġsha r
Ġ3 9
On e
over line
t an
Ġclot hes
m s
ĠCom bin
Ġmat h
n g
ordin ates
ri ous
{ (
Ġb un
Ġfill ed
Ġchan ge
Ġas s
Ġmember s
Ġv o
Ġt aking
Ġperf ect
i um
Ġres p
J o
Ġher self
v al
Ġ3 8
Ġst amps
ot h
ĠB r
e y
Ġb right
Ġf ield
i res
Ġp et
at ure
Ġpo ly
ver t
Ġse eds
Ġrece ive
Ġtick et
Ġsa ve
Ġteac her
Ġquick ly
The re
F ind
m ore
Ġfor g
ain ed
Ġt ax
Ġn ame
Ġ Y
Ġgreat est
Ġc ool
Ġr ace
g y
ve l
Ġf ix
Ġgo es
Ġd one
* }
as y
Ġsh out
Ġcu rious
ĠCombin ing
4 2
Ġor ange
Ġany more
a ur
Ġkilogr ams
W h
Ġearn ings
Ġswe et
Ġju ice
2 40
or k
Ġjump ed
Ġro ck
h our
Ġst ory
ra nd
Ġsu pp
$ :
Ġsod a
om in
Ġcont in
Ġre t
Ġst raw
Ġmult i
Ġfin ished
Ġvo ice
u ch
Ġread y
Ġdr ink
rat ic
Ġquad ratic
Ġgood bye
. .
5 5
Ġt ank
} ,
Ġs ug
ke y
Ġitem s
ĠG iven
ais y
Ġ3 60
Ġc art
Ġh ig
Ġplay ers
Ġth ose
} .$
ir th
Ġsequ ence
Ġho le
Ġsal es
Ġs y
Ġ6 5
j ect
t on
C an
Ġne ck
Ġhim self
Ġbuild ing
ĠW h
b o
Ġa p
Ġhelp ed
Ġ [
iv ing
Ġb irth
Ġ8 4
if th
Ġl and
Ġstud ent
Ġ i
Ġmu s
Ġf air
et h
ig hb
} )
Ġl ady
Ġb ike
g ing
Ġmulti pl
ĠJ an
T om
Ġ Z
Ġsa ved
Ġp ower
it her
Ġp res
Ġ4 4
Ġbe ads
Ġdel iv
Ġt re
ig it
itt en
Ġar ri
Ġsong s
Ġne ighb
Ġfl our
Ġden omin
e es
} =
Ġre l
p le
ĠS atur
Ġhe re
Ġcar r
Ġf ree
Ġ8 00
v ings
yc le
Ġp rom
Ġget ting
b r
Ġto day
Ġp ink
a pp
' re
ĠTh us
12 00
Ġsquare s
5 4
re l
Ġp ies
Ġp at
Ġshir t
A B
Ġin st
Ġ3 7
ĠEx press
d igit
Ġp ool
k ing
Ġd es
Ġhapp ened
Ġcol le
M om
Ġorder ed
Ġg ift
ĠC an
w here
Ġse en
Ġexp ens
Ġro ses
Ġrect angle
Ġp ants
Ġli kes
Ġdoll s
5 6
ĠSatur day
Ġdo ing
Ġreac hed
Ġ4 9
Ġm ove
Ġreal ized
k en
Ġ2 000
Ġw in
Ġm iss
Ġth ink
re ase
ak en
im in
Ġeat en
ith m
ĠL ila
v ious
Ġcol ors
ore d
est s
+ \
Ġwith out
st er
Ġm ark
and y
Ġs implif
Ġwor ld
Ġpo l
ĠD o
Ġinc lud
Ġ1 40
Ġb ath
Ġ8 5
Ġc our
Ġgr ow
Ġgrab bed
ĠEvery one
Ġt aken
if e
Ġclim b
Ġfin al
2 000
ĠĠ ĠĠ
Ġcub ic
eb ook
al ity
m an
il es
a h
Ġgl ad
Jo hn
er o
Ġnot ebook
ĠA ll
Ġb and
Ġto uch
Ġadd ed
Ġlong er
Ġt ail
Ġw om
m ed
Ġt ables
Ġwal ks
Ġc ap
Ġpurcha sed
Ġche ese
Ġbow l
Ġtomat oes
Ġr ows
Ġy es
Ġbuy ing
Ġ12 00
Ġpurcha se
z z
Ġ4 6
Ġre f
Ġmus ic
im eter
Ġdenomin ator
Ġd ucks
Ġw idth
Ġcustom ers
= -
Ġf all
Ġ1 10
Ġs ize
at t
Ġsolut ions
Ġp ast
pl oy
f ull
Ġth ing
2 9
Ġs ign
Ġc or
uff y
z e
Ġt ired
Ġm ost
Ġevery thing
Ġcup c
ĠR e
Ġadvent ure
W ow
Ġha t
Ġbe gan
Ġ ri
ot e
Ġret urn
u ed
Ġcom ing
Ġshout ed
Ġh op
Ġent ire
ĠTom my
Ġem ploy
Ġy ummy
Ġbro ken
f ly
Ġfarm er
D on
Ġre ally
Ġte ll
Ġcub e
Ġlook s
ne y
c ked
Ġcho ices
Ġpict ures
end ed
1 60
Ġquestion s
Ġres ult
Ġdri ve
ĠL e
Ġcent er
Ġneck l
ĠJ ill
Ġgall on
Ġc ried
Ġbe ans
Ġj oin
ĠBen ny
Ġbirth day
re t
Ġco ld
ĠD aisy
Ġle mon
Ġ- \
Ġpict ure
Ġt ast
Ġsa il
Ġold er
Ġs ent
Ġsal e
Ġbanan as
Ġco ordinates
Ġfun ny
Ġkil omet
Ġtrave led
Ġreg ular
Ġbe e
Ġsug ar
Ġch ips
u ally
Ġar r
Ġmonth ly
full y
o ke
Ġin equ
Ġwor ry
Ġbutter fly
Ġd ark
Ġhe ld
Ġtry ing
poin t
ar ry
Ġunder st
as es
ro c
Ġde f
Ġcom m
d e
Ġwond er
i ents
Ġm um
ĠA my
n ot
Ġbe ach
T h
h ind
Ġp ract
or row
Ġc akes
ul ts
Ġmil e
Ġh ill
Ġwa ved
ed dy
is a
Ġ$\ $
Ġsqu ir
ĠTh urs
Ġsw ing
Ġmat rix
Ġo w
re am
om ial
Ġbr ing
Ġc ows
im al
Ġdec ides
6 5
Ġm ach
Ġo b
Ġc a
ĠEx p
Ġsatisf ies
ĠS und
Ġbe hind
ack s
Ġsmall er
Ġap art
Ġb ur
Ġdro ve
Ġbab y
Ġfru its
re ed
ĠThurs day
on y
Ġchick en
Ġtrave l
Ġ10 8
ĠHow ever
Ġph one
Ġso cks
Ġst ep
Ġm ouse
dot s
Ġsl ow
(" $
Ġto wn
Ġy ards
Ġpre vious
Ġbun ny
ĠExp anding
Ġfollow ing
Ġpot at
Ġwh y
ĠNe xt
ell o
Ġfollow ed
Ġcupc akes
Ġmov ie
Ġfro g
ol a
Ġcolle ction
r ist
Ġcons um
Ġresp ect
w o
Ġto wer
Ġl ake
ic s
Ġcon vert
m ing
Ġl iving
Ġs ub
Ġs ince
12 5
Ġcomp any
ĠSund ay
Ġwind ow
3 8
x y
ĠB ill
th ird
rac k
Ġse g
Ġinter est
Ġs il
ce pt
Ġpl ane
it ing
Ġpie ce
Ġp ill
Ġdec imal
Ġ$ |
ic hes
Ġho pped
" .
4 9
Ġ$ $
Ġcar ry
Ġsurpr ise
ĠM ic
Ġdel ic
Ġclim bed
Ġha m
Ġcons ider
Ġd ir
Ġsp ot
Ġb al
Ġv ac
A n
ha r
Ġcl ose
pp er
Ġquar ter
Ġarri ved
Ġinequ ality
Ġmeas ure
Ġsandw iches
' ll
et a
ĠB e
Ġw ished
Ġ14 4
Ġper imeter
Ġless on
Ġve get
Ġchick ens
Ġcon st
Ġturn ed
i or
itt ing
Ġdr inks
Ġf ifth
Ġgo al
ĠD an
Ġpupp y
Ġh ung
Ġfactor iz
Ġc ast
$ ",
Ġhapp ily
Ġremember ed
ang er
H ow
Ġte m
4 4
Ġb rac
Ġv ide
Ġsolut ion
9 6
et ic
Ġ5 8
Ġ |
Ġ3 1
Ġgra ph
= $
Ġset s
Ġsp r
Ġlau gh
Ġpro per
Ġe ither
Ġ6 3
ous es
ĠA lex
ĠM art
Ġd anc
Ġ9 00
Ġl ion
Ġbrac el
Ġex act
Ġ >
Ġag reed
Ġany thing
Ġd eep
Ġpur ple
) /
Ġa ct
Ġe p
Ġmin imum
Ġcomp ut
Ġlet ters
Ġquar ters
H ello
is od
Ġm en
Ġenjoy ed
he l
Ġre p
ĠM ike
Ġneighb or
Ġcan not
ĠTim e
Ġinc rease
Ġwr ong
3 4
Ġwas h
Ġep isod
Ġ2 10
ang ular
Ġdou ble
Ġd uck
ĠP eter
Ġpizz as
Ġ( \
Ġj e
Ġac ross
Ġroom s
it ies
Ġar t
Ġequ ally
Ġfe m
an na
Ġhe av
ĠJ ul
Ġkilomet ers
Ġn on
) }{
u al
Ġm ix
Ġro ots
=$ <<
Ġcl a
Ġbasket ball
v matrix
ount ain
Ġgreat er
Ġg one
Ġy ard
ĠP r
Ġgrand ma
w ork
Ġh or
Ġcare fully
Ġsit u
m in
ĠTo gether
Ġa v
l and
Ġsha red
a f
Ġhe ar
le y
Ġfe w
3 7
ĠM olly
u ce
Ġ9 9
Ġwork ing
4 50
Ġf ence
Ġel imin
Ġle ave
ĠS us
ĠF l
Ġplant ed
ĠC al
is es
Ġgr ams
Ġfin ally
Ġb ak
al pha
Ġlength s
s p
Ġd ry
Ġd eterm
Ġcontin ued
D etermine
* .
Ġball oon
) +
ĠT aking
Ġeat ing
Ġgu ests
Ġp age
Ġsome one
Ġput s
Ġstraw berries
Ġc ross
ĠT V
Ġst ri
Ġfriend ly
Ġsurpr ised
Ġp lease
Ġ6 6
Ġhold s
od y
Ġjelly be
Ġfur ther
Ġg um
Ġw ide
Ġpe an
ll ip
ĠL isa
on t
Ġown er
Ġthan k
Ġjellybe ans
um er
Ġw ra
Ġ4 50
Ġfe ed
ĠB y
Ġst ars
Ġex t
Ġh u
Ġst and
Ġd aught
Ġbu cket
Ġtem per
Ġthr ow
ithm etic
Ġcl oud
ĠMr s
ĠJen ny
Ġf aster
Ġm ight
Ġforg ot
Ġcarr ots
Ġfactoriz ation
Ġf ig
ĠAn n
er c
ĠThe ir
Ġg ent
, \
se c
p ed
Ġd ance
Ġl ay
Ġme et
Ġar ithmetic
Ġche ck
i am
Ġcomp ared
ĠJ erry
ud e
st em
Ġtow ards
Ġco nd
ter n
Ġother s
3 60
y m
et ers
Ġemploy ees
Ġeg g
lo or
Ġincreas ed
Ġcour se
Ġstay ed
c l
ĠJim my
Ġdelic ious
Ġe ight
Ġinit ial
Ġt ight
Ġf ather
are st
Ġad ults
Ġst icks
Ġscore s
ar ly
Ġ12 5
ate ly
Ġj our
s c
Ġel se
Ġsitu ation
Ġne arest
Ġle g
Ġas k
d le
e k
Ġg e
Ġdo ctor
Ġme at
Ġ$( -
Ġrec ord
Ġwonder ful
am a
Ġad ult
Ġacc ount
eff ic
Ġveget ables
Ġhung ry
Ġm ill
Ġmach ine
7 6
C D
e an
Ġsm ell
Ġread ing
Ġd ep
Ġpl ans
Ġpull ed
Ġexact ly
Ġanim al
Ġnotebook s
Ġb i
Ġb ank
Ġweek end
Ġco effic
in ct
Ġbl ank
Ġrece ives
Ġc ra
Ġlo g
Ġglass es
Ġcast le
ĠG rand
ac ed
Ġsy stem
itt ens
Ġsc oo
im eters
Ġas ks
Ġri ver
ut ive
val u
w ard
Ġele pha
i od
ic a
Ġty pe
e ad
Ġw et
Ġrect angular
Ġsquir rel
! }{
Ġstart s
Ġra ised
v in
ĠP er
Ġmultiply ing
Ġp us
uc ed
Ġdist inct
Ġout c
Ġdiv iding
Ġf it
Ġha ts
ue l
ĠS im
8 5
i ence
Ġsp ace
Ġfe e
Ġsc ary
Ġph ot
Ġheav y
Ġdivis or
Ġs oup
Ġlar ger
r am
Ġf ox
ĠJ ust
Ġexp on
Ġchar ges
Ġb en
or al
Ġn umer
Ġcand les
Ġlist ened
Ġ10 5
Ġtr ue
Ġf ight
Ġall ow
Ġcook ie
Ġla wn
Ġt reas
Th is
\ %
Ġfo ld
ou th
Ġvide o
Ġrequ ires
Ġper form
Ġ er
ac hes
ip e
8 4
Ġv ert
Ġr ope
ĠF ind
Ġwhe els
and a
Ġunderst and
Ġro cks
Ġtr ans
Ġpu zz
Ġproblem s
Ġp in
Ġwe ll
ie ve
op s
w s
Ġon es
Ġse lect
Ġ8 8
Ġal ong
ver se
Ġro ad
anc y
1 10
r u
Ġ1 30
ac ity
ĠP l
sh ir
3 9
Ġ4 80
b led
Ġl ines
Ġ2 20
Ġpotat oes
Ġn ick
ĠM aybe
Ġt ra
Ġor gan
Ġ9 5
ic y
Ġre nt
Ġz ero
Ġpop ul
Ġsimplif ies
1 40
Ġd ough
Ġsa vings
6 6
Ġal one
Ġsmil es
Ġg roc
co ver
Ġext ra
. \
Ġo dd
ail s
Ġo cc
Ġse a
Ġam ong
Ġcomp et
Ġfly ing
Ġs on
Ġon ce
Ġor d
f ish
Ġsp ark
is ts
Ġc her
Ġse ar
if ts
d en
Ġgr ade
Ġdad dy
Ġser ies
Ġcent imeters
ĠEm ily
A fter
Ġc e
Ġmom ent
Ġsal ary
Ġamaz ing
Ġt eddy
Ġread s
Ġn orm
Ġsil ver
3 000
g ers
Ġse ason
Ġdro pped
Ġtemper ature
Ġtal k
ĠCar l
Ġhig her
n omial
id ge
Ġwas n
Ġsm art
Ġbig ger
Ġpoly nomial
Ġ13 5
a irs
Ġgiv ing
Ġsatisf y
to gether
Ġseg ment
Ġl ater
Ġ {
Ġcon c
Ġl ate
Ġper iod
ĠG re
Ġepisod es
Ġpopul ation
n ies
un e
Ġpark ing
Ġbro ke
Ġelimin ate
Ġse ats
ĠP a
Ġpack age
ĠEm ma
Ġd ot
Ġre pe
Ġsomet imes
Ġse c
ĠPr ice
iv al
ct ors
Ġsh ort
Ġwa ited
] {
Ġli br
b eta
c al
Ġ }
Ġs illy
Ġsandw ich
Ġmark et
Ġdist rib
he st
ĠC l
Ġclass es
Ġdri ves
bo ard
ĠS te
Ġth rew
Ġyou n
Ġdi am
Ġcomput er
Ġpart s
Ġpret end
Ġcom es
Ġrest aur
uck y
Ġmid point
Ġhe art
Ġpl ates
sec utive
M aybe
y ard
Ġne g
Ġdaught er
Ġh ide
Ġ7 8
Ġoutc omes
9 00
G iven
Ġcon gr
Ġdec or
Ġc ases
4 000
Ġcap acity
Ġshe ep
Ġdeg ree
Ġwood s
Ġcond ition
Ġrem o
or ts
Ġlet ter
Ġdr ank
t en
Ġshe lls
Ġth inks
Ġcon secutive
room s
Ġmu sh
Ġwr itten
Ġb urn
| \
ĠH al
ap e
Ġc ity
Ġh ouses
l ight
Ġb oun
Ġh it
o c
Ġ .
Ġwe ar
Ġwom en
Ġcongr u
Ġl ift
ha el
ordin ate
d frac
i ant
Ġco in
Ġstr ange
Ġwatch ing
O h
al th
Ġp ati
c y
Ġang les
Ġt urt
Ġf t
Ġdr agon
Ġclos ed
Ġmid dle
Ġstre et
g o
u ps
Ġd anger
ug ging
Ġ9 8
g on
Ġpain ting
i pped
ĠD on
) }
Ġown s
p ar
)^ {
b ur
m er
Ġp ush
re ct
ĠHal f
Ġb ake
Ġdivis ors
Ġn ap
Ġamaz ed
Ġmultipl es
Ġprom ised
cent age
Ġswim ming
c orn
Ġadd s
Ġrestaur ant
ell a
Ġsur f
ce il
Ġpo st
Ġsc re
Ġhome work
Ġo per
Ġm ph
it es
Ġj oy
Ġpop corn
Ġbrown ies
Ġass ume
Ġflo ors
) \
ction s
0 5
Ġcover ed
Ġneg ative
f ort
Ġtr ucks
Ġstep s
g ra
Ġt ip
Ġexpens ive
4 80
e ar
^{ \
Ġarr ange
Ġroll s
ball s
Ġinter se
Ġpart ic
B ut
Ġm outh
Ġin verse
Ġ- $
ain s
Ġinst ead
e or
o ld
} }$
Ġ ed
Ġbu g
Ġcount ed
u it
Ġg ar
Ġ4 000
ĠO l
4 6
n s
9 5
Ġacc ident
Ġlibr ary
t ons
Ġ4 3
Ġm oral
ive ly
Ġsl ope
Ġadd ing
Ġbec omes
Ġreg ion
Ġg ifts
Ġ9 2
Ġ3 20
Ġturn s
Ġpat tern
Ġcompl et
Ġpupp ies
l c
Ġblo ck
3 1
Ġse as
Ġslow ly
Ġ5 1
ĠJ ake
ĠD ist
Ġtreas ure
Ġb in
Ġbal ance
Ġe vent
Ġ8 1
Ġmu ff
Ġhar v
Ġdri ving
3 50
Ġm ail
et ting
Ġgr ate
ĠK en
8 1
i et
z y
Ġt iles
Ġv er
Ġra ise
Ġnumer ator
Ġs uc
ĠT wo
ĠW ith
ĠA B
ĠA d
Ġd ream
Ġsc ar
Ġfem ale
ĠPer centage
l ings
Ġb ul
ĠSo on
Ġ4 1
Ġnick els
ag ed
Ġhelp ing
ĠO ut
Ġjour ney
ad ed
ĠG r
Ġs ick
Ġcl ub
14 4
Ġpres ent
% .
Ġlo llip
Ġwor ried
Ġback yard
- \
Ġan t
Ġst uff
Ġ5 7
Ġprodu ce
Ġpaint ings
ĠAl ice
.. .
ĠFl uffy
t es
Ġcha ir
Ġwe lc
Ġshe ets
pp ers
Ġte a
} ^
ven ue
Ġsing le
O kay
Ġk ey
erm el
Ġwat ermel
Ġfl ag
Ġbut tons
Ġ15 00
Ġcalcul ated
Ġapart ment
Ġben ch
ĠT ony
Ġ27 0
Ġgrate ful
Ġme als
Ġ18 00
Ġag o
Ġcry ing
Ġsupp l
Ġpoly gon
s et
Ġtw ins
Ġpic ks
Ġspl it
Ġyoun ger
Ġc one
Ġd a
qu ad
ĠW ill
ĠR o
Ġve ctor
Ġe ar
Ġprin cess
f ast
fer ence
i k
Ġa x
Ġn uts
Ġre venue
ĠP at
Ġlemon ade
Ġkn o
Mom my
T im
Ġevery where
Ġafter n
Ġord ers
5 2
ĠB et
Ġmo ved
ĠK im
ĠFr ank
Ġpro port
Ġve ctors
Ġstart ing
Ġ ident
il t
B en
ĠC D
ĠGrand ma
Ġmat ch
en ces
om p
ĠL ater
rac e
Ġ7 6
}$ ?
Ġexpress ed
Ġbase ball
Ġcor rect
Ġm ountain
Ġ3 000
Ġaftern oon
t ion
ĠA r
Ġdri ver
Ġca ps
Ġdanger ous
Ġd imes
Ġbreak fast
Ġbath room
Ġb ic
Ġg ig
ĠS etting
ĠJ ess
te x
Ġdef ined
valu ate
Ġphot os
al es
)$ ?
Ġbracel ets
ĠC har
Ġgr ad
Ġproport ion
O K
it ch
cc er
r is
Ġt ent
Ġon to
Ġfr ont
Ġinclud ing
Ġp ump
we et
}\ |
Ġclean ing
) !
an ch
ĠH arry
Ġcom b
Ġro de
Ġag es
Wh y
Ġproper ty
c ycle
l ves
ĠP h
Ġmag ical
Ġblank et
n is
Ġbee f
Ġharv est
alth y
6 3
Ġco at
ill a
ĠF red
and om
Ġmon ster
Ġchar ge
ĠMic hael
Ġc ro
Ġis land
ĠJ os
ĠE l
us ed
Ġsw ings
} ,$
Ġc yl
ber t
res ses
Ġoff ice
Ġr ing
H i
Ġin s
Ġapp ro
Ġhig hest
ject s
min ute
Ġo il
qu e
Ġwait ing
Ġda ily
5 1
Ġh y
ĠJ ason
Ġh id
Ġr ub
Ġpus hed
p ty
er n
re ad
Ġof fer
Ġcolor ful
Ġf aces
Ġ3 50
Ġar ms
Ġeven ing
Ġatt end
Ġw ings
Ġp ow
o om
Ġso ccer
Ġsa ves
Ġstud y
Ġz oo
Ġste pped
Ġinv est
Ġb le
Ġb ud
ĠG eor
Ġshar p
Ġneckl ace
om m
Ġwall s
Ġrespect ively
Ġ â
Ġst uck
ĠSam my
Ġdis app
Ġprodu ces
Ġsec ret
Ġh ur
Ġequ ival
ĠCh rist
Ġexpens es
Ġdir ty
ol og
Ġtrave ls
Ġequival ent
b ow
Ġc amp
7 00
Ġg en
Ġst ar
Ġcustom er
anna h
7 8
Ġin ch
Ġqu iet
Ġgra pes
Ġpass eng
shir ts
is hes
Ġl ad
ĠM aria
Ġro se
ax is
Ġpack ages
Ġbel ieve
Ġm l
Ġpre p
Ġhold ing
Ġpurcha ses
Ġem pty
Ġm ot
ber ry
Ġstr ing
Ġver tex
Ġc ou
Ġp ort
Ġsl ice
Ġwe aring
Ġr ot
Ġr andom
Ġshe lf
one ly
Ġlau nd
Ġh os
Ġfe ather
Ġmon key
5 000
i o
p it
Ġex erc
Ġme al
S ure
Ġp ath
Ġpo cket
Ġapp e
y le
Ġb orrow
Ġsp ots
um n
Ġmag ic
% ,
Ġn et
Ġv ot
Ġhop ed
9 8
Ġst ack
Ġj og
Ġpe aches
Ġab s
ĠPl ugging
al d
Ġfind ing
ac hel
Ġk ite
Ġpl us
Ġle vel
4 7
ĠM att
Ġse par
Ġh um
il ies
ĠM ama
ĠE ll
Ġte eth
Ġneckl aces
ter day
Ġlight s
Ġconst ant
in ing
Ġow l
C M
Ġs itting
0 1
4 3
c us
ĠD uring
Ġdon uts
ĠMart ha
ri e
Ġhapp en
v is
Ġb ite
Ġfeel s
A t
d ays
Ġhe ads
Ġsw am
ation al
un t
15 00
Ġsho pping
ĠDist ance
S ara
u se
ĠM ay
Ġ4 7
Ġcar ried
Ġdraw ing
Ġs ne
Ġ6 2
S t
Ġ Q
ĠJ ac
Ġav ail
ie ved
Ġal together
Ġcont rib
Ġpen nies
Ġcloud s
c d
Ġ ing
Ġf ab
Ġc rack
Ġbr anch
! $
Ġtr ou
Ġp an
Ġl onely
qu ar
Ġkilogr am
p ack
ing er
Ġst ation
ĠJ eff
Ġ7 20
ert ain
Ġvac ation
An na
Ġhor se
Ġfab ric
Ġ es
Ġwe ig
Ġmov ies
Ġ\ ]
Ġpass ed
Ġp ine
Ġg ym
ĠJ u
Ġbud get
Ġdi agon
ft y
Ġran ge
Ġcont aining
Ġnorm al
p ro
as ed
co ordinate
ord ing
Ġgent le
Ġcher ry
ĠPa ul
Ġs ang
Ġm ist
c on
Ġdon ated
ĠDad dy
Ġd resses
Ġn est
Ġsh ip
\% $
u ct
Ġc ow
il arly
8 8
m all
in ter
ĠT weet
ĠN at
Ġmag n
Ġmeas ures
h ood
ĠA re
Ġli ve
Ġno ises
Ġmat ches
Ġen vel
Ġd ire
yc les
Ġnear by
Ġwelc ome
C omp
J ames
Ġex am
Ġthr ows
Ġ8 3
Ġsh r
Ġt as
Ġc ell
Ġk m
Ġbanan a
Ġcla pped
in fty
Ġw ish
Ġl ife
Ġwhe el
Ġmuff ins
ĠBet ty
Ġlaund ry
ch ing
Ġinc ome
av ing
n uts
t ime
ĠK at
ĠU n
Ġt ub
Ġ1 12
Ġno se
Ġconsum ed
Ġaccident ally
Ġavail able
um s
Ġplay er
Ġten nis
Ġsuc cess
c le
is on
Ġp udd
Ġ4 20
Ġman g
ang ing
Ġy arn
Ġpe b
r d
Ġo ce
Ġlo cal
Ġbed room
ĠSim ilarly
Ġte le
Ġte ach
Ġyou ng
les s
Ġer as
Ġp ile
Ġmess ages
Ġst ories
Ġ7 50
Ġche ered
Ġen er
Ġexpl oring
Ġbo ard
Ġcart ons
Ġpuzz le
ĠIn side
ĠAnd rew
Ġvert ices
n ess
ug g
Ġfactor y
Ġser vings
Ġbus y
Ġincreas es
Ġdeterm in
Ġfig ure
Comp ute
at ors
ill ed
Ġ16 00
Ġroll ed
Ġmod ul
ĠJan et
) =\
Ġfair y
Ġtre ats
e en
} .
Ġ9 1
Ġsm o
ĠR achel
Ġsto ck
Ġfoot ball
Ġtre at
Ġob t
Ġm ow
Ġt un
Ġorigin ally
Ġl as
Ġn ove
Ġk iss
Ġpl aces
Ġbu sh
Ġhos pit
Ġb ody
Ġste ak
p a
Ġd ie
Ġd rew
Ġg iant
le q
Ġing red
p ers
ou ps
os s
ĠSte ve
6 8
ĠB l
ĠR ob
m orrow
Ġto morrow
Ġse m
op es
Ġspend ing
ect ed
Ġoce an
_ _
} \]
Ġmin us
Ġfro gs
Ġsp ider
Ġro b
Ġar m
Ġexpl ained
Ġhu gs
e x
Ġc ave
Ġse at
ĠWe ight
Ġfor get
Ġr oo
Ġup set
Ġ6 8
Ġ16 8
Ġpean ut
itt y
Ġwat ches
Ġr u
Ġpay ment
ĠAnd y
Ġbel ong
Ġpati ent
ri angle
Ġwould n
Ġtall er
Ġmush rooms
Ġener gy
re ls
is c
Ġgo ats
Ġdis cover
Ġpay ing
Ġsn ake
Ġgen er
a per
Ġp anc
ĠC o
Ġwr ites
Ġtax es
nd a
Ġad m
Ġcollect s
Ġmot or
w h
Ġgre w
Ġsing ing
gra f
i pp
i el
10 8
ra id
Ġtri ps
Ġbask ets
Ġconsum es
b ook
Ġpro ject
Ġadvent ures
g ie
Ġs ack
Ġk ing
Ġsn ack
Ġbat ch
Ġbak ed
Ġsuppl ies
Ġpasseng ers
d o
Ġs ib
Ġv an
Ġcons ume
Ġrain bow
Ġrec ipe
Ġmodul o
Ġbe ll
Ġsp here
Ġsp oon
Ġlo ves
Ġdoll ar
5 8
p oons
Ġn aught
res p
ĠR ose
Ġte xt
Ġmed ium
h ouse
Ġwas hed
iv er
ll o
ĠM um
Ġlo se
Ġmar ks
Ġcr ates
ĠCom p
Ġbab ys
Ġelepha nt
Ġprod uced
Ġim ag
Ġass ign
F or
h ip
u pp
Ġs uddenly
Ġh oney
ir on
ĠM eg
Ġqu art
ĠSus an
Ġexpon ents
Ġremo ved
ĠAd am
4 1
Ġc uts
ir a
Ġr h
Ġpl aced
Ġsh ook
Ġmin e
ĠJohn ny
Ġnaught y
resp ond
Ġ12 8
ĠF act
i pping
ore m
Ġham bur
m ost
ĠJ une
Ġsee med
ors es
Ġgar age
m ons
Ġ6 7
10 5
Ġcon f
Ġcat er
Ġbott om
1 30
Ġf il
Ġc ertain
Ġco ll
ĠA cc
13 5
Ġtow els
Ġdiam eter
ĠJos h
Ġl im
Ġso ap
Ġsh ots
Ġsun ny
Ġsound s
Ġdanc ed
Ġw ise
Ġwas hing
Ġle mons
Ġcor respond
Ġsurf ace
Ġth ough
Ġsp aces
O f
Ġs our
Ġw oke
Ġb ac
Ġh orses
Ġbe gin
Ġ9 3
ĠP ete
poin ts
Ġ ...
Ġa f
as hed
ri ze
we ek
ĠJo se
Ġpar ab
W hen
Ġo ven
st ers
Ġco p
ĠB ri
ur ance
Ġstri pes
Ġingred ients
} _
ĠAnn ie
y an
Ġchocol ates
Ġ[ /
ĠAcc ording
f loor
um ing
Ġst orm
ĠTo day
Ġgroc ery
! (
Ġs im
ĠS e
ĠC ome
Ġgr oups
Ġeven ly
sin ess
Ġcontain er
Ġf und
Ġp ress
ĠA verage
Ġun it
Ġbrother s
Ġcirc les
ĠGeor ge
k in
v ice
Ġb er
Ġy og
Ġbu siness
Ġsc ience
Ġmat ter
Ġpill s
Ġmang oes
ĠFact oring
en a
Ġha ng
ĠD ave
Ġco con
Ġatt ended
ĠLe o
) -
\ \
ag ged
Ġmet al
Ġdeliv er
+ (
Ġs q
ent y
Ġwh ist
are n
Ġwind ows
Ġplay s
Ġcol our
ĠJen na
D o
our th
Ġfind s
Ġcomp lex
Ġanswer ed
Ġbut ton
Ġequal s
Ġcoeffic ients
i que
Ġl ions
Ġst airs
Ġwatermel on
Ġhospit al
Ġst at
ĠT hank
ic ked
Ġw ha
Ġgo als
Ġwond ered
Ġlollip ops
Ġlad der
ĠJac ob
Ġd est
Ġan n
Ġwom an
Ġm ad
pl ay
Ġbu ilt
Ġdec ide
gr ound
Ġsimplif ied
ĠJ ay
ct s
sh ine
Ġconsider ing
Ġdetermin ant
5 7
Ġf uel
Ġto uc
ĠIn it
Ġnew sp
Ġlaug hing
Ġparab ola
* (
Ġt iny
in os
Ġnot hing
um b
Ġ7 00
Ġche st
Ġc ere
ĠD av
Ġbu gs
Ġsha pes
ĠWh ile
Ġte as
Ġje w
Ġdough nuts
Ġswe ets
il ities
Ġsn acks
} +
Ġb akes
Ġc raw
ĠM on
Ġle aving
ĠCar la
Ġin d
Ġse ven
if f
Ġsal ad
Ġcyl inder
) }$.
b on
Ġl ow
Ġe lect
Ġv ill
Ġst ate
Ġse ed
Ġwr iting
f ourth
} )^
ind ers
Ġ12 6
arr anging
Ġvot es
Ġpanc akes
3 20
er v
Ġr ice
Ġsp icy
Ġpe pper
Ġwr ote
Ġ19 2
Ġreturn ed
Ġc ute
Ġgig g
2 10
ic les
ĠA b
ur ation
ĠD e
und red
Ġneighbor hood
Ġs na
Ġw and
Ġge omet
Ġaf raid
Ġh undred
Ġwho se
Ġ25 6
ĠK e
Ġfract ions
Ġdro ps
} }{\
Ġc ab
Ġ2 25
Ġsnow man
ic ol
Ġcar p
Ġcomplet ed
Ġber ries
r floor
Ġin div
Ġbe ars
Ġch oo
lf loor
ph one
cul ate
Ġsmo oth
Ġindiv id
l ic
Ġan ts
Ġco zy
Ġsp oons
Ġinter ior
Ġem b
Ġsn akes
ĠT ina
Ġsa uce
Ġturt les
Ġcomb ine
ĠI s
pl ane
Ġpro v
Ġknow s
ĠBob by
Ġscoo ps
ĠCD s
2 20
l et
Ġp y
Ġweek ly
Ġseas he
7 20
o e
Ġb on
Ġfor ward
ad ing
25 00
Ġhot el
8 000
Ġte lls
Ġtouc hed
m m
Ġd ra
Ġe ars
ore s
ab y
Ġsun shine
ĠĠĠĠ ĠĠĠĠ
Ġw ave
Ġmar ble
Ġpean uts
Ġit self
ĠM el
Ġce le
Ġt ape
Ġc ash
Ġhe llo
Ġso il
Ġsh ows
Ġj ack
16 00
", (
Ġthe ater
ou qu
ĠN o
Ġpr ot
iss ion
Ġpig gy
Ġcarr ot
Ġb ouqu
)$ :
Ġinv ited
qu ation
Ġdec k
Ġbre ath
ĠJul ia
Ġfeather s
2 25
Ġ Â
Ġw ore
Ġ7 4
ĠR yan
ial s
Ġkne e
lud e
Ġtomat o
A r
o ot
Ġw ild
Ġd ice
Ġform ed
Ġsun fl
Ġtal king
Ġstuff ed
7 50
Ġ$ .
il ing
ĠM at
el et
ĠK ay
ĠAn g
Ġexc iting
Ġblue berries
Ġcou ch
le ased
ĠJack son
Ġpract ice
Ġcoeffic ient
H ey
S am
Ġt ang
Ġd re
Ġoun ce
Ġve h
Ġwall et
ĠSus ie
at a
um ps
ut ed
Ġpr iced
Ġhu ge
Ġtele vis
M r
Ġrepresent ation
= (
Ġc oup
Ġwith in
ck ets
Ġcontain ers
Ġins urance
1 12
Ġlo ses
Ġstore s
Ġ$- \
ĠV al
Ġrabb its
Ġresult ing
Ġpow ers
m p
Ġ( (
ĠC ha
Ġj o
op h
Ġyes terday
Ġcrack ers
al le
en ry
or ter
Ġe ag
ir r
Ġcre ate
Ġpare nt
Ġallow ance
ĠMeg an
7 7
n ic
Ġd ish
Ġhe althy
Ġany one
Ġrequ ired
Ġfix ed
Ġspot ted
Ġh ope
il le
Ġfri es
Ġpe ppers
Ġbec ome
ĠT w
Ġas leep
Ġlo aves
Ġch os
Ġfam ilies
arr ay
Ġ '
Ġha irc
ĠS c
Ġr iding
Ġpro cess
Ġsmell ed
Ġchos en
G ood
w ards
Ġl ap
ld ots
Ġun ique
Ġdoes n
Ġsubtract ing
Ġsib lings
ĠM ittens
Ġcombin ations
Ġsleep s
Ġcorn er
Ġrel ieved
Ġtast y
en e
ĠS qu
ĠJ on
ram id
Ġcere al
g a
p ound
is ha
Ġl ucky
Ġrep air
7 3
inter cept
) .\]
id get
ĠS omet
Ġpl ate
Ġwor ms
Ġstre t
Ġmiss ed
sc ri
Ġrob ot
Ġb aking
Ġm g
it or
Ġn or
Ġmat er
Ġteacher s
Ġbul bs
Ġo z
Ġse nd
Ġinter val
Ġty pes
Wh ich
Ġseashe lls
Ï Ģ
Ġb ub
Ġp al
Ġst anding
Ġk ittens
Ġcom fort
ĠK itty
* $
] ,
Ġ2 80
Ġche er
i ol
s uit
ic le
ĠR andy
Ġfill s
Ġ iron
ĠC ase
Ġcl own
Ġpe ace
Ġcirc um
Ġbel ow
ĠChar l
) .$
Ġp ets
Ġ2 60
Ġ8 2
Ġ$$ \
m ult
en ny
ĠS ome
Ġv ase
ec k
ĠK aren
Ġpurcha sing
Ġgu ess
Ġtrip le
Ġdir t
Ġcompet ition
M y
Ġqu ot
Ġgu it
ĠAre a
y ear
} +\
Ġn ails
res h
Ġpic nic
Ġpoint ed
Ġdou bled
ĠNe w
Ġpar alle
Ġed ge
Ġcele br
Ġo m
Ġc oun
an ces
Ġdeterm ined
Ġconc lude
Ġdistrib ute
l or
w idth
Ġp ir
id s
ĠL u
Ġsh orter
Ġsmil ing
os ed
Ġpack ets
Ġbracel et
9 2
a wn
Ġt ires
Ġto oth
it ude
ĠL ength
Ġk itten
ang les
Ġcons ists
Ġfore ver
Ġ1 15
Ġ6 000
Ġcat ches
Ġtal ked
ĠRe arranging
Ġsear ched
Ġcorrespond ing
Ġgeomet ric
icol umn
mult icolumn
ĠH annah
Ġex per
ĠP ark
Ġchar ged
Ġsod as
Ġprom ise
ĠDav id
J ack
k g
p ing
ĠM ad
Ġac res
Ġbi kes
Ġpin ts
ĠGre g
c m
Ġt ur
Ġlo ad
Ġmod el
Ġjew el
Ġvill age
f oot
Ġse ction
Ġplay ground
Ġad op
Ġinc l
Ġche w
iss a
Ġclot hing
Ġstop s
6 000
C ome
p ill
s ince
Ġcongru ent
Ġkno cked
Ġo pp
Ġp arr
Ġ5 3
Ġsp in
ĠP ro
Ġsu it
Ġpick ing
Ġtrou ble
8 7
Ġ3 75
Ġst ones
ĠB ella
iz on
Ġclos et
ĠBr own
e f
ast ic
Ġdraw n
fl ies
Ġmiss ing
Ġinterest ing
Ġmill ion
Ġscar f
Ġpeb bles
er ies
Ġ5 9
Ġtw ig
cdot s
Ġfl ight
Ġg un
Ġ9 7
Ġtw enty
Ġfr idge
Ġkind s
Ġjump ing
Ġmag az
Ġmed ian
Ġjoin ed
Ġob jects
Ġhor izon
Ġc am
oo p
pl es
ĠC on
Ġcl o
Ġbr icks
Ġvisit ors
Ġelepha nts
Ġbic ycle
quar ium
se lves
Ġwork ers
Ġpaint ed
Ġ âĤ¬
Ġ rib
Ġb ones
Ġp ou
Ġsum mer
Ġlit er
Ġcater pill
ot t
ĠA nt
Ġhelp ful
Ġmo ving
Ġbegin ning
Ġ2 16
Ġ5 000
Ġbl ow
Ġche es
Ġrequ ire
g cd
Ġa quarium
Ġnight s
Ġtast ed
Ġocc urs
Ġl ower
Ġh un
Ġr ac
Ġz oom
Ġdel ight
x im
Ġf resh
Ġm ud
pp y
Ġfl av
24 00
)( -
Ġim press
Ġincl us
Ġt ig
Ġlo ck
Ġpy ramid
% )
2 80
Ġp ots
ar b
ĠS m
Ġ6 1
un k
ĠG race
Ġ$\$ $
Ġble w
Ġtang ent
ha med
Ġr id
Ġ6 9
ĠB re
ĠTh ree
Ġcub es
Ġbur gers
Ġgent ly
ĠBri an
& &
Ġpe ars
Ġ24 00
Ġdis hes
Ġcra b
olog y
t ions
Ġo bs
Ġr ides
Ġy ield
ĠM B
here d
Ġche m
Ġcover s
t ory
Ġf ancy
Ġm ale
Ġd uration
il s
Ġ8 9
ĠC ross
Ġtri es
Ġbr idge
orn s
Ġsw ord
Ġexp ected
Ġmultipl ied
n el
ĠS u
ĠM andy
Ġpack ed
Ġcount ing
Ġscoo p
Ġexpon ent
y ed
Ġ q
Ġt rack
Ġanswer s
Ġph ones
Ġclot h
ĠAng el
7 4
Ġgr own
Ġmeas uring
Ġpig s
Ġevent ually
a i
{ (-
Ġse lf
Ġbed s
Ġdeliv ery
Ġpol ice
Ġmeet ing
l ceil
m as
r ceil
}{ (
Ġsho ot
Ġje ans
Ġscre amed
Ġrandom ly
Ġroo f
n ie
Ġ ign
re y
Ġb isc
ĠL CM
6 7
B C
ac y
Ġcha rac
18 00
ĠMar cus
Ġdes k
Ġconf used
Ġhorizon tal
n ed
} -
Ġp rize
Ġ1 75
en se
Ġdivis ion
Ġlove ly
ĠMar ch
Ġkn ives
Ġdra wer
y ing
AB C
Ġlo gs
Ġrem ain
Ġdown lo
Ġ$( \
Ġdr um
Ġph ys
ĠWh ich
n umber
Ġa unt
is her
Ġto il
ol ute
Ġhand le
Ġmo on
Ġpret ended
Ġshar k
Ġp ian
Ġd ed
Ġd ess
Ġd ata
ou ts
ly n
ind a
Ġsh ining
Ġbreak s
Ġser ving
ian a
Ġcab in
Ġt ie
Ġm ass
Ġsp read
ke ys
anc hes
Ġshar ing
Ġforg ive
6 2
Ġd ue
ĠH enry
ĠN ancy
Ġbr ings
Ġbat ter
Ġrepresent ed
, \]
6 25
Ġh iding
Ġ10 2
ie w
op er
Ġgr ay
Ġstand ard
p end
t riangle
he mat
ĠP lease
Ġrema inders
ĠAl i
Ġabs olute
Ġpudd le
ĠInit ial
u its
12 8
ĠO f
ĠAm anda
ĠDan iel
Ġappro xim
c i
w ood
en c
Ġcost ing
ĠE d
Ġte ars
Ġroll ing
Ġstraw berry
Ġwin ning
T o
Ġsa ving
Ġst one
), $
ĠJul ie
Ġtast e
ĠSomet imes
2 70
y t
it a
Ġth ick
pp ies
Ġal b
arr ass
Ġdou bles
Ġdes ign
Ġquot ient
ĠB eth
Ġemb arrass
pend ic
in ation
ad es
Ġnot ice
Ġtr ash
ĠK ate
Ġgu ppies
A C
f ifth
Ġd ais
ound ed
ge q
Ġcle ver
Ġpass es
Ġgold fish
Ġgum balls
Ġgroc eries
ĠComp aring
Ġdais ies
ar c
ĠM o
Ġ8 6
Ġsp o
Ġ7 3
Ġsh y
co ordinates
ĠR ed
os ite
Ġclass room
Ġborrow ed
Ġsem es
pendic ular
d ing
Ġm as
Ġbr anches
Ġcook ing
Ġrepl ace
Ġspl ash
Ġpartic ular
v an
Ġb orn
Ġh on
Ġin se
Ġsh own
ĠR ick
Ġmat hemat
ĠO r
Ġser ved
is er
at hered
Ġhe ars
if ic
ĠK end
200 00
ord an
Ġprodu ction
Ġ17 0
Ġplan ks
Ġmed ic
Ġelect ric
Ġw ife
Ġo y
Ġshe l
Ġper pendicular
ĠE ric
Ġtr ust
Ġsee k
Ġbus hes
Ġharvest ed
oo s
Ġle af
Ġfl ash
Ġpass ing
Ġland ed
Ġce iling
Ġboun ce
g ly
Ġw ins
Ġha ll
ĠE r
Ġpat ch
Ġdecor ations
Ġc age
Ġsa us
Ġwh is
Ġli p
Ġcle ar
Ġrec omm
ĠCar rie
Ġpump kin
Ġe valuate
ĠTo by
Ġsc ale
Ġback pack
Ġ\[ (
Ġla ps
Ġwra p
Ġoper ation
Ġoffer ed
Ġt ul
Ġm ay
Ġst amp
ĠJ am
Ġcol ored
izz y
Ġhy pot
c om
il ater
iz er
Ġwhen ever
Ġend points
Ġplan ning
Ġw ire
Ġst a
line width
Ġspr ay
Ġtent h
Ġ eng
Ġb c
ĠT ed
ar th
Ġg ate
ĠM iss
Ġset t
iz es
Ġround s
Ġbar ked
Ġlog ar
Ġpartic ip
Ġtoil et
2 16
c an
Ġro cket
Ġchan ce
iam ond
Ġm elt
ill s
Ġcha p
Ġsur ve
Ġlim it
8 6
A l
r ated
en use
at ures
Ġk gs
Ġvis ited
Ġdeliv ered
Ġprot ect
a w
Ġm ac
Ġm ain
Ġ10 1
ĠR os
Ġ36 00
Ġcarry ing
Ġinterse ction
Ġsne ak
ĠSm ith
( (-
Ġf inger
Ġqu iz
Ġ16 2
Ġred uced
Ġem ails
Ġbutter flies
Ġenvel opes
Ġcircum ference
Ġapproxim ately
Ġd inos
ĠS oph
ĠJ ean
Ġfl ies
Ġtr ay
Ġfr ust
Ġsis ters
Ġmac ar
T wo
u ary
ĠT eddy
at ers
Ġg athered
Ġr ude
Ġroll er
Ġfem ales
n eg
Ġb one
Ġn ine
Ġst ates
ĠD ar
Ġend ed
Ġpol ite
neg ative
i as
Ġm ind
st ar
ars h
Ġtrans port
Ġselect ed
Ġspark ly
Ġcondition s
ĠJess ica
Ġphys ics
Ġembarrass ed
Ġm irr
Ġj umps
Ġexp and
m other
Ġt aught
ĠS al
le e
ĠL ast
ĠM ummy
Ġ10 4
Ġnot es
ĠE n
Ġav oc
Ġdep end
Ġappe ared
ĠSqu aring
Ġavoc ad
l ish
y e
is ing
Ġm ap
Ġst ra
ĠJ er
Ġcand le
Ġsk ip
ren ch
Ġinst all
Ġshel ter
d binom
r imin
w or
Ġb x
Ġcl ay
Ġcal m
Ġsleep y
Ġcart on
Ġturt le
Ġâ ī
Ġeras ers
Ġrib bon
C ar
Ġe arr
Ġ\ $
ang ar
Ġcall s
Ġfur ry
Ġbon us
Ġtig er
rimin ant
f all
Ġg ained
ĠB u
ĠE ng
Ġsk ips
Ġkn ife
ĠBe fore
Ġcorrect ly
Ġyog urt
Ġtelevis ion
d et
w ater
Ġhis tory
Ġj ars
Ġgra pe
Ġweig hed
ĠKat ie
Ġcon es
ol f
Ġbr ush
Ġtr aining
Ġdis play
Ġdisc riminant
Ġpres ents
Ġallow ed
Ġbin omial
Ġdiagon al
Ġsa m
Ġco s
ul es
Ġlo ads
Ġthem selves
Ġknow ing
Ġdec reas
Ġmy ster
Ġprin t
ilater al
Ġ ess
ĠS and
Ġst or
Ġex cept
Ġ16 5
Ġweek days
Ġsk ir
ĠO ver
ha g
Ġme ant
Ġqu een
ĠP yt
Ġscar ves
ĠPyt hag
M ar
c han
l ph
Ġm aybe
Ġe asy
Ġin fl
Ġdo lph
Ġall ig
Ġproduct s
Ġconst ru
Ġlay er
9 1
Ġw ip
Ġc ries
im p
Ġu gly
Ġk angar
ars on
Ġdiv ides
sh ift
Ġrec ip
Ġele v
ĠPh il
ĠChrist mas
Ġpian o
P h
ic ing
ore an
Ġas king
Åĵ I
Ġhid den
ĠPythag orean
E valuate
u ction
an ny
Ġl amp
Ġe ld
Ġas ym
Ġsh ore
ĠE arth
.$ $
Ġtrave ling
ung le
Ġseg ments
Ġfight ing
d s
Ġw arn
Ġof ten
Ġc arn
Ġne ither
Ġoff ic
Ġang el
Ġbur ger
Ġobs er
Ġbisc uits
Ġasym pt
Ġf at
Ġd om
Ġj ungle
Ġwor m
Ġsk ipped
udd y
Ġcre ature
ĠJoe y
Ġdanc ing
ĠKe vin
Ġmyster ious
! }
+ (-
. )
2 60
6 1
a id
it ure
Ġst ood
Ġfl uffy
Ġcre ated
ĠWh y
Ġspr ing
Ġshr imp
Ġhypot enuse
4 20
n er
t i
Ġw ed
Ġbe an
}{ -
Ġ7 7
10 1
ist ing
Ġagain st
Ġvol can
Ġfly ers
arr ow
Ġcro iss
Ġindivid ual
ĠL ake
Ġtri angles
Ġ25 00
Ġsimplify ing
ĠSt ep
ĠEng lish
r ows
Ġt ag
Ġto ast
id y
im ize
Ġ5 40
Ġle op
Ġpain ts
Ġgrand mother
Ġsix th
Ġreac hes
ĠRe x
Ġcongru ence
Ġdiscover ed
Ġtul ips
Ġstra ight
c up
Ġin f
Ġ3 40
ind y
mat es
Ġcre ative
Ġtight ly
Ġpuzz les
Ġhambur gers
er ald
Ġn erv
ĠM s
ĠK rist
pi ed
Ġdon ate
Ġsal t
Ġrain ed
ĠJan uary
Ġnerv ous
A re
l ers
Ġ âĢ
Ġr are
Ġare as
ep end
mon th
)+ (
Ġgrad ers
ĠJu ly
Ġbac on
Ġeag er
Ġdess ert
$ )
g n
z ero
Ġ7 1
ĠC he
Ġ100 00
Ġho les
Ġser ve
Ġpotat o
Ġearr ings
ĠThe orem
Ġh us
id ers
16 8
ump y
Ġcall ing
Ġkn ight
Ġmark ers
l er
Ġhe ns
Ġcha sed
te en
Ġop ens
Ġgl ue
Ġfall s
Ġpast a
Ġwhist le
Ġsunfl ower
Ġveh icles
Ġcam er
c umber
Ġs en
Ġst ir
Ġ8 40
pl ace
Ġfl at
Ġtr ump
Ġcu cumber
Ġweight s
Ġyell ed
ĠWill iam
Ġmathemat ics
Ġstor age
8 3
n ight
ĠL ou
Ġas hamed
se y
Ġbu ckets
Ġpe ach
ĠTh om
Ġsha pe
Ġsand box
Ġbat ches
third s
Ġvac u
Ġmix ed
Ġnove ls
Ġf urn
en n
Ġk ick
Ġ8 000
ĠJ ordan
Ġli z
Ġcon ne
ĠAm er
Ġtrain s
Ġdiam ond
Ġspo il
r m
Ġw idget
Ġp our
ĠHe l
ĠB arb
Ġche aper
Ġshow ing
Ġscre en
Ġear th
Ġdire ction
Ġobt ained
Ġchees ec
in ary
Ġr out
12 1
ĠP olly
Ġpa pers
Ġfr ame
oth y
ĠSim on
Ġind epend
arsh mall
p ec
Ġf ine
Ġp m
as ha
Ġman aged
ĠF eb
Ġset ting
Ġfish ing
Ġpower ful
Ġgrow ing
Ġact iv
Ġdep os
ru ary
Ġident ical
Ġdisapp oin
ĠFeb ruary
k ins
el le
el ine
ĠEvery where
Ġcontain ed
Ġele ments
Ġopp osite
Ġself ish
1 75
W here
in ch
Ġb ored
Ġon ions
10 2
ra ph
Ġj am
Ġout f
Ġsha d
Ġexerc ise
Ġtas k
Ġflash light
wor ks
Ġfurn iture
' '
c a
m b
m od
Ġt ab
Ġt iss
Ġf isher
Ġh omes
ll a
Ġ6 40
Ġ12 000
ĠN or
ĠR em
Ġcool er
Ġpract iced
ĠDan ny
c her
Ġa ch
Ġa th
ĠH ence
Ġle ad
Ġme m
ĠE ven
Ġal most
12 6
Ġbas il
Ġde er
Ġ< =
Ġt an
im ens
Ġ7 9
Ġ9 4
ĠG o
Ġpack et
Ġair plane
Ġrecord s
ira ff
Ġcocon ut
ĠKend ra
Ġindepend ent
3 75
h line
Ġre n
Ġ25 5
Ġput ting
36 00
Ġnod s
ĠAB C
Ġdom ain
w al
Ġ3 30
Ġ12 1
Ġmom s
Ġrem ained
Ġgl ow
az y
Ġsho e
Ġtower s
Ġlawn s
ĠOl iver
b c
k a
Ġt er
Ġw aves
Ġc ous
Ġg em
ĠS um
ic t
ut es
Ġr ings
Ġrem ind
Ġ24 5
Ġres c
Ġconc ert
St op
Ġmist ake
Ġeld er
M ary
in o
Ġb oss
at orn
Ġn ur
ter ed
Ġpo ps
Ġli qu
Ġfl ute
Ġac cept
ĠBr ad
Ġtables poons
Ġorgan ized
Ġappe ars
oper atorn
operatorn ame
B ob
Ġo ct
ie f
ff ic
Ġcr ick
Ġsupp ort
ĠCal culate
Ġgigg led
aby tes
' d
e z
m ultiplying
u pied
Ġbe ha
ul as
el ia
ome ga
Ġswe ater
Ġident ity
g l
Ġg iraff
Ġbic ycles
c ip
n ab
u isha
Ġs ight
an a
Ġru ined
uisha ble
er os
Ġm arshmall
ere my
ud y
Ġme ad
Ġpr ay
Ġdecor ate
Ġâ Ī
ĠEll a
Ġdisappoin ted
D uring
ĠS ha
ĠS andy
Ġsp orts
ĠG erald
ile y
Ġgu est
ĠV ol
Ġpig e
Ġleg os
t ain
it er
Ġn os
Ġst age
ro d
us hes
ĠK yle
Ġshow er
pr il
Ġstat ue
he t
Ġb arn
Ġm ic
ar on
Ġ$\ |\
Ġsh ipping
Ġlo af
Ġoff ers
Ġclean ed
Ġkeep s
99 9
Ġvis its
Ġtow el
Ġsquir rels
Ġbabys itting
ĠLu ke
Ġinse cts
ĠâĢ ĵ
) :
5 3
Ġw inner
Ġl am
ĠS un
Ġwe ak
Ġshe et
og er
Ġop tions
Ġbow ls
Ġsail ed
Ġweig hing
ĠNat han
ĠTw ice
ĠCharl ie
nab la
1 15
Ġ Ã
Ġb ark
Ġf ake
Ġm L
Ġm all
ce ed
ad ers
Ġme chan
ĠR ic
Ġdraw ings
Ġbo ats
Ġde al
pt ion
upp ose
Ġann ual
Ġjewel ry
} ^{
Ġe llip
Ġv ine
Ġequ ilateral
Ġ12 4
Ġche ap
Ġpet als
Ġes c
Ġpeace ful
Ġmedic ine
Ġrecip roc
r ick
} |
Ġp iles
Ġ2 30
ĠA pril
Ġless ons
Ġsk in
Ġstudy ing
Ġdiagon als
Ġtas ks
ĠKay la
Ġwed ding
Ġliqu id
M ark
b f
b and
Ġt ut
it ches
ing ers
Ġtoo ls
ĠO K
lo ck
Ġsafe ly
Ġdinos aur
C al
P lease
Ġd am
Ġfe ar
Ġgr ows
ĠR ay
av ier
Ġen c
iss ors
Ġfill ing
Ġchan ged
Ġbab ies
Ġwra pping
Ġwha les
Ġguit ar
am ent
Ġ20 10
ĠD or
Ġmu se
Ġch ip
Ġrece iving
Ġmo le
ĠCh ris
oun ce
$", (
ĠQ u
Ġsemes ter
Ġmead ow
Ġb oring
il it
ĠL ittle
ĠM y
ht ub
Ġsc issors
Ġbl ood
Ġunderst ood
Ġpill ow
Ġcoup on
ĠSoph ie
9 3
e ared
g en
Ġf art
ent ion
Ġco co
ĠJ as
ĠC ol
Ġex amp
Ġbat htub
Ġcompet itor
ĠJam ie
Ġexamp le
Ġbe es
ĠL iz
ĠG ab
Ġho pping
Ġche cked
Ġcount ry
Ġsweet ie
sp ace
w are
Ġw ool
Ġg ather
un a
Ġsh orts
Ġhel m
ĠK elly
Ġdon ates
Ġfam ous
Ġbak ery
Ġhus band
Ġmic ro
o id
Ġt ro
Ġt idy
Ġf if
ĠT yl
ĠS han
ad a
Ġpo or
Ġlo an
Ġtr ays
Ġmon keys
Ġform ulas
Ġsu nda
Ġmo ves
Ġplan ned
Ġdef in
Ġes pec
Ġlas ts
Ġgener ous
Ġfrust rated
Ġespec ially
o le
Ġv iol
ĠOn ce
Ġrem ove
ess ion
Ġcont ent
Ġgu ard
Ġstre am
J im
Ġw agged
Ġh ipp
ic ally
ut h
Ġco ats
ver s
hes es
ne q
Ġbo ots
Ġrain fall
Ġbar rels
Ġmess y
Ġrel ax
Ġnon negative
Ġselect ing
ĠTweet y
Ġtun nel
Ġwhis per
Ġmuse um
c key
Ġm ales
ut ion
ĠA ss
Ġro ar
ist ry
us hed
Ġtri pl
Ġposit ion
Ġpen ny
Ġcr ate
text bf
Ġround ed
Ġsign s
Ġbi ology
Ġcomfort able
Ġcamer a
N ow
Ġw ing
Ġto ns
Ġso ck
Ġ8 7
Ġlike ly
Ġapp ly
Ġearn ing
Ġsu its
Ġ19 5
Ġpull s
ĠY ork
Ġhur ts
Ġlap t
Ġcucumber s
ĠH igh
ĠC arson
100 00
Ġmil ks
Ġho ckey
Ġexc ite
Ġ19 0
Ġinclud e
Ġsent ences
Ġseas ons
Ġcoun ter
Ġtur key
Ġmarshmall ows
b ack
f ic
m en
he ad
Ġre se
ig hed
Ġ& \
Ġim pro
Ġparent heses
Ġhon est
om ed
ĠR oger
Ġyour self
Ġcho se
Ġcr ow
Ġwood en
Ġwra pped
Ġquart s
Ġwidget s
Ġren tal
Ġt ract
Ġe as
ĠL ook
un c
Ġj oke
ust in
Ġcollect ing
Ġswe aters
ĠMar g
cl us
ĠRo bert
h space
Ġs ubstituting
Ġd imens
Ġl ives
Ġh oop
Ġ\ |\
Ġth in
ur ch
Ġper m
Ġbig gest
ang ed
17 0
ept ember
Ġcomplete ly
Ġtext book
c ast
r al
Ġha y
um es
Ġwas hes
end y
ĠC ity
Ġsc ream
Ġho se
Ġcombin ation
Ġser vice
ĠJan ice
Ġinclud ed
Ġcomm erc
Ġtra il
Ġocc upied
Ġcher ries
Ġhappen ing
Ġvan illa
Ġexcite ment
n or
p ay
pe ed
Ġey e
Ġnorm ally
Ġenvel ope
Ġsuccess ful
Ġom elet
m ine
Ġs ighed
Ġhour ly
Ġlo sing
and el
Ġgr umpy
Ġover time
ĠBob o
Ġcount s
Ġde ad
Ġbuild ings
Ġgrand pa
Ġcontin ue
Ġkiss ed
__ __
Ġdest ro
Ġinclus ive
Ġs ine
ĠH ar
10 4
Ġend s
Ġbas ed
Ġent er
Ġstre ets
Ġspl ashed
Ġdeliv ers
Ġpract ices
Ġtun a
Ġbouqu ets
Ġmater ial
Ġtwig s
Ġmirr or
H el
Ġt ire
Ġt ips
Ġs ort
ĠS chool
ce l
Ġmin i
ĠD awn
Ġch urch
Ġcha in
aur a
Ġge ese
Ġteas poons
Ġchem istry
Ġeng ine
Ġter ri
Ġmilks ha
S ol
b ie
Ġw agon
Ġg room
Ġhe al
ĠS eptember
st ing
ĠL ola
Ġse ctions
Ġfl ips
ĠG ary
Ġthr own
lo e
Ġrew ard
Ġprin cip
ik a
Ġpou red
Ġcaterpill ar
is m
ĠS h
ri ger
Ġat tract
ĠD ucky
Ġbu ll
ap ers
Ġlearn ing
cha rd
Ġref riger
Ġmight y
Ġchoo sing
a ps
c he
v ille
Ġa ver
Ġa pr
Ġf ingers
Ġp leased
ir ing
ad ium
Ġun us
ud ge
25 6
Ġcont est
Ġschool s
Ġapart ments
Ġnewsp apers
) ?
st ick
Ġon line
Ġsu p
Ġchar ity
ĠMart in
Ġact ually
Ġcra ft
shir t
Ġdisapp eared
ĠJose ph
Ġnewsp aper
Ġf ool
Ġd andel
Ġst adium
Ġbe ak
Ġpr ince
Ġar g
Ġdiscount ed
Ġburn ed
Ġvacu um
S orry
n al
in t
Ġw age
Ġf ert
Ġshe ll
Ġco bs
Ġsp ir
12 000
Ġcre d
Ġshar ks
ĠÂ £
Ġparalle l
Ġdimens ions
3 30
Ġw are
Ġm ummy
Ġx y
ain e
14 00
Ġstr ings
Ġbas es
ĠAl together
}.$ $
Ġpres ident
Ġvert ical
Ġeras er
Ġdre ams
S implify
Ġl ying
Ġl azy
ic an
Ġpl astic
Ġdif fic
Ġpur se
Ġhand ed
lud ing
Ġemploy ee
Ġoy sters
Ġdiffic ult
q quad
r on
t uce
v et
Ġh ol
le ment
im i
Ġ3 36
ĠB ry
Ġdo ors
Ġle ak
han ie
Ġ15 6
?" .
Ġlet tuce
Ġve nd
Ġcray on
AB CD
Ġtail s
Ġsub scri
Ġo l
erm ark
Ġ28 8
la ire
Ġla id
Wh o
Ġepisod e
ĠCal eb
Ġcraw led
Ġcarn ations
Ġreciproc al
Ġsup ermark
Ġsupermark et
f or
Ġe arly
ĠS p
Ġr ough
Ġtw irl
ab c
Ġ14 00
Ġuse ful
Ġres ults
col i
Ġfig ures
Ġfold er
Ġrub ber
Ġhum an
Ġbub bles
Ġpir ate
ĠVol ume
Ġg ummy
ĠS n
Ġre v
Ġun cle
ĠE nd
Ġgo lf
Ġinc red
Ġstud ies
Ġchan ges
Ġmach ines
y d
Ġa ud
ĠS peed
Ġco al
ĠC indy
Ġhel ps
ug h
Ġpoin ting
ĠK el
oin t
Ġcup board
ĠU S
Ġswim s
yl ie
Ġsupp osed
Ġsug gest
Ġmultipl ic
Ġblank ets
Ġburn s
Ġshoot ing
Ġasympt ote
Ġfisher man
Ġnur se
Ġfert il
a j
al ph
Ġg or
ag het
Ġgo at
ip ment
)( \
Ġhigh light
Ġthrow ing
ĠCarl os
Ġdest ination
aghet ti
5 60
Ġ2 100
as hing
Ġ\ ,
iv ia
Ġy et
ĠL ee
Ġsp aghetti
Ġnot e
Ġsha ke
Ġcr own
Ġz eb
app ro
Ġthank ful
Ġlollip op
ĠBre nda
ĠRos ie
Ġlam bs
Ġunus ual
- (
2 30
b x
r up
Ġ %
Ġf ountain
Ġ- (
ĠJ eremy
Ġsp illed
Ġsh ift
ub lic
Ġar row
Ġ35 00
Ġmean ing
gr ay
Ġrout e
Ġtan ks
Ġellip se
Hel p
r ices
Ġt ac
Ġo bed
Ġp ipe
ĠT r
Ġg oose
Ġ2 75
im ed
ĠH ank
ĠA aron
if er
Ġthere fore
ĠE quation
Ġch op
Ġ11 3
ell ing
Ġmat rices
sh ip
Ġnove l
ĠBl ue
) )$
u nder
Ġw olf
it ive
Ġn ut
Ġse w
Ġj er
Ġpa pay
Ġ36 5
Ġim p
Ġradi o
Ġadvent ur
Ġsear ching
Ġflag s
Ġmow ing
Ġmotor cycle
Ġcos ine
c ed
f a
p en
Ġr at
Ġco pper
ass es
eng u
Ġsnow fl
ĠY our
Ġi Ph
Ġwin ter
Ġskir ts
ĠAss uming
Ġobed ient
8 9
in ess
Ġhe x
Ġst ove
ĠM ag
ĠJ oy
Ġ20 19
Ġsu per
Ġcomm ission
Ġbring ing
Ġcomput ers
Ġrepe ated
Ġinvest ment
Ġsepar ate
Ġcoll ar
Ġjack et
Ġresc ue
E quation
l ets
Ġ Yes
Ġs co
Ġs impl
Ġp ad
Ġh orn
Ġequ ipment
Ġex ter
Ġbu ses
Ġdec rease
11 1
Ġbro c
ĠJu an
Ġcharac ter
Ġhelm et
E x
L CM
i en
n et
Ġa ff
Ġto ugh
Ġe v
Ġwe ird
st al
ĠI an
Ġsm elly
Ġlo ss
hes s
av en
Ġcomp ute
Ġac orns
gr aders
Ġstrong er
Ġcomm itt
Ġjour nal
Ġgrad es
Ġmagn itude
Ġcolour ful
Ġchap ters
Ġavocad os
Ġincred ible
7 1
O ut
c ient
i ane
Ġt ile
ha m
Ġ5 50
ĠHe ight
Ġ9 99
Ġqu it
Ġpe ar
Ġag ree
Ġblue berry
Ġposs ib
Ġfollow ers
ĠCar ol
Ġatt ic
Ġkno ck
Ġproportion al
Ġcash ier
Ġhairc ut
ĠThom as
Ġfart her
Ġadventur ous
B e
i ers
Ġthe orem
Ġf an
Ġp engu
ĠT e
om b
if ting
Ġ9 60
Ġpro gr
ec ause
Ġad j
Ġte ams
Ġcho ice
Ġdro p
Ġfro zen
ĠAdd ition
Ġinv ol
Ġri pe
Ġpract icing
Ġsear ch
ĠCl ara
Ġdire ct
Ġfil m
Ġwha le
Ġclo ck
Ġimpress ed
c line
d ie
f ather
l ete
Ġ$ =
Ġm el
Ġ6 50
ĠE vent
Ġapp l
Ġsha mp
Ġla w
ib ble
Ġarr anged
Ġmill ilit
gra ph
Ġdefin ition
Ġbroc coli
+ $
8 40
M e
Ġt ied
Ġc ycle
ĠA pp
Ġbu nd
Ġbr ill
Ġres id
ĠSt at
Ġorgan iz
Ġwatermel ons
ĠMel issa
Ġtrump et
Ġliz ard
ĠEvent ually
Ġc hess
Ġ$ [
Ġ1 16
ĠL una
ĠC her
Ġdist ing
cc cc
Ġgrand father
Ġbit ter
Ġweekend s
Ġrepe ating
Ġdistrib uted
Ġcontrib ute
Ġtooth p
5 9
k ers
Ġt ap
Ġto es
Ġd izzy
Ġl icked
Ġso fa
Ġv iew
ĠB C
ch ild
14 7
ĠV er
Ġsy mb
Ġprep are
Ġhambur ger
Ġdepend able
wal k
Ġbrill iant
5 40
8 2
g or
t ies
ar i
Ġl ie
ĠW al
Ġcl ients
Ġch ores
Ġmake up
Ġamount s
Ġfr own
Ġsub jects
Ġjack ets
Ġsymb ol
A D
b l
b ra
m ile
Ġval id
ĠB rand
Ġfe es
ĠĠ Ġ
Ġpa w
Ġtest s
Ġthink ing
ĠUn cle
Ġdisting uishable
b orn
r ay
ha nd
Ġbe et
Ġpo em
Ġj ug
Ġlo aded
ab el
Ġpre fer
Ġsu itc
Ġthrough out
ines e
ĠCh inese
ier ce
Ġsound ed
Ġpati ents
Ġcocon uts
Ġhairc uts
x ts
Ġp ood
il ar
ow ed
Ġr ich
Ġsp an
Ġsp iders
ĠN em
Ġun ic
Ġsm oke
ist ed
ĠR ate
Ġte xts
Ġra ft
Ġbar rel
Ġdrink ing
Ġmush room
Ġfool ish
Ġhighlight ers
Ġshamp oo
Ġmillilit ers
ĠNem o
i xt
s ided
s mall
u ro
he art
ar ian
Ġe ast
ĠB uddy
ff le
og raph
Ġno is
200 8
Ġde b
Ġ(- \
Ġsupp ly
Ġcomm un
Ġconstru ction
Ġelev ator
ĠStep hanie
Sol ve
Ġware house
Ġsimpl est
p age
t le
Ġf re
al ous
Ġwe althy
ĠA C
ĠM ir
el ve
arm er
Ġexpress ions
Ġpu p
ĠRe my
Ġow es
Ġje alous
Ġlift ed
Ġpow der
ĠTweet ie
Ġcelebr ate
Ġspoil ed
Ġgor illa
Ġexter ior
Ġnois y
Ġp or
Ġn ail
ĠB eck
Ġpl ot
Ġcl ap
Ġsc are
Ġcook ed
Ġfact ored
ĠMon ica
Ġsen ior
Ġpops icle
ĠâĪ ļ
1 100
Ġh i
Ġh its
Ġwe ather
Ġco aster
Ġdo z
un ately
ĠC laire
Ġcha se
Ġkind ness
Ġdes c
Ġclimb ing
ĠJust in
Ġsepar ately
Ġcontrib uted
ĠSe ction
Ġfund ra
Ġchoo ses
Ġdre amed
Ġlogar ithm
Ġsurve yed
ĠBarb ara
Ġmechan ic
Ġhex agon
H e
L ila
R e
k ens
Ġc ot
Ġto kens
Ġn ames
Ġth ir
Ġ6 25
Ġdo ve
ĠG ina
Ġ13 2
az e
Ġvide os
Ġpine app
ugg led
Ġbac ter
Ġlow est
ĠJas mine
clus ion
A nd
Ġ umb
Ġw ag
Ġc au
ac ent
Ġ3 15
Ġan cient
Ġfor th
Ġco ordinate
Ġun com
ie ce
Ġcom ic
ĠK ylie
Ġspec ific
Ġ> =
ĠGr ant
Ġsharp en
Ġbelong ed
Ġcop ies
Ġbouqu et
Ġumb re
M s
ĠT am
on ze
qu ent
ĠA M
Ġsol ved
ĠD if
Ġrem ains
em ent
Ġinterse ct
ik o
Ġattend ees
Ġprep aring
Ġparr ot
Ġmagaz ine
k i
r ice
Ġto urn
il ot
Ġv ar
ro ke
Ġdon ation
Ġmet er
Ġcut ting
Ġty p
Ġbul b
Ġhundred th
ĠTyl er
Ġsuggest ed
9 7
J an
Ġwe eds
Ġpe e
Ġhar m
Ġser ious
eb ec
Ġsleep ing
Ġpull ing
Ġparr ots
Ġalb um
Ġcoco a
u le
Ġt ummy
Ġb unch
Ġ2 24
as cal
Ġin k
ĠA g
Ġnot ation
Ġop tion
Ġproper ties
Ġbak er
Ġrepe at
ĠPat rick
Ġcarp et
Ġconne ct
H ere
d om
k ip
l iter
m eter
Ġo ats
Ġg race
um bled
ĠW endy
ĠM illy
Ġman go
Ġex ams
Ġyour s
ĠAnd re
Ġthr ice
Ġsay ing
Ġra is
Ġfavor able
Ġham mer
Ġdream ing
Ġsim ilar
Ġelectric ity
Ġtro ph
- $
d ge
e er
Ġs ink
Ġo k
ĠThe se
ac ing
ĠM ill
ĠM anny
Ġse ver
Ġsc rew
Ġad vert
Ġsqu ee
irc le
Ġsw an
Ġown ed
600 00
Ġmax imize
Ġcolle ge
omm od
Ġvend or
appro x
is ses
Ġd ots
on i
ĠD iane
ure d
Ġplant ing
ph i
Ġacc ommod
la imed
ĠCh loe
Ġprin ts
Ġpost ers
}\| ^
Ġmagaz ines
Ġbatter y
ĠSand ra
Ġdolph in
Ġcot ton
S uppose
Ġw ine
Ġp ent
al ia
Ġin de
le ction
Ġfor ks
Ġshe lves
Ġas ide
ĠP ascal
ĠR alph
vent h
Ġgrand child
Ġarri ve
Ġrecomm ended
6 40
C ost
p ts
p oon
r ina
y al
Ġh ired
Ġ4 40
Ġre leased
Ġr ational
ĠL aura
if orm
Ġun iform
Ġor chard
ĠP am
ĠAn ne
Ġexc laimed
Ġcr ane
Ġsun gl
Ġreal ised
)) )
Ġinter v
Ġstick er
Ġac re
Ġjog ging
ĠPark er
Ġrefriger ator
Ġfertil izer
Ġdoz ens
Ġsungl asses
9 60
Ġ ut
Ġd ull
ac hed
il ty
ĠL ind
ĠB un
Ġpo le
Ġ16 9
25 2
16 5
Ġgu ilty
Ġpol ish
Ġbasketball s
ĠGrand pa
Ġrepe ats
Ġhipp o
Ġprogr am
M ax
W ell
n els
Ġ icy
Ġt ies
ĠT rac
ĠT ara
Ġd em
et tes
Ġv est
Ġst ub
iv ers
ĠL arry
Ġsol ving
ge bra
ĠBr itt
Ġspr ink
ĠChar les
Ġmagn et
ums y
ĠEn ter
Ġtiss ues
Ġelder ly
Ġtextbook s
Ġmultiplic ation
ĠDif ference
p here
Ġt ar
Ġ3 70
Ġre ind
Ġr ules
Ġval u
Ġfl ip
Ġfriends hip
ĠP ap
Ġstud ied
ĠJo an
Ġprobab ilities
ric ia
Ġfast est
Ġty ped
Ġkilomet er
Ġcheer ful
Ġm ice
at ch
Ġe ff
Ġhe dge
ĠS now
Ġu nd
ie ws
Ġme g
ĠD el
Ġsc rat
The y
ĠG CD
Ġlong est
Ġsal mon
Ġenjoy ing
Ġprin ter
Ġap olog
Ġarrange ments
ĠOl ivia
Ġjo kes
Ġinf in
Ġtourn ament
Ġreind eer
G ive
l i
o lyn
Ġc udd
Ġp unch
Ġm os
al ie
ĠM ath
ĠN ina
are t
Ġhapp iness
15 5
ans ion
Ġsold iers
Ġen cl
ord on
ĠJen n
ĠLe ila
Ġob ject
ĠDon na
Ġax is
Ġprep ared
Ġmist akes
scri bed
o z
r ance
s kip
re v
Ġc act
Ġto r
Ġto pp
Ġr ushed
Ġ8 10
ĠC am
Ġhar der
Ġsand cast
Ġexp ansion
Ġloud er
Ġwhe at
atur al
bo ards
app y
Th ree
Ġlaugh s
Ġmacar ons
Ġess ay
Ġviol in
Ġcommitt ee
) )^
7 9
O w
s um
Ġ est
Ġt ens
Ġa ut
Ġf enc
ha lf
Ġm op
Ġu r
Ġth read
Ġtw elve
ĠF rench
Ġlo yal
Ġpr im
Ġside walk
ĠJohn son
Ġend ing
Ġtall est
Ġref lect
Ġstret ch
Ġsaus age
Ġach ieve
Ġcous in
small skip
Ġvalu able
g all
m ond
n omes
o ber
p acks
t ains
Ġt ins
Ġg nomes
Ġhe m
qu are
Ġ12 3
Ġ$\ {
ĠF armer
Ġall oc
Ġapp et
Ġ14 6
elt a
Ġmar ch
Ġloud ly
Ġty ping
Ġincreas ing
Ġlady b
Ġreturn s
ĠBrown ie
Ġhol iday
Ġstub born
Ġcact us
n ers
Ġs ch
Ġh ive
st icks
am b
ays on
Ġch ir
ĠP e
ĠG ordon
ug ust
Ġsl ipped
Ġ11 4
ĠSam uel
Ġche f
Ġfav our
Ġju icy
align ed
Ġbun nies
Ġshort est
ĠFred dy
pro j
Ġpress ure
Ġboss y
Ġcrick et
Ġesc ape
Ġtract or
ĠJenn ifer
- (-
Ġf ed
ĠT er
ut ure
st airs
ĠM il
Ġmil d
Ġleft over
ĠR on
ĠR ow
Ġcha mp
ust ing
ĠAl an
Ġperson al
)* (
Ġfull y
Ġbel t
ative ly
ĠAngel a
Ġoutf its
A lex
E m
a pped
r ich
Ġ ÏĢ
Ġs qrt
is ter
Ġm m
id i
Ġ$\ #
Ġle an
Ġ20 18
Ġcl umsy
eg gy
Ġ14 8
Ġbow ling
Tom my
Ġinclud es
Ġsent ence
Cal culate
ĠBeck y
ebec ca
c ase
j ug
m ultiply
w ise
Ġw ake
Ġp ale
qu it
Ġ6 60
ĠC y
ĠC at
ĠC ur
co pe
Ġmin er
Ġad s
Ġover all
ĠO re
Ġlit ter
ric al
{- \
Ġcoff ees
up id
Ġfield s
ĠMic hel
Ġbal d
Ġprov ide
Ġsta ff
Ġremind ed
gall on
Ġfavour ite
d own
i ans
r ound
Ġa ction
or i
Ġn atural
Ġfri ght
12 3
Ġ200 4
ĠWhen ever
Ġclass mates
Ġcount ries
ĠSt an
Ġair port
Ġpar ade
fort unately
ĠVal ue
Ġcroiss ants
Ġterri ble
gor ithm
Ġsever al
u ing
Ġs le
Ġw ages
ow ers
00 00
ĠA ugust
ĠB arry
ro ll
Ġsp un
Ġqu ant
ĠR h
Ġ11 1
Ġ200 2
Ġthought ful
Ġgas ped
Ġsequ ins
Ġsy rup
Ġdep th
valu ating
Ġax e
ĠCha nd
ĠAnt on
Ġdownlo ad
Ġmilksha kes
Ġo t
Ġf iles
Ġf ierce
Ġwe bs
um ent
ri end
ĠB ert
ĠN ick
Ġplay ful
Ġsh ove
Ġlo c
ke ep
irst y
Ġcon jug
Ġsl iced
(- \
Ġcalcul ator
19 2
Ġde af
Ġent rance
Ġplan et
Ġbright ly
Ġneighb ors
Ġdaught ers
Ġpan els
Ġmater ials
ĠCase y
Ġpir ates
Ġdelight ed
Ġded uct
Ġadj acent
Ġpor ch
f act
i ot
p o
re al
Ġd ug
Ġis os
Ġ5 25
ce les
ia ble
Ġlo cked
12 50
Ġar c
Ġad vice
ĠK ing
Ġgra bs
Ġclos est
Ġexplore d
fl av
Ġrel iable
38 4
Ġnon zero
Ġboun cy
Ġrub bed
Ġcarp ets
Ġadop ted
Ġparticip ants
Ġnos y
Ġcommun ity
Ġmos quit
Ġisos celes
h o
i us
ĠI v
Ġr aced
ch oose
Ġpo ll
art ing
Ġpr ote
ĠIn c
Ġcol umn
Ġcomp ass
Ġexcited ly
)* $
Åĵ Let
Ġlisten ing
Ġneighb our
Ġinverse ly
Ġlip stick
Ġallig ators
e ction
Ġa head
in c
Ġl umber
ic tion
Ġst upid
}{ }
Ġtr ick
Ġ14 5
Ġfin ishes
13 2
Ġcho ir
Ġresp ons
Ġvac c
Ġinvest ed
Ġport ra
Ġstat ues
Ġwip ed
Ġath lete
Ġaccept ed
Ġdam aged
Ġpapay as
keep er
$ $
y n
Ġs acks
Ġf ishes
Ġp it
Ġ+ +
ĠL au
Ġk icked
Ġsp it
Ġ9 000
Ġsh one
Ġ& &
Ġ200 00
200 2
Ġmar ried
cl ub
oom y
Ġadm ired
Ġexper ience
ĠEric a
Ġtopp ings
/ $
S ee
f unc
r s
Ġh ike
Ġ3 25
ig ail
Ġ12 50
Ġ20 20
ars hip
op us
ist ent
Ġz ip
Ġim age
Ġpaper cl
Ġent ered
Ġele ment
Ġcard board
Ġdelic ate
Ġphot o
Ġassign ment
Ġfright ened
Ġpapercl ips
6 50
E very
G CD
d a
i pper
u a
} )$
} )(
Ġw itch
Ġo ak
Ġc ush
ed ing
Ġp ublic
Ġl icks
Ġ5 20
Ġco ach
ĠF er
impl ies
}$ $
Ġcomp on
Ġclim bs
ĠCar ter
Ġbar ber
Ġtell ing
Ġduck lings
Ġpeb ble
Ġteach ing
Ġsneak ers
Ġoct opus
Ġwhisper ed
Ġfundra iser
Ġbacter ia
rev or
Ġsch ol
3 40
D E
p are
t ab
Ġc able
Ġm aze
an es
le en
Ġfor k
ant e
ind rom
ind rical
ĠD ay
ts ize
ess a
Ġ19 6
Ġrec yc
Ġquad r
ĠCon nor
Ġrac ers
fifth s
Ġrese ar
ĠMag gie
Ġpossib ilities
tab ular
i eta
l vet
it ter
Ġn ature
Ġha n
ĠS ant
st ore
ro be
Ġint rod
Ġsqu at
Ġold est
Ġbird house
Ġdist ances
ĠSam ant
Ġsw itch
Ġpay ments
Ġve lvet
ĠLuc as
Ġcompl ain
Ġsatisf ied
Ġperf ume
Ġcyl indrical
Ġabs ent
ĠUn fortunately
Ġhang ers
Ġwarn ed
Ġpige on
che ck
) }{\
M ic
s ize
Ġl att
ĠS k
ĠS ean
Ġ3 10
Ġon ion
Ġst umbled
Ġr ush
ĠW here
Ġcan oes
Ġk nown
Ġse al
han ge
co d
Ġsol id
ĠP enny
ĠK ath
Ġ200 5
Ġcare less
Ġfr ag
Ġstr anger
az z
Ġser ves
ĠCar ly
Ġgold en
Ġ[ (
Ġtra pe
Ġord inary
Ġear l
Ġobt ain
pers on
Ġsna il
) }\
2 200
h ony
} )$.
Ġ ig
he ls
Ġp ins
Ġp ilot
ĠM imi
Ġ7 80
el ery
Ġle ash
Ġj ail
orm ous
ff s
Ġen ormous
Ġsk elet
Ġgl ove
Ġbus hels
ĠSt acy
Ġmod ern
ĠZ oe
Ġdanc er
iff any
fourth s
Ġactiv ities
Ġprincip le
Ġsnowfl akes
ĠMill ie
ĠPap a
Ġsle pt
Ġot ter
) \]
@ {
A m
P a
a ult
Ġ2 12
Ġsa f
ĠA ny
ĠA ustin
se l
ur y
Ġsc at
Ġsc ient
Ġpa ws
Ġ13 8
Ġ200 7
Ġ45 00
Ġvol umes
Ġmod ular
Ġass uming
har d
Ġmail box
Ġcro cod
Ġshad ow
Ġconjug ate
0 2
D iamond
c ream
d iamond
Ġm aster
an n
Ġn one
Ġ2 90
Ġr ug
Ġr aces
Ġth irsty
am in
ree k
ĠD iana
Ġcar ri
Ġtr ade
ĠG B
Ġ200 6
Ġve il
Ġblo om
log ram
Ġtax i
Ġlas er
Ġparalle logram
Ġfif teen
Ġcompass ion
@{ }
Ġg ain
Ġ3 200
Ġr ack
Ġk e
un te
el a
Ġun pack
ĠD en
Ġpr ism
Ġ18 5
Ġbre at
ond a
Ġpre c
Ġdis g
Ġvol unte
Ġbeaut y
Ġfall en
Ġsub se
)! }
Ġpepper oni
Ġflav ors
Ġcabin et
Ġdecreas ed
Ġkangar oo
flav ored
m l
Ġw ishes
Ġf uture
Ġ3 90
Ġfor t
ĠH ere
ĠL inda
ĠN ote
Ġcl ient
ick ers
Ġ16 000
Ġtr icks
)^ {-
ĠMar cy
Ġfro sting
Ġpop ular
Ġste al
Ġrep airs
Ġorgan ize
Ġoffer ing
Ġsepar ated
Ġsteak s
Ġimag ined
Ġ... ,
ĠSe cond
Ġnor th
Ġsaus ages
ĠBu zz
Ġenc our
Ġlapt op
ĠCur rent
' ve
s ses
Ġa w
Ġm ention
Ġre co
Ġ6 80
Ġal t
Ġal gorithm
Ġqu izz
ĠR ebecca
Ġsl ides
24 8
Ġdr ain
}} .\]
Ġchar ming
Ġsn iff
Ġspl its
Ġgift ed
Ġband ages
Ġsil k
ĠBe at
Ġoper a
}_ {\
Ġsett ings
Ġcommerc ials
) }$
1 14
6 9
B illy
g art
| $
Ġs orts
Ġd ent
Ġd ust
an ola
Ġl ed
Ġl ic
ĠS asha
Ġth umb
ĠM P
ag ram
ers on
ĠE ls
Ġqu ite
au c
inder gart
Ġcons isting
Ġclean er
Ġde vel
ather ine
Ġbar ks
bo ld
Ġfig ur
Ġhum ble
Ġalb ums
ĠMarg aret
Ġpood le
club suit
Ġfrag ile
Ġearl ier
Ġquizz es
f fer
h ill
Ġs ons
Ġw ig
Ġf ail
im s
ic op
Ġ5 60
Ġk ern
Ġj et
12 4
100 1
Ġbr onze
Ġhel icop
Ġbox c
ug ged
omet er
Ġwork er
Ġcre ams
Ġcre atures
Ġfle x
Åĵ Yes
Ġpar ked
aur ice
Ġref used
Ġrh in
Ġstret ched
Ġbub ble
Ġmas ks
Ġleop ards
Ġfenc ing
A M
Ġt agged
re en
Ġf auc
Ġc elery
Ġto ur
Ġp anda
ĠT iffany
Ġv et
Ġher o
Ġ6 30
Ġequ ate
ĠJ ud
ct ober
Ġsh ot
20 10
!" .
Ġus ually
Ġnew s
Ġ25 2
Ġtr ic
Ġ11 8
200 7
Ġsal on
Ġ19 8
Ġfactor ing
ĠCal vin
sp ades
Ġpal indrom
ĠAnt hony
Ġdestro yed
ĠiPh one
Ġumbre lla
Ġpee ked
Ġs ubstitut
re ci
or ant
Ġl ays
as hes
Ġco b
ul u
Ġper s
el ets
Ġcirc ular
Ġnice ly
Ġbo oth
Ġfinish ing
ĠBr uce
bo at
Ġrel atively
xy gen
ĠMic key
Ġveget able
fort able
Ġattend ing
arc sin
Ġbund les
Ġuncom fortable
Ġgrace ful
Ġgrandchild ren
Ġest im
Ġtrape z
Ġlic ense
1 90
5 76
C ircle
J ane
a inder
i ors
u fact
Ġs ou
Ġo at
Ġb rand
Ġ2 35
Ġin scribed
Ġth ief
Ġ10 50
ĠE aster
Ġint ell
ĠIn st
Ġsl id
Ġpack ing
Ġcomp are
Ġpain ter
ĠO ctober
Ġproud ly
Ġhair y
Ġbright er
Ġref lection
Ġed ges
Ġant ac
ĠJess ie
Ġhur ry
Ġexerc ised
Ġkangar oos
Ġtroph y
Ġmeg abytes
diamond suit
Ġreco gn
Ġtrapez oid
Ġintell ig
u gs
nd an
Ġh ut
Ġbe g
ce pts
Ġcan cel
ĠM al
ĠB ird
Ġsh ut
Ġpr ices
}$ :
ĠP eggy
15 000
Ġany where
ect ive
ĠO rigin
Ġspe ak
Ġdri ven
bab ility
ĠV ieta
ĠMar c
gr ade
Ġopen ing
Ġpast ries
Ġspark led
Ġrot ten
do ll
Ar rows
Ġom elets
Ġvolcan oes
ĠHel en
Ġcheesec akes
ĠRic hard
Jim my
ĠBry an
Ġtor n
Ġcrocod ile
