{"<pad>":0,"<unk>":1,"<bos>":2,"<eos>":3,"!":4,"\"":5,"#":6,"$":7,"%":8,"&":9,"'":10,"(":11,")":12,"*":13,"+":14,",":15,"-":16,".":17,"/":18,"0":19,"1":20,"2":21,"3":22,"4":23,"5":24,"6":25,"7":26,"8":27,"9":28,":":29,";":30,"<":31,"=":32,">":33,"?":34,"@":35,"A":36,"B":37,"C":38,"D":39,"E":40,"F":41,"G":42,"H":43,"I":44,"J":45,"K":46,"L":47,"M":48,"N":49,"O":50,"P":51,"Q":52,"R":53,"S":54,"T":55,"U":56,"V":57,"W":58,"X":59,"Y":60,"Z":61,"[":62,"\\":63,"]":64,"^":65,"_":66,"`":67,"a":68,"b":69,"c":70,"d":71,"e":72,"f":73,"g":74,"h":75,"i":76,"j":77,"k":78,"l":79,"m":80,"n":81,"o":82,"p":83,"q":84,"r":85,"s":86,"t":87,"u":88,"v":89,"w":90,"x":91,"y":92,"z":93,"{":94,"|":95,"}":96,"~":97,"¡":98,"¢":99,"£":100,"¤":101,"¥":102,"¦":103,"§":104,"¨":105,"©":106,"ª":107,"«":108,"¬":109,"®":110,"¯":111,"°":112,"±":113,"²":114,"³":115,"´":116,"µ":117,"¶":118,"·":119,"¸":120,"¹":121,"º":122,"»":123,"¼":124,"½":125,"¾":126,"¿":127,"À":128,"Á":129,"Â":130,"Ã":131,"Ä":132,"Å":133,"Æ":134,"Ç":135,"È":136,"É":137,"Ê":138,"Ë":139,"Ì":140,"Í":141,"Î":142,"Ï":143,"Ð":144,"Ñ":145,"Ò":146,"Ó":147,"Ô":148,"Õ":149,"Ö":150,"×":151,"Ø":152,"Ù":153,"Ú":154,"Û":155,"Ü":156,"Ý":157,"Þ":158,"ß":159,"à":160,"á":161,"â":162,"ã":163,"ä":164,"å":165,"æ":166,"ç":167,"è":168,"é":169,"ê":170,"ë":171,"ì":172,"í":173,"î":174,"ï":175,"ð":176,"ñ":177,"ò":178,"ó":179,"ô":180,"õ":181,"ö":182,"÷":183,"ø":184,"ù":185,"ú":186,"û":187,"ü":188,"ý":189,"þ":190,"ÿ":191,"Ā":192,"ā":193,"Ă":194,"ă":195,"Ą":196,"ą":197,"Ć":198,"ć":199,"Ĉ":200,"ĉ":201,"Ċ":202,"ċ":203,"Č":204,"č":205,"Ď":206,"ď":207,"Đ":208,"đ":209,"Ē":210,"ē":211,"Ĕ":212,"ĕ":213,"Ė":214,"ė":215,"Ę":216,"ę":217,"Ě":218,"ě":219,"Ĝ":220,"ĝ":221,"Ğ":222,"ğ":223,"Ġ":224,"ġ":225,"Ģ":226,"ģ":227,"Ĥ":228,"ĥ":229,"Ħ":230,"ħ":231,"Ĩ":232,"ĩ":233,"Ī":234,"ī":235,"Ĭ":236,"ĭ":237,"Į":238,"į":239,"İ":240,"ı":241,"Ĳ":242,"ĳ":243,"Ĵ":244,"ĵ":245,"Ķ":246,"ķ":247,"ĸ":248,"Ĺ":249,"ĺ":250,"Ļ":251,"ļ":252,"Ľ":253,"ľ":254,"Ŀ":255,"ŀ":256,"Ł":257,"ł":258,"Ń":259,"he":260,"Ġt":261,"Ġa":262,"Ġs":263,"Ġw":264,"nd":265,"Ġthe":266,"ed":267,"Ġand":268,"Ġto":269,"Ġb":270,"in":271,"Ġh":272,"Ġwa":273,"re":274,"ou":275,"Ġf":276,"it":277,"Ġl":278,"Ġc":279,"Ġd":280,"er":281,"Ġhe":282,"Ġm":283,"Ġp":284,"Ġwas":285,"om":286,"ĠT":287,"Ġo":288,"ay":289,"ar":290,"is":291,"ing":292,"il":293,"Ġg":294,"id":295,"at":296,"en":297,"Ġn":298,"Ġsa":299,"Ġha":300,"ĠS":301,"ĠThe":302,"an":303,"im":304,"or":305,"on":306,"Ġit":307,"Ġth":308,"ll":309,"le":310,"ĠH":311,"Ġher":312,"ot":313,"et":314,"ir":315,"ĠShe":316,"es":317,"ĠHe":318,"Ġin":319,"ver":320,"ut":321,"ow":322,"ĠThey":323,"ck":324,"Ġe":325,"Ġu":326,"ld":327,"Ġy":328,"oo":329,"Ġsaid":330,"ig":331,"ily":332,"Ġ\"":333,"Ġr":334,"Ġbe":335,"am":336,"Ġst":337,"ĠI":338,"ce":339,"ke":340,"Ġshe":341,"ve":342,"pp":343,"ith":344,"Ġwith":345,"Lily":346,"On":347,"Ġon":348,"Ġyou":349,"Ġof":350,"ked":351,"ri":352,"Ġso":353,"nt":354,"Ġhis":355,"Ġpl":356,"ad":357,"very":358,"Ġday":359,"Ġthat":360,"Ġup":361,"Ġplay":362,"Ġhad":363,"st":364,"Ġthey":365,"Ġwe":366,"ĠLily":367,"Ġmom":368,"Ġfor":369,"ĠB":370,"el":371,"un":372,"ould":373,"'s":374,"my":375,"The":376,"Ġli":377,"ch":378,"ent":379,"Ġhapp":380,"Ġwant":381,"itt":382,"Ġsh":383,"out":384,"her":385,"Ġdo":386,"ly":387,"Ġnot":388,"ome":389,"se":390,"Ġvery":391,"ound":392,"end":393,"all":394,"Ġwh":395,"ime":396,"ittle":397,"Ġk":398,"Ġtime":399,"Ġlittle":400,"al":401,"ĠĊ":402,"Ġthere":403,"Ġne":404,"ht":405,"ĠM":406,"Ġre":407,"Ġhappy":408,"Ġsm":409,"Ġbig":410,"Ġis":411,"ĠIt":412,"Ġbut":413,"ack":414,"Ġan":415,"Ġsaw":416,"riend":417,"Ġfriend":418,".\"":419,"Ġas":420,"ry":421,"ra":422,"One":423,"ide":424,"ake":425,"'t":426,"!\"":427,"ug":428,"Ġloo":429,"ved":430,"ter":431,"Ġwere":432,"ore":433,"Once":434,"Ġlo":435,"ec":436,"Ġhim":437,"Ġtoo":438,"Ġgo":439,"Ġbo":440,"Ġse":441,"irl":442,"Ġare":443,"Ġj":444,"ĠTim":445,"ard":446,"Ġwanted":447,"ill":448,"Ġgirl":449,"Ġupon":450,"Ġout":451,"Ġthem":452,"Ġat":453,"ur":454,"ind":455,"Ġtheir":456,"fu":457,"Ġsp":458,"way":459,"ĠA":460,"Ġsmil":461,"Ġdid":462,"Ġcould":463,"hen":464,"Ġhave":465,"ain":466,"art":467,"Ġex":468,"hed":469,"rom":470,"Ġwent":471,"Ġar":472,"ic":473,"Ġcan":474,"ĠJ":475,"lp":476,"ful":477,"ĠBen":478,"ood":479,"?\"":480,"hing":481,"Ġfriends":482,"Ġnam":483,"ight":484,"Ġall":485,"Ġhelp":486,"Ġkn":487,"um":488,"one":489,"ark":490,"Ġback":491,"Ġsay":492,"You":493,"Ġfun":494,"Ġcl":495,"ĠTom":496,"are":497,"Ġno":498,"Ġle":499,"op":500,"Ġsmiled":501,"Ġsc":502,"Ġnamed":503,"Ġal":504,"oug":505,"Ġloved":506,"side":507,"elt":508,"ĠOne":509,"Ġman":510,"Ġasked":511,"ick":512,"Ġtoy":513,"Ġlike":514,"Ġfe":515,"Ġfelt":516,"Ġlooked":517,"Ġsome":518,"Ġaround":519,"Ġsee":520,"Ġme":521,"ame":522,"omet":523,"ĠW":524,"Ġro":525,"Ġbr":526,"ure":527,"ĠTimmy":528,"Ġbir":529,"get":530,"ice":531,"Ġboy":532,"Ġwould":533,"Ġstart":534,"ong":535,"Ã¢":536,"âĤ":537,"âĤ¬":538,"ss":539,"Ġbird":540,"Ġsomet":541,"Ġfa":542,"dd":543,"ings":544,"Ġag":545,"Ġwor":546,"Ġwhat":547,"ade":548,"Ġmake":549,"king":550,",\"":551,"ie":552,"ĠBut":553,"own":554,"Ġtre":555,"Ġran":556,"gether":557,"ĠYou":558,"Ġaway":559,"ag":560,"ared":561,"Ġsays":562,"Ġstarted":563,"oud":564,"if":565,"Ġmade":566,"Ġcar":567,"Ġsomething":568,"Ġtogether":569,"ited":570,"ther":571,"Ġpark":572,"Ġco":573,"Ġsad":574,"Ġother":575,"Ġnew":576,"Ġexc":577,"Ġput":578,"Ġfrom":579,"Ġpr":580,"ell":581,"ĠL":582,"Ġla":583,"Ġhug":584,"ble":585,"Ġmu":586,"ook":587,"ach":588,"Ġagain":589,"Ġhome":590,"Ġwhen":591,"Ġgood":592,"ep":593,"hat":594,"Ġwho":595,"est":596,"ried":597,"Ġfound":598,"Ġfl":599,"Ġthen":600,"Ġch":601,"Ġdec":602,"pped":603,"Ġwal":604,"as":605,"Ġget":606,"qu":607,"Ġplaying":608,"ought":609,"pl":610,"ĠE":611,"ally":612,"Ġsw":613,"ous":614,"nn":615,"Ġthings":616,"Ġexcited":617,"Ġliked":618,"Ġgot":619,"uck":620,"ro":621,"ided":622,"Ġdecided":623,"Ġbl":624,"ave":625,"Ġcame":626,"Ġevery":627,"ara":628,"ĠD":629,"Ġyour":630,"ĠMom":631,"ax":632,"Ġv":633,"Ġscared":634,"ust":635,"Ġone":636,"Ġdog":637,"Ġdown":638,"ny":639,"ouse":640,"Ġfind":641,"Ġcare":642,"Ġbec":643,"ist":644,"Ġthan":645,"Ġfeel":646,"ap":647,"ue":648,"udd":649,"nna":650,"Ġdad":651,"Ġab":652,"They":653,"Ġmy":654,"Ġlook":655,"Ġke":656,"our":657,"Ġwill":658,"arn":659,"Ġgr":660,"us":661,"nder":662,"Ġgra":663,"ways":664,"ess":665,"Ġdidn":666,"Ġpo":667,"fe":668,"Ġalways":669,"Ġtook":670,"Ġabout":671,"ant":672,"bb":673,"Ġmommy":674,"Ġlot":675,"Ġkne":676,"Ġtoys":677,"ers":678,"ise":679,"Ġoutside":680,"ite":681,"Ġtree":682,"Ġthought":683,"Ġball":684,"ĠF":685,"Ġmore":686,"eci":687,"ĠSam":688,"ened":689,"ched":690,"Ġta":691,"Ġold":692,"Ġho":693,"Ġlearn":694,"ret":695,"Ġint":696,"ged":697,"Ġknow":698,"Ġlaug":699,"Ġtake":700,"ecial":701,"Ġspecial":702,"Ġsor":703,"udden":704,"Ġcat":705,"Ġknew":706,"ĠMax":707,"ive":708,"Ġpe":709,"ia":710,"uddenly":711,"Ġany":712,"Ġtr":713,"fter":714,"Ġhow":715,"ma":716,"Ġshow":717,"ink":718,"Ġsorry":719,"Ġtw":720,"But":721,"Ġmuch":722,"au":723,"ish":724,"Ġrun":725,"and":726,"Ġhand":727,"Ġsl":728,"ven":729,"Ġhouse":730,"Ġor":731,"Ġop":732,"Ġsk":733,"Ġmo":734,"Ġclo":735,"Ġsun":736,"Ġinto":737,"Ġtried":738,"Ġinside":739,"ate":740,"Ġtold":741,"Ġwater":742,"Ġen":743,"Ġthis":744,"ank":745,"Ġif":746,"ump":747,"Ġproud":748,"Ġqu":749,"Ġover":750,"Ġcouldn":751,"Tom":752,"dy":753,"Ġgave":754,"Ġheard":755,"ĠSara":756,"Ġnever":757,"by":758,"Ġeach":759,"ace":760,"Ġroom":761,"ty":762,"ĠEvery":763,"Ġexpl":764,"Ġeat":765,"other":766,"ĠWe":767,"ause":768,"Ġpick":769,"ion":770,"Ġpret":771,"ĠAnna":772,"Ġplayed":773,"Mom":774,"ge":775,"etter":776,"Ġjust":777,"ak":778,"Ġhugged":779,"Ġgre":780,"here":781,"Ġoff":782,"Ġcom":783,"Ġwat":784,"oth":785,"Ġbox":786,"Ġnice":787,"'m":788,"Ġbecause":789,"Ġstr":790,"Ġneed":791,"ile":792,"Ġmany":793,"Ġfo":794,"uc":795,"Ġjo":796,"Ġbear":797,"Ġsmall":798,"iz":799,"Ġbu":800,"Ġlong":801,"ving":802,"ine":803,"gry":804,"ort":805,"imal":806,"Ġanimal":807,"Ġsn":808,"ough":809,"Ġtry":810,"Ġunt":811,"ild":812,"sel":813,"urt":814,"Ġuntil":815,"ĠJack":816,"sed":817,"Ġkind":818,"Ġlearned":819,"Ġim":820,"Ġlove":821,"Ġbetter":822,"ft":823,"Ġflow":824,"Ġcall":825,"ĠJo":826,"He":827,"Ġdon":828,"Ġend":829,"Ġad":830,"ull":831,"Ġbest":832,"vent":833,"Yes":834,"ars":835,"urp":836,"ady":837,"em":838,"ream":839,"aut":840,"urn":841,"Ġcle":842,"ĠMia":843,"ĠAnd":844,"ves":845,"Åĵ":846,"arden":847,"ĠC":848,"Ġgarden":849,"Ġfast":850,"ber":851,"Ġcareful":852,"Ġbeaut":853,"lly":854,"Th":855,"Ġeven":856,"pt":857,"Ġbra":858,"ies":859,"Ġthanked":860,"ĠSo":861,"Ġfi":862,"Ġche":863,"Ġlaughed":864,"Ġsky":865,"Ġby":866,"It":867,"ĠHer":868,"Ġjump":869,"Ġgl":870,"ase":871,"Ġte":872,"Ġloud":873,"self":874,"iny":875,"Ġway":876,"wn":877,"Ġbeauti":878,"Ġcome":879,"lew":880,"Ġlist":881,"Ġbeautiful":882,"Ġwo":883,"Ġhard":884,"Ġlots":885,"Ġra":886,"Ġstill":887,"Ġfam":888,"Ġanimals":889,"ĠÃ¢":890,"Ġhurt":891,"Ġunder":892,"ĠThen":893,"ect":894,"Ġstay":895,"ning":896,"Ġlet":897,"ct":898,"Ġboth":899,"Ġcu":900,"ĠHis":901,"hes":902,"be":903,"Ġsafe":904,"ĠFrom":905,"ool":906,"ree":907,"Ġcol":908,"Ġtwo":909,"Ġbad":910,"Ġimp":911,"ople":912,"Ġbook":913,"Ġrem":914,"ane":915,"Ġlived":916,"kay":917,"ock":918,"ucy":919,"Ġwalked":920,"Tim":921,"ast":922,"urpr":923,"Ġbrave":924,"Ġshould":925,"Ġits":926,"ob":927,"ished":928,"Ġsurpr":929,"Ġangry":930,"Ġfamily":931,"ress":932,"igh":933,"When":934,"Ġpeople":935,"Ġflew":936,"Ġcalled":937,"No":938,"Ġred":939,"Ġstor":940,"ip":941,"Ġfin":942,"Ġsoon":943,"hn":944,"Let":945,"led":946,"Ġkept":947,"Ġfore":948,"fore":949,"Ġdan":950,"Ġshare":951,"Ġfly":952,"xt":953,"ised":954,"dded":955,"Ġpic":956,"âĤ¬â":957,"Ġdoor":958,"Ġgoing":959,"ĠP":960,"ĠWhen":961,"Ġpretty":962,"Ġkeep":963,"Ġclean":964,"Ġrock":965,"Ġnow":966,"Ġdra":967,"Ġadvent":968,"ary":969,"ummy":970,"Ġnoise":971,"Ġopened":972,"Ġshiny":973,"age":974,"Ġexplore":975,"Ġwind":976,"Ġdoll":977,"Ġcon":978,"Ġcry":979,"Ġide":980,"Ġbefore":981,"ied":982,"illy":983,"Ben":984,"Ġreal":985,"Ġsto":986,"so":987,"What":988,"Ġground":989,"Ġalso":990,"les":991,"Ġturn":992,"Ħ¢":993,"âĤ¬âĦ¢":994,"Ġey":995,"That":996,"Ġfar":997,"Ġidea":998,"Ġfr":999,"oon":1000,"Ġnodded":1001,"Ġcolor":1002,"Ġwar":1003,"oy":1004,"Ġfeeling":1005,"Ġpicked":1006,"Ġun":1007,"imb":1008,"th":1009,"Ġwalking":1010,"ĠLucy":1011,"Ġnext":1012,"thing":1013,"ture":1014,"ĠDad":1015,"Ġclimb":1016,"Ġhas":1017,"uch":1018,"Ġma":1019,"Ġthr":1020,"Ġwhile":1021,"eet":1022,"Ġbed":1023,"Ġadventure":1024,"Ġsmile":1025,"kes":1026,"aybe":1027,"Thank":1028,"iced":1029,"ger":1030,"ious":1031,"Ġbeing":1032,"ĠG":1033,"Ġdif":1034,"Ġwr":1035,"Ġclos":1036,"Ġfood":1037,"joy":1038,"ted":1039,"Ġgive":1040,"Ġpicture":1041,"Ġthink":1042,"ĠSp":1043,"Ġlooking":1044,"Ġdel":1045,"ff":1046,"ac":1047,"Ġwait":1048,"Ġtruck":1049,"ught":1050,"Ġeyes":1051,"Ġtow":1052,"ting":1053,"Ġrepl":1054,"Ġbro":1055,"Ġstopped":1056,"Ġlisten":1057,"Ġafter":1058,"Ġbre":1059,"Ġown":1060,"Ġvo":1061,"Ġwalk":1062,"ember":1063,"ĠSuddenly":1064,"Ġgreat":1065,"Ġwonder":1066,"Ġhands":1067,"Suddenly":1068,"Ġshout":1069,"Ġhead":1070,"Ġenjoy":1071,"Ġimport":1072,"Ġever":1073,"Ġflowers":1074,"Ġforest":1075,"bbit":1076,"Ġnoticed":1077,"Ġblue":1078,"ized":1079,"She":1080,"Ġapp":1081,"Ġquick":1082,"Ġdis":1083,"Ġnear":1084,"irst":1085,"Ġde":1086,"Ġimportant":1087,"able":1088,"Ġremember":1089,"Ġfish":1090,"llow":1091,"Ġsound":1092,"Ġslide":1093,"maz":1094,"Ġus":1095,"Ġreplied":1096,"Ġac":1097,"Ġamaz":1098,"Ġwork":1099,"lease":1100,"Ġrain":1101,"Ġwatch":1102,"Ġshowed":1103,"Ġrabbit":1104,"gan":1105,"Ġokay":1106,"Ġtal":1107,"bye":1108,"fere":1109,"bbed":1110,"Ġdiffere":1111,"Ġask":1112,"Ġmean":1113,"Ġright":1114,"Ġye":1115,"day":1116,"Ġwatched":1117,"Ġbright":1118,"Ġfollow":1119,"So":1120,"We":1121,"ĠSpot":1122,"Ġeveryone":1123,"Ġstrong":1124,"Ġsqu":1125,"Ġstick":1126,"Ġbeen":1127,"Ġuse":1128,"Ġmor":1129,"Ġvoice":1130,"Ġtra":1131,"ered":1132,"Ġquickly":1133,"ath":1134,"Ġwhere":1135,"Ġour":1136,"Ġyell":1137,"ĠN":1138,"ĠMommy":1139,"Anna":1140,"Ġdifferent":1141,"ĠBob":1142,"Ġchild":1143,"Ġboat":1144,"ng":1145,"Ġcuri":1146,"Ġsure":1147,"ĠSue":1148,"Ġbecame":1149,"Ġgoodbye":1150,"Ġface":1151,"Ġplace":1152,"ange":1153,"Ġhop":1154,"Ġhigh":1155,"aught":1156,"Ġam":1157,"ĠR":1158,"Look":1159,"Ġstore":1160,"Ġcloser":1161,"Ġwarm":1162,"Ġcr":1163,"Ġdoes":1164,"Ġdress":1165,"unny":1166,"Sara":1167,"Ġmag":1168,"Ġcurious":1169,"ila":1170,"Jo":1171,"Ġcook":1172,"Ġforg":1173,"Ġbel":1174,"Ġtell":1175,"Ġfav":1176,"ndma":1177,"ass":1178,"ount":1179,"co":1180,"Ġthree":1181,"leep":1182,"Ġnight":1183,"Ġopen":1184,"Ġcake":1185,"more":1186,"Ġanymore":1187,"Ġhere":1188,"Ġblock":1189,"Ġbus":1190,"Ġfirst":1191,"itc":1192,"Ġpull":1193,"iss":1194,"ached":1195,"Her":1196,"ired":1197,"Ġbutter":1198,"Ġz":1199,"imes":1200,"ĠTh":1201,"orn":1202,"Ġsweet":1203,"Ġpain":1204,"Ġgrabbed":1205,"Ġkid":1206,"Ġpu":1207,"Can":1208,"isy":1209,"Ġonly":1210,"Ġmon":1211,"Ġlea":1212,"Ġfell":1213,"Ġba":1214,"Ġru":1215,"Ġcont":1216,"Ġbirds":1217,"Ġjumped":1218,"Ġglad":1219,"Ġbit":1220,"Ġsand":1221,"itchen":1222,"Ġkitchen":1223,"Ġhelped":1224,"Ġsees":1225,"Ġper":1226,"Ġfire":1227,"Ġflo":1228,"Ġstop":1229,"ĠSarah":1230,"Ġhappened":1231,"Ġsing":1232,"Ġgrass":1233,"Ġbunny":1234,"Ġshouted":1235,"Ġstory":1236,"Ġtri":1237,"nts":1238,"ĠLet":1239,"Ġdr":1240,"After":1241,"air":1242,"ĠJane":1243,"ppy":1244,"Ġreached":1245,"Ġbeh":1246,"Ġrealized":1247,"Ġyummy":1248,"Ġbrother":1249,"ĠDo":1250,"Ġlady":1251,"Ġmum":1252,"Ġhaving":1253,"Ġprin":1254,"Ġfavor":1255,"ĠAs":1256,"ins":1257,"'re":1258,"Ġmess":1259,"Ġfavorite":1260,"Ġrest":1261,"Ġcre":1262,"Ġdraw":1263,"Ġthrough":1264,"Ġate":1265,"Ġgame":1266,"Ġhat":1267,"Ġless":1268,"Ġunderst":1269,"ĠEveryone":1270,"akes":1271,"Ġsoft":1272,"zy":1273,"Ġpare":1274,"Ġthing":1275,"Ġreally":1276,"ather":1277,"Ġready":1278,"Mommy":1279,"Ġbegan":1280,"where":1281,"Ġpretend":1282,"Ġworld":1283,"ĠCan":1284,"ĠJoe":1285,"ĠThat":1286,"Ġlooks":1287,"Ġhimself":1288,"ken":1289,"fully":1290,"Ġmagic":1291,"Ġpap":1292,"Ġdone":1293,"Ġbutterf":1294,"Ġmaking":1295,"Ġcut":1296,"Ġcoming":1297,"ater":1298,"Ġduck":1299,"Ġpond":1300,"Ġkids":1301,"Ġwaved":1302,"Ġwhy":1303,"Ġtired":1304,"Ġfro":1305,"Ġprom":1306,"Ġfix":1307,"olly":1308,"ster":1309,"Ġworry":1310,"Ġmouse":1311,"Ġpart":1312,"Ġste":1313,"Ġcars":1314,"Ġdelic":1315,"Ġflower":1316,"Ġname":1317,"ign":1318,"Ġfill":1319,"aisy":1320,"Wow":1321,"Ġtouch":1322,"eddy":1323,"Ġfunny":1324,"Ġcatch":1325,"sh":1326,"bo":1327,"Ġused":1328,"Ġseen":1329,"Ġhair":1330,"ĠJohn":1331,"Ġtast":1332,"ient":1333,"Ġtop":1334,"rel":1335,"Ġparents":1336,"Ġanother":1337,"iver":1338,"Ġhopped":1339,"uff":1340,"Ġcried":1341,"Ġhold":1342,"oney":1343,"mer":1344,"Ġcool":1345,"Ġdoing":1346,"Ġblocks":1347,"\".":1348,"hy":1349,"Ġpus":1350,"Ġsurprise":1351,"Ġlight":1352,"Ġgreen":1353,"As":1354,"Ġthank":1355,"Ġlesson":1356,"Timmy":1357,"ation":1358,"Ġread":1359,"Ġdin":1360,"Ġfloor":1361,"Ġfull":1362,"Ġwood":1363,"Ġgi":1364,"Don":1365,"Ġdri":1366,"ards":1367,"Ġtrees":1368,"Ġrunning":1369,"Ġworked":1370,"Ġwindow":1371,"Ġyears":1372,"Ġcra":1373,"Ġdro":1374,"Ġdark":1375,"Ġ-":1376,"Ġbehind":1377,"Ġspot":1378,"Ġsmell":1379,"Ġlikes":1380,"Ġwished":1381,"Ġpaper":1382,"ued":1383,"Ġyellow":1384,"andy":1385,"ren":1386,"Ġbow":1387,"ul":1388,"John":1389,"Ġswim":1390,"Ġhappily":1391,"Ġsat":1392,"Ġbag":1393,"Ġsho":1394,"Sam":1395,"Ġsleep":1396,"aring":1397,"Ġsurprised":1398,"ely":1399,"Ġfrog":1400,"Ġbutterfly":1401,"ike":1402,"Ġswing":1403,"Ġset":1404,"Ġcarefully":1405,"ĠIn":1406,"Ġslow":1407,"Ġremembered":1408,"Ġlost":1409,"Ġcold":1410,"Ġheld":1411,"ello":1412,"Ġhole":1413,"Ġice":1414,"Hello":1415,"Ġlaugh":1416,"rew":1417,"Ġneeded":1418,"Ġbuy":1419,"Ġperf":1420,"Ġleft":1421,"ons":1422,"Ġmove":1423,"cess":1424,"reed":1425,"Ġanything":1426,"Ġenjoyed":1427,"Ġtall":1428,"Ġdream":1429,"Ġwrong":1430,"Ġarri":1431,"uit":1432,"Ġhear":1433,"inally":1434,"Ġair":1435,"Ġfair":1436,"Ġfollowed":1437,"ross":1438,"Ġel":1439,"Ġbooks":1440,"Ġchildren":1441,"Ġhun":1442,"Ġdelicious":1443,"Ġtable":1444,"Ġfinished":1445,"Ġcontin":1446,"Ġfriendly":1447,"Ġdir":1448,"Ġhot":1449,"Ġsnow":1450,"Ġherself":1451,"ds":1452,"ĠAfter":1453,"lf":1454,"Ġhill":1455,"ens":1456,"Ġunderstand":1457,"Ġplease":1458,"Ġclose":1459,"ined":1460,"Ġhid":1461,"Ġarrived":1462,"Ġcast":1463,"Ġelse":1464,"Ġarm":1465,"Ġwonderful":1466,"Ġbaby":1467,"Ġmight":1468,"Ġgent":1469,"Ġtight":1470,"sp":1471,"Ġforgot":1472,"ield":1473,"ĠSally":1474,"Ġbug":1475,"Ġcolors":1476,"Ġrel":1477,"Ġbuild":1478,"ĠDaisy":1479,"Ġbroken":1480,"Ġable":1481,"Ġgone":1482,"av":1483,"ĠBenny":1484,"ner":1485,"ĠNow":1486,"ĠLila":1487,"Ġyes":1488,"atter":1489,"Ġwall":1490,"Ġsong":1491,"Then":1492,"ich":1493,"Ġfilled":1494,"Ġsquir":1495,"Ġagreed":1496,"Ġsomeone":1497,"Jack":1498,"Ġcontinued":1499,"room":1500,"Ġcreat":1501,"asure":1502,"'ll":1503,"Ġcount":1504,"Ġwants":1505,"ĠEm":1506,"Ġsquirrel":1507,"Ġpink":1508,"Ġleaves":1509,"ask":1510,"Ġenough":1511,"ey":1512,"ĠThere":1513,"ĠTommy":1514,"Ġlion":1515,"From":1516,"ama":1517,"ee":1518,"OK":1519,"Ġmorning":1520,"Ġmoment":1521,"Ġvis":1522,"Ġfinally":1523,"Ġgetting":1524,"Ġstayed":1525,"Ġcookies":1526,"Ġbreak":1527,"app":1528,"ance":1529,"Ġpoin":1530,"Ġbeach":1531,"ĠK":1532,"Ġfew":1533,"Ġfight":1534,"ĠMaybe":1535,"Ġscary":1536,"Ġsometimes":1537,"ced":1538,"ries":1539,"row":1540,"ash":1541,"red":1542,"Ġdinner":1543,"Ġturned":1544,"Ġfall":1545,"Ġhungry":1546,"gon":1547,"Ġmother":1548,"Ġgrandma":1549,"Ġwet":1550,"Ġju":1551,"ĠWhat":1552,"Ġamazing":1553,"Ġtrying":1554,"Ġcream":1555,"apped":1556,"His":1557,"Ġdaddy":1558,"Ġperfect":1559,"Ġmakes":1560,"Ġpi":1561,"Ġothers":1562,"Ġcastle":1563,"At":1564,"Ġclimbed":1565,"oup":1566,"key":1567,"ĠThis":1568,"This":1569,"Ġpictures":1570,"icy":1571,"Ġcomp":1572,"amp":1573,"Ġmet":1574,"Ġtalk":1575,"Ġmus":1576,"oom":1577,"Ġwhite":1578,"Ġlistened":1579,"Ġsmiles":1580,"man":1581,"Ġfur":1582,"oring":1583,"Ġballoon":1584,"Ġclot":1585,"ĠGra":1586,"Ġclothes":1587,"Ġalone":1588,"ĠBilly":1589,"Ġpol":1590,"lc":1591,"Ġtail":1592,"rot":1593,"Ġjoy":1594,"ated":1595,"Ġpuppy":1596,"Oh":1597,"Ġmar":1598,"Ġspl":1599,"ence":1600,"Ġwasn":1601,"Ġbrought":1602,"Ġdeep":1603,"Ġeverything":1604,"Ġsear":1605,"Ġstrange":1606,"Ġpet":1607,"ister":1608,"ctor":1609,"Ġspark":1610,"der":1611,"Ġsit":1612,"Ġgrow":1613,"Ġwoods":1614,"Ġpulled":1615,"ling":1616,"Ġsail":1617,"ĠTo":1618,"ott":1619,"Ġwon":1620,"Ġride":1621,"Ġplan":1622,"eter":1623,"Ġasks":1624,"Ġfox":1625,"Ġpie":1626,"Ġtreat":1627,"Ġdanger":1628,"uffy":1629,"Ġvisit":1630,"Ġroll":1631,"ĠAmy":1632,"os":1633,"Ġleave":1634,"med":1635,"ĠJen":1636,"Ġpat":1637,"ucky":1638,"Ġmusic":1639,"Ġamazed":1640,"Ġwaited":1641,"Ġteddy":1642,"Ġhide":1643,"me":1644,"ang":1645,"ever":1646,"Ġtowards":1647,"Max":1648,"ower":1649,"Ġfield":1650,"Ġpre":1651,"Ġland":1652,"Ġflying":1653,"zz":1654,"Ġpen":1655,"Ġsilly":1656,"Ġshared":1657,"Ġowner":1658,"ained":1659,"Ġruns":1660,"Ġcloud":1661,"ape":1662,"ugg":1663,"Ġliving":1664,"Ġqui":1665,"Ġjob":1666,"ames":1667,"Ġpromised":1668,"Ġbelie":1669,"igg":1670,"Okay":1671,"Ġgu":1672,"Ġmoral":1673,"Ġside":1674,"orm":1675,"ol":1676,"gs":1677,"Ġlake":1678,"Ġpa":1679,"Ġthinks":1680,"cket":1681,"Maybe":1682,"ope":1683,"Ġpaint":1684,"Ġsec":1685,"thy":1686,"Ġsister":1687,"ually":1688,"Ġparty":1689,"Ġquiet":1690,"ises":1691,"Ġmust":1692,"cle":1693,"ĠJim":1694,"Ġrace":1695,"avy":1696,"Ġmoney":1697,"Ġwear":1698,"sw":1699,"Ġworried":1700,"ased":1701,"up":1702,"Ġansw":1703,"unch":1704,"Ġslowly":1705,"Ġpot":1706,"Ġcolorful":1707,"eces":1708,"Ġgrate":1709,"Ġfaster":1710,"Ġow":1711,"Ġbran":1712,"Ġpieces":1713,"Ġdance":1714,"Ġbott":1715,"Ġwelc":1716,"Ġbroke":1717,"Ġcup":1718,"Ġsuch":1719,"Ġgrateful":1720,"ix":1721,"Ġgif":1722,"Ġbigger":1723,"Ġtrain":1724,"ze":1725,"ph":1726,"Ġsnack":1727,"fort":1728,"Ġcho":1729,"Ġreach":1730,"Ġblank":1731,"ĠAll":1732,"Ġpro":1733,"Ġmonster":1734,"Ġplant":1735,"Ġjoin":1736,"Ġriver":1737,"less":1738,"Ġblack":1739,"Ġcandy":1740,"ire":1741,"Ġwin":1742,"Ġblanket":1743,"Ġscream":1744,"Ġele":1745,"Ġmagical":1746,"Ġtreasure":1747,"ear":1748,"Ġprincess":1749,"Ġve":1750,"Ġsmart":1751,"Ġbike":1752,"Ġdangerous":1753,"Ġsign":1754,"Ġdragon":1755,"Ġacross":1756,"Ġmonkey":1757,"Sure":1758,"Ġmost":1759,"Ġeverywhere":1760,"ĠDaddy":1761,"Ġhelping":1762,"Ġbar":1763,"Ġnap":1764,"outh":1765,"Ġfarmer":1766,"Ġem":1767,"Ġmouth":1768,"set":1769,"Why":1770,"Ġdisapp":1771,"Ġwords":1772,"ipped":1773,"Ġje":1774,"Ġstre":1775,"ored":1776,"Hi":1777,"eared":1778,"ming":1779,"Ġstepped":1780,"Ġthrew":1781,"Ġheavy":1782,"Ġtower":1783,"Ġdolls":1784,"Ġpass":1785,"Ġbite":1786,"de":1787,"Ġbowl":1788,"Ġdirty":1789,"Ġsame":1790,"Ġtwins":1791,"Ġcrying":1792,"Ġbee":1793,"Ġspr":1794,"ident":1795,"ere":1796,"ĠMolly":1797,"Ġdoctor":1798,"Ġacc":1799,"Ġbelieve":1800,"Ġwouldn":1801,"Ġbath":1802,"Ġheal":1803,"ĠFl":1804,"Ġhig":1805,"chool":1806,"bble":1807,"Ġcarrot":1808,"Ġclosed":1809,"Ġheart":1810,"Ġstuck":1811,"Mia":1812,"cked":1813,"Ġcour":1814,"Ġbuck":1815,"Ġfruit":1816,"Ġmin":1817,"Ġatt":1818,"Ġteac":1819,"ĠMr":1820,"Ġschool":1821,"Ġbrown":1822,"Ġhoped":1823,"asket":1824,"ĠJill":1825,"iting":1826,"Ġbasket":1827,"Ġsuddenly":1828,"Ġfeels":1829,"Ġmix":1830,"Ġchair":1831,"Ġeating":1832,"Ġtown":1833,"Ġclapped":1834,"Ġcourse":1835,"Ġcray":1836,"Ġcoll":1837,"Ġgentle":1838,"Ġfairy":1839,"pping":1840,"Ġpack":1841,"Ġbutt":1842,"ventually":1843,"Ġstand":1844,"ier":1845,"Ġdrove":1846,"ors":1847,"Ġpushed":1848,"br":1849,"issed":1850,"Ġwelcome":1851,"ts":1852,"Ġswings":1853,"Ġhigher":1854,"Ġwithout":1855,"Ġneigh":1856,"Ġtoday":1857,"Ġpocket":1858,"orrow":1859,"Ġhit":1860,"Ġteacher":1861,"Ġneighb":1862,"ord":1863,"Ġpers":1864,"Ġsmo":1865,"Ġpiece":1866,"ourn":1867,"Ġgames":1868,"Ġcheered":1869,"ract":1870,"Ġwings":1871,"Ġforget":1872,"Ġben":1873,"Ġexplained":1874,"Ġlonger":1875,"Ġjourn":1876,"Ġyard":1877,"Ġfree":1878,"Finally":1879,"ible":1880,"Ġaccident":1881,"Ġcorn":1882,"ead":1883,"Ġdry":1884,"Ġalong":1885,"ho":1886,"umb":1887,"cy":1888,"ment":1889,"ĠMary":1890,"Ġnoises":1891,"itting":1892,"Ġsang":1893,"Ġinst":1894,"Ġneck":1895,"Ġhappen":1896,"Ġlate":1897,"Ġthrow":1898,"Ġhugs":1899,"Ġyoung":1900,"Lila":1901,"Ġturns":1902,"phant":1903,"Ġstories":1904,"vel":1905,"Ġshoes":1906,"Ġlon":1907,"Ġmiss":1908,"Ġadventures":1909,"Ġsinging":1910,"Ġtrou":1911,"Ġwell":1912,"Ġsea":1913,"Ġupset":1914,"Ġlunch":1915,"Ġapple":1916,"Ġlonely":1917,"Ġkey":1918,"bby":1919,"ches":1920,"Ġelephant":1921,"oun":1922,"Ġstreet":1923,"Ġsecret":1924,"Ġplac":1925,"Ġbelong":1926,"Ġdist":1927,"Ġmine":1928,"Ġtom":1929,"Ġwish":1930,"Ġfence":1931,"ountain":1932,"Ġmat":1933,"ek":1934,"Ġshap":1935,"Ġshook":1936,"Ġexploring":1937,"Ġmoved":1938,"Ġyear":1939,"Ġpurp":1940,"Ġnearby":1941,"Ġsoup":1942,"aughty":1943,"Ġnaughty":1944,"Ġstar":1945,"Ġwise":1946,"Ġshop":1947,"Ġbring":1948,"Ġstars":1949,"ĠGrandma":1950,"Ġowl":1951,"Ġjar":1952,"fused":1953,"bow":1954,"Do":1955,"ocked":1956,"Ġinv":1957,"Ġexp":1958,"Ġcaught":1959,"yard":1960,"Ġwhe":1961,"Ġsu":1962,"ward":1963,"Ġseemed":1964,"Ġbackyard":1965,"Ġph":1966,"Ġes":1967,"ail":1968,"Ġrelie":1969,"Ġdropped":1970,"Ġrocks":1971,"ĠEmma":1972,"aughter":1973,"llo":1974,"Ġdrink":1975,"Ġ3":1976,"ush":1977,"Ġbucket":1978,"adow":1979,"Ġpurple":1980,"Ġswam":1981,"Ġdes":1982,"Ġca":1983,"ces":1984,"Ġresp":1985,"Ġfarm":1986,"Ġtaking":1987,"Ġorange":1988,"Ġthough":1989,"ions":1990,"And":1991,"Ġmail":1992,"Ġshapes":1993,"Ġpast":1994,"Ġcow":1995,"Ġstu":1996,"col":1997,"Ġwoke":1998,"ĠThank":1999,"Ġbench":2000,"ung":2001,"sy":2002,"Ġaf":2003,"Ġsounds":2004,"ity":2005,"Ġfit":2006,"Ġwondered":2007,"Ġbusy":2008,"Ġtiny":2009,"Ġob":2010,"Ġsitting":2011,"Ġrainbow":2012,"Ġnose":2013,"Ġnest":2014,"ese":2015,"Ġdaughter":2016,"Ġmark":2017,"Ġtakes":2018,"Ġmad":2019,"fish":2020,"to":2021,"weet":2022,"Ġkite":2023,"Ġcou":2024,"read":2025,"ĠO":2026,"Ġnothing":2027,"Ġholding":2028,"Ġjuice":2029,"Ġcomes":2030,"Ġarms":2031,"thday":2032,"Ġpig":2033,"Ġcoat":2034,"ĠFluffy":2035,"og":2036,"ining":2037,"Ġcir":2038,"ĠInside":2039,"Ġbranch":2040,"raid":2041,"Ġrelieved":2042,"pper":2043,"Ġafraid":2044,"cing":2045,"ose":2046,"idge":2047,"Ġdriver":2048,"Ġmil":2049,"vered":2050,"Ġspoon":2051,"Ġforever":2052,"Ġcute":2053,"Ġcarry":2054,"Ġgift":2055,"Ġsick":2056,"Ġboun":2057,"Ġlift":2058,"Ġpeace":2059,"sting":2060,"Of":2061,"ours":2062,"Ġpromise":2063,"ĠFinally":2064,"Ġhuge":2065,"Ġact":2066,"Ġtou":2067,"Ġtouched":2068,"unt":2069,"Ġpatient":2070,"Ġking":2071,"Ġround":2072,"sc":2073,"Ġhello":2074,"cer":2075,"ĠCome":2076,"Ġbirthday":2077,"Ġfing":2078,"Ġletter":2079,"Ġgrab":2080,"Ġcheese":2081,"let":2082,"Ġsunny":2083,"Ġexciting":2084,"Ġintere":2085,"Ġonto":2086,"eth":2087,"Ġlaughing":2088,"Ġdays":2089,"board":2090,"Ġjourney":2091,"Ġband":2092,"Ġgigg":2093,"Ġcreature":2094,"Ġdisco":2095,"ĠMama":2096,"ittens":2097,"Ġbread":2098,"Ġret":2099,"arp":2100,"Hey":2101,"shine":2102,"Ġbush":2103,"ped":2104,"Ġimag":2105,"Ġlife":2106,"gged":2107,"Ġkick":2108,"Ġpower":2109,"Ġhope":2110,"Ġshell":2111,"Ġcraw":2112,"Ġcozy":2113,"Ġswimming":2114,"Tommy":2115,"Ġinc":2116,"Ġbottle":2117,"Ġsharp":2118,"Ġsuc":2119,"Ġmist":2120,"Ġwra":2121,"gg":2122,"Ġcomfort":2123,"Ġinstead":2124,"Ġwhist":2125,"Ġmilk":2126,"Ġwatching":2127,"ness":2128,"Ġreturn":2129,"Ġear":2130,"Ġspin":2131,"Ġaccidentally":2132,"alm":2133,"Ġeas":2134,"Ġsunshine":2135,"ten":2136,"ĠSoon":2137,"Ġcave":2138,"pa":2139,"ĠSammy":2140,"Ġspo":2141,"Ġlucky":2142,"Ġtalked":2143,"Ġputs":2144,"Ġpudd":2145,"Ġhoney":2146,"Ġpointed":2147,"Ġcollect":2148,"Ġgives":2149,"Ġgather":2150,"itch":2151,"Ġent":2152,"Ġroad":2153,"Later":2154,"Ġbought":2155,"Ġsmiling":2156,"Ġanyone":2157,"Ġsearched":2158,"Ġce":2159,"Ġhor":2160,"Ġlater":2161,"Ġfan":2162,"ball":2163,"Ġsandw":2164,"round":2165,"Ġapples":2166,"itten":2167,"els":2168,"blem":2169,"irt":2170,"Ġproblem":2171,"Ġmeet":2172,"Bob":2173,"ize":2174,"Ġmach":2175,"Lucy":2176,"Ġwom":2177,"Ġloves":2178,"Ġwoman":2179,"Good":2180,"ÅĵI":2181,"Ġinteresting":2182,"ĠTweet":2183,"Ġplane":2184,"Ġpres":2185,"Ġkiss":2186,"Ġhealthy":2187,"eb":2188,"Ġtasty":2189,"Ġpile":2190,"Ġvill":2191,"Ġducks":2192,"ĠJimmy":2193,"ub":2194,"ove":2195,"Ġwide":2196,"amed":2197,"ont":2198,"Ġadm":2199,"aur":2200,"Ġspid":2201,"Ġclever":2202,"Ġeag":2203,"Ġprot":2204,"Ġmatter":2205,"Ġtrouble":2206,"Ġcrayons":2207,"Ġzoom":2208,"erly":2209,"ndpa":2210,"Ġstorm":2211,"owed":2212,"ĠWith":2213,"Ġclouds":2214,"Ġperson":2215,"Ġpath":2216,"Ġpill":2217,"cks":2218,"Ġfeather":2219,"Ġrope":2220,"Ġpop":2221,"Ġprotect":2222,"Ġshining":2223,"Ġsmelled":2224,"Ġfront":2225,"Ġhon":2226,"Ġbutton":2227,"Ġpract":2228,"Ġspotted":2229,"Ġminut":2230,"Ġscreamed":2231,"ĠEll":2232,"Ġpresent":2233,"Ġzoo":2234,"Come":2235,"Ġap":2236,"Ġsaf":2237,"Ġrespect":2238,"Ġval":2239,"Ġmud":2240,"Ġdanced":2241,"Ġorgan":2242,"Ġcheer":2243,"Ġpar":2244,"Jim":2245,"Ġquest":2246,"Ġappeared":2247,"ond":2248,"Ġwhich":2249,"Ġpuzz":2250,"Molly":2251,"Ġseat":2252,"Ġteach":2253,"Ġmyster":2254,"Just":2255,"Ġsnowman":2256,"isa":2257,"Ġsnake":2258,"Ġthin":2259,"ert":2260,"ale":2261,"Ġasleep":2262,"Ġwild":2263,"Ġsur":2264,"Ġlovely":2265,"epend":2266,"Ġanswer":2267,"Ġwearing":2268,"Ġgently":2269,"Ġneighbor":2270,"oose":2271,"Mum":2272,"Ġplaces":2273,"Ġbark":2274,"Ġgiant":2275,"Ġhorse":2276,"Ġgoes":2277,"Ġwhole":2278,"ometimes":2279,"Ġsearch":2280,"Ġsplas":2281,"Every":2282,"ular":2283,"Ġimpress":2284,"Ġcorner":2285,"Ġdirt":2286,"St":2287,"een":2288,"Ġshr":2289,"Ġmed":2290,"Ġtries":2291,"Ġtrip":2292,"Ġconfused":2293,"ĠEmily":2294,"Ġlive":2295,"Ġdi":2296,"Ġmind":2297,"la":2298,"ato":2299,"Ġrolled":2300,"Ġtasted":2301,"nic":2302,"Ġslid":2303,"Ġcard":2304,"cean":2305,"Ġash":2306,"Ġocean":2307,"Ġsupp":2308,"In":2309,"Ġpicnic":2310,"Ġforgive":2311,"Ġrude":2312,"Ġmachine":2313,"ĠGo":2314,"Ġspent":2315,"Ġser":2316,"ex":2317,"Ġteeth":2318,"Ġdrive":2319,"itty":2320,"Ġphone":2321,"ssed":2322,"Ġoven":2323,"ĠHow":2324,"Ġpan":2325,"Ġlast":2326,"Ġpour":2327,"Ġcalm":2328,"Ġpretended":2329,"Ġdelight":2330,"Ġcookie":2331,"Ġspider":2332,"Ġfeet":2333,"Ġfurry":2334,"izz":2335,"Ġlay":2336,"unk":2337,"Ġfaces":2338,"Ġworm":2339,"ĠCh":2340,"umber":2341,"Ġring":2342,"Ġrec":2343,"Ġhelpful":2344,"Ġlad":2345,"ĠMittens":2346,"Ġeventually":2347,"Ġwave":2348,"Ġwip":2349,"Ġchick":2350,"Ġmountain":2351,"Ġsal":2352,"Ġban":2353,"Ġemb":2354,"ones":2355,"Ġtalking":2356,"Ġrob":2357,"Ġfold":2358,"Ġshy":2359,"Ġcart":2360,"Ġtomorrow":2361,"Ġsel":2362,"Ġchocol":2363,"Ġtid":2364,"ĠJenny":2365,"Ġspread":2366,"Ġbubble":2367,"Ġvillage":2368,"arge":2369,"ife":2370,"Ġremind":2371,"Ġign":2372,"Ġtun":2373,"Ġfoot":2374,"Ġcoin":2375,"Ġwrite":2376,"Ġcouch":2377,"Ġbuilding":2378,"Ġladder":2379,"Ġpush":2380,"Ġfighting":2381,"Ġsmooth":2382,"hile":2383,"Ġtreats":2384,"Ġblew":2385,"Ġtool":2386,"Ġchased":2387,"Ġwore":2388,"lex":2389,"ighed":2390,"Ġstret":2391,"My":2392,"Soon":2393,"arra":2394,"Ġbugs":2395,"Ġhiding":2396,"Ġembarra":2397,"Ġknee":2398,"Ġpool":2399,"Ġcross":2400,"oph":2401,"Ġwaiting":2402,"Ġstep":2403,"Ġpuddle":2404,"Ġrobot":2405,"ator":2406,"Ġneckl":2407,"Ġshelf":2408,"Ġbell":2409,"mo":2410,"Ġfinish":2411,"Ġcoo":2412,"not":2413,"als":2414,"Ġstir":2415,"Ġant":2416,"Ġwhenever":2417,"Ġsongs":2418,"Ġselfish":2419,"Ġmaybe":2420,"Ġcannot":2421,"Ġstra":2422,"Ġstring":2423,"Ġsol":2424,"Ġchocolate":2425,"ult":2426,"Ġtaste":2427,"Ġrep":2428,"Ġspe":2429,"Ġlarge":2430,"Ġhum":2431,"ĠJake":2432,"Mama":2433,"Ġple":2434,"Ġnet":2435,"Ġpaw":2436,"ĠSt":2437,"lebr":2438,"Ġsack":2439,"Ġfixed":2440,"box":2441,"Ġleaf":2442,"ĠEverywhere":2443,"Ġtidy":2444,"Ġwash":2445,"Ġscar":2446,"umpy":2447,"Ġbanan":2448,"Ġbarked":2449,"old":2450,"Ġspray":2451,"Ġcelebr":2452,"ĠSometimes":2453,"Ġstone":2454,"ĠJust":2455,"hnn":2456,"Ġgen":2457,"Please":2458,"Ġcloth":2459,"Ġcrab":2460,"ĠLe":2461,"Dad":2462,"Ġpeaceful":2463,"Ġcolour":2464,"ungle":2465,"ĠPlease":2466,"Ġhel":2467,"hnny":2468,"lice":2469,"ird":2470,"Ġjungle":2471,"oin":2472,"Ġmissed":2473,"iger":2474,"Ġdeter":2475,"Ġ'":2476,"arm":2477,"Now":2478,"Ġlanded":2479,"Ġdeterm":2480,"Ġforward":2481,"Ġembarrassed":2482,"Ġjumping":2483,"Sarah":2484,"Ġbat":2485,"Ġdecor":2486,"Ġhonest":2487,"elly":2488,"Ġnecklace":2489,"airs":2490,"ĠTheir":2491,"dge":2492,"Ġtrust":2493,"Ġhears":2494,"Ġmoon":2495,"orry":2496,"Ġshirt":2497,"Ġsticks":2498,"Ġcreative":2499,"Ġsharing":2500,"ĠTV":2501,"aking":2502,"Ġtea":2503,"Ġsuccess":2504,"Ġcarrots":2505,"Ġknocked":2506,"Ġdisappoin":2507,"most":2508,"Ġmeadow":2509,"Ġstood":2510,"ying":2511,"getable":2512,"Ġgener":2513,"Ġwhis":2514,"Ġbal":2515,"Ġtightly":2516,"Ġmeant":2517,"Ġvegetable":2518,"ĠDon":2519,"Ġashamed":2520,"Ġbreath":2521,"Ġlegs":2522,"ned":2523,"Ġplate":2524,"Ġalmost":2525,"Ġsour":2526,"Ġemp":2527,"Ġgray":2528,"dle":2529,"Ġgrew":2530,"ĠSome":2531,"Ġpillow":2532,"Ġtells":2533,"Ġempty":2534,"ground":2535,"ony":2536,"Ġgas":2537,"Ġwhistle":2538,"Ġsplash":2539,"ĠOn":2540,"ian":2541,"Ġunderstood":2542,"Ġber":2543,"Be":2544,"Ġsheep":2545,"Ġcarried":2546,"den":2547,"Ġyelled":2548,"ĠWhy":2549,"ĠLisa":2550,"To":2551,"Ġlem":2552,"arl":2553,"ĠTeddy":2554,"ustr":2555,"ĠAnn":2556,"vous":2557,"Ġhours":2558,"Ġdisappointed":2559,"Ġnut":2560,"ital":2561,"Ġsnacks":2562,"Ġsave":2563,"Ġpolice":2564,"erp":2565,"Ġnods":2566,"hin":2567,"Ġwhisp":2568,"Ġjew":2569,"Ġthese":2570,"Where":2571,"ork":2572,"Ġhosp":2573,"Ġsparkly":2574,"Ġgold":2575,"Ġhospital":2576,"ets":2577,"Ġkitten":2578,"ĠEven":2579,"Ġship":2580,"ina":2581,"ĠMum":2582,"Ġpay":2583,"obby":2584,"ĠTogether":2585,"urse":2586,"Ġbored":2587,"Ġline":2588,"Ġgenerous":2589,"Ġfrustr":2590,"Ġtaught":2591,"Ġhidden":2592,"Ġtest":2593,"Ġrad":2594,"Ġstanding":2595,"Ġchew":2596,"Ġscarf":2597,"Ġminutes":2598,"Ġreturned":2599,"iff":2600,"Ġknowing":2601,"Ġhur":2602,"Ġblow":2603,"Ġgroup":2604,"Ġeasy":2605,"Ġbedroom":2606,"Ġplants":2607,"Ġpizz":2608,"Ġpolite":2609,"Ġglass":2610,"Ġmysterious":2611,"Ġwaves":2612,"Ġshore":2613,"Ġsighed":2614,"Ġseed":2615,"Ġwolf":2616,"Ġpri":2617,"usie":2618,"Ġseek":2619,"Ġdetermined":2620,"kin":2621,"Ġthankful":2622,"Ġpuzzle":2623,"ĠPeter":2624,"Stop":2625,"Ġpowerful":2626,"Ġclass":2627,"Jane":2628,"Ġner":2629,"Ġprince":2630,"Ġpir":2631,"Ġfig":2632,"ĠBe":2633,"Ġsleepy":2634,"fl":2635,"Ġpassed":2636,"Ġsandwich":2637,"Ġdrew":2638,"Ġnervous":2639,"Ġspicy":2640,"'d":2641,"Ġfinger":2642,"Ġjelly":2643,"Ġfrustrated":2644,"Ġpizza":2645,"Ġmessy":2646,"Ġfancy":2647,"Ġspoil":2648,"Ġmatch":2649,"Ġgun":2650,"work":2651,"osaur":2652,"Ġgate":2653,"Ġbridge":2654,"There":2655,"Ġlock":2656,"Ġfear":2657,"Ġtick":2658,"aul":2659,"Ġcloset":2660,"Ġmot":2661,"Ġreg":2662,"Ġkissed":2663,"Ġsold":2664,"Ġfeed":2665,"af":2666,"Ġwis":2667,"Ġgathered":2668,"Ġav":2669,"Ġpoor":2670,"oop":2671,"Ġcirc":2672,"Ġexcite":2673,"ote":2674,"Ġhang":2675,"ella":2676,"Ġesc":2677,"Ġvan":2678,"Ġcaterp":2679,"Ġcaterpill":2680,"Ġflag":2681,"Ġpin":2682,"Ġgrumpy":2683,"Ġdinosaur":2684,"ano":2685,"iddle":2686,"uce":2687,"Ġyourself":2688,"issors":2689,"Ġanswered":2690,"Ġcries":2691,"Are":2692,"Ġoften":2693,"itter":2694,"Ġtwirl":2695,"Ġchest":2696,"ĠZ":2697,"sist":2698,"selves":2699,"gly":2700,"Ġhopping":2701,"pack":2702,"Ġscissors":2703,"mb":2704,"Ġtears":2705,"Sorry":2706,"Ġugly":2707,"Ġmummy":2708,"ĠRex":2709,"era":2710,"Ġcand":2711,"Ġburn":2712,"ensive":2713,"Ġdeer":2714,"Ġdrop":2715,"illed":2716,"Ġfil":2717,"izzy":2718,"Ġexcitement":2719,"Ġlit":2720,"Ġscr":2721,"Ġexpensive":2722,"Ġworking":2723,"Ġmiddle":2724,"Ġsaved":2725,"ĠBr":2726,"Ġok":2727,"Ġcaterpillar":2728,"Ġtaken":2729,"Ġtrue":2730,"Ġwagged":2731,"Ġones":2732,"Ġpleased":2733,"Ġcrown":2734,"Ġspend":2735,"Ġboring":2736,"ugar":2737,"Ġleg":2738,"que":2739,"Ġpicks":2740,"oof":2741,"Ġvase":2742,"Ġtent":2743,"Ġasking":2744,"body":2745,"Jimmy":2746,"ual":2747,"ĠBl":2748,"ates":2749,"Ġtie":2750,"ecially":2751,"Ġbrush":2752,"Ġvegetables":2753,"Ġgiggled":2754,"Ġboss":2755,"Their":2756,"ete":2757,"Who":2758,"Ġmistake":2759,"ser":2760,"Ġcage":2761,"light":2762,"Ġmir":2763,"Ġsugar":2764,"Ġgets":2765,"Ġcap":2766,"Ġrocket":2767,"ĠLeo":2768,"Ġstuff":2769,"Ġcomfortable":2770,"Ġpacked":2771,"Ġeld":2772,"Sp":2773,"pecially":2774,"Ġespecially":2775,"ĠJohnny":2776,"Ġdancing":2777,"Ġclown":2778,"Ġwander":2779,"Ġnumber":2780,"Ġsight":2781,"Ġmedic":2782,"Ġpress":2783,"ushed":2784,"Ġknight":2785,"ots":2786,"ggs":2787,"Ġfruits":2788,"iness":2789,"Ġdrum":2790,"Ġeggs":2791,"Ġlying":2792,"Ġfake":2793,"ror":2794,"Ġdest":2795,"aged":2796,"Ġglue":2797,"Ġwalks":2798,"Ġdistance":2799,"Ġmedicine":2800,"Ġsplashed":2801,"Ġbake":2802,"Ġflut":2803,"Ġsweetie":2804,"Ġbone":2805,"Ġmoving":2806,"Ġdrawing":2807,"Ġdisappeared":2808,"Ġsmelly":2809,"ha":2810,"Ġchange":2811,"Ġweek":2812,"Ġclap":2813,"Ġlead":2814,"ĠOK":2815,"Ġbecome":2816,"Ġpray":2817,"Ġlemon":2818,"Ġfeathers":2819,"Ġmov":2820,"Ġlose":2821,"Ġmoms":2822,"Ġlicked":2823,"Ġcalling":2824,"Ġtwist":2825,"Ġdogs":2826,"ory":2827,"ĠIf":2828,"Ġbathroom":2829,"Ġplayground":2830,"Ġfis":2831,"yal":2832,"enny":2833,"Ġlazy":2834,"Ġweak":2835,"Me":2836,"Sally":2837,"Ġincred":2838,"Ġroar":2839,"Ġelderly":2840,"Ġbody":2841,"?\".":2842,"Ġgar":2843,"Ġcri":2844,"Ġexam":2845,"Ġhorn":2846,"Ġcrack":2847,"Gra":2848,"Billy":2849,"Ġquestions":2850,"Ġwrote":2851,"Joe":2852,"Ġadd":2853,"Ġyog":2854,"Ġyours":2855,"Ġmirror":2856,"Ġmic":2857,"Ġnoisy":2858,"uggest":2859,"Ġfather":2860,"Ġsuggest":2861,"Ġnod":2862,"Ġskipped":2863,"ating":2864,"elp":2865,"eez":2866,"Ġfluffy":2867,"Ġed":2868,"Ġeager":2869,"Ġwheel":2870,"Ġext":2871,"Ġdish":2872,"Ġloyal":2873,"ĠAt":2874,"Ġclear":2875,"Ġfamous":2876,"Ġstones":2877,"Ġlamp":2878,"Ġruined":2879,"Ġdig":2880,"land":2881,"Ġrare":2882,"Ġord":2883,"ination":2884,"ĠEnd":2885,"Ġcontent":2886,"Ġrich":2887,"Ġtape":2888,"Ġsell":2889,"Ġfigure":2890,"Ġdrank":2891,"Ġmap":2892,"Ġmarch":2893,"Ġincredible":2894,"Ġqueen":2895,"Ġrid":2896,"Ġglow":2897,"Ġshows":2898,"Ġcheck":2899,"hip":2900,"Ġjuicy":2901,"Ġsoap":2902,"ti":2903,"Ġcovered":2904,"Ġind":2905,"Ġsailed":2906,"Ġrelax":2907,"Ġballs":2908,"Ġaw":2909,"imp":2910,"Amy":2911,"illi":2912,"Ġteam":2913,"Ġshoot":2914,"Ġmeasure":2915,"ately":2916,"Ġdiscovered":2917,"Ġdecide":2918,"Ġrealised":2919,"umbled":2920,"Ġswan":2921,"Ġneeds":2922,"Ġborrow":2923,"Ġcoins":2924,"Ġstraw":2925,"fic":2926,"Ġadventur":2927,"Ġbranches":2928,"cept":2929,"ĠBlue":2930,"Ġcleaned":2931,"Help":2932,"ĠNo":2933,"Jill":2934,"Ġham":2935,"Ġextra":2936,"Ġtowel":2937,"asing":2938,"ĠLittle":2939,"Ġboys":2940,"Ġboard":2941,"Well":2942,"Ġmotor":2943,"Ġtiger":2944,"Ġbarn":2945,"Ġchicken":2946,"Ġmod":2947,"Ġadventurous":2948,"Ġdiffic":2949,"Ġtag":2950,"Ġoffered":2951,"Ġjoke":2952,"Ġbubbles":2953,"Ġbalance":2954,"Ġfine":2955,"keep":2956,"Ġlifted":2957,"ique":2958,"Ġcolourful":2959,"Ġthick":2960,"Ġfrown":2961,"Ġeye":2962,"Ġdifficult":2963,"Ġturt":2964,"Mummy":2965,"Ġtrack":2966,"Ġdolp":2967,"Ġorganized":2968,"Ġtoug":2969,"Ġbottom":2970,"Ġhappening":2971,"Ġcover":2972,"alous":2973,"rag":2974,"Ġunique":2975,"port":2976,"Ġhose":2977,"Ġknife":2978,"Ġjealous":2979,"Ġweird":2980,"ĠSusie":2981,"Ġisland":2982,"Ġfright":2983,"lla":2984,"Ġgarage":2985,"Ġmanaged":2986,"cil":2987,"Ġhurts":2988,"imed":2989,"Ġpencil":2990,"Sue":2991,"ject":2992,"Ġword":2993,"Ġlearning":2994,"Ġcrawled":2995,"Ġarg":2996,"Spot":2997,"Ġcost":2998,"Ġcircle":2999,"ĠMark":3000,"Ġberries":3001,"Ġsaying":3002,"Ġkindness":3003,"ured":3004,"Ġonce":3005,"Ġballoons":3006,"olog":3007,"Ġtough":3008,"Ġmighty":3009,"Ġwand":3010,"Ġchase":3011,"ready":3012,"Ġbald":3013,"Ġpointing":3014,"Ġter":3015,"lies":3016,"Ġfavour":3017,"ĠBrown":3018,"iv":3019,"Ġshake":3020,"ĠBobby":3021,"Ġlouder":3022,"keeper":3023,"und":3024,"ipper":3025,"Ġbatter":3026,"Ġjewel":3027,"ages":3028,"Ġadded":3029,"Ġsil":3030,"Ġunus":3031,"Ġguit":3032,"Ġhunt":3033,"Ġharder":3034,"Ġspun":3035,"Ġguess":3036,"Ġalready":3037,"Ġapolog":3038,"Ġedge":3039,"head":3040,"Ġfour":3041,"Ġang":3042,"Ġwhale":3043,"Ġnorm":3044,"ĠKitty":3045,"Ġfool":3046,"Ġlibr":3047,"alk":3048,"Ġfavourite":3049,"Ġunusual":3050,"How":3051,"Ġdizzy":3052,"rage":3053,"Ġenjoying":3054,"Ġvalu":3055,"aw":3056,"ipp":3057,"Ġpump":3058,"Ġhats":3059,"Ġsmoke":3060,"Ġbelonged":3061,"Ġcheerful":3062,"Ġgrace":3063,"Ġwrapped":3064,"Ġstrawber":3065,"Ġimpressed":3066,"uggled":3067,"Ġrecord":3068,"Ġsword":3069,"Ġtrucks":3070,"Ġgrown":3071,"Ġgiving":3072,"Ġmarket":3073,"Ġref":3074,"Ġtrunk":3075,"Ġnormal":3076,"Ġlaughs":3077,"anged":3078,"ola":3079,"Ġgrand":3080,"Ġears":3081,"Ġguitar":3082,"Ġloudly":3083,"Ġharm":3084,"Ġhero":3085,"illiant":3086,"Ġbanana":3087,"Here":3088,"Ġboxes":3089,"Ġproudly":3090,"Ġturtle":3091,"Ġbrilliant":3092,"Ġscare":3093,"ature":3094,"Ġcircles":3095,"ilt":3096,"Ġterri":3097,"Ġchoose":3098,"ery":3099,"Ġbrothers":3100,"ym":3101,"Ġbossy":3102,"Ġdreamed":3103,"Ġagainst":3104,"Ġescape":3105,"Ġinvited":3106,"Ġgoat":3107,"Ġskin":3108,"ipe":3109,"cient":3110,"Ġhelps":3111,"gy":3112,"Ġcompet":3113,"Ġcab":3114,"Ġpil":3115,"Ġfrightened":3116,"Ġmelt":3117,"Ġpainting":3118,"Ġmeans":3119,"Ġbirdie":3120,"Ġaccept":3121,"Ġflash":3122,"Ġpee":3123,"Ġjack":3124,"fast":3125,"Ġdepend":3126,"Ġsafely":3127,"Ġslipped":3128,"Ġbuttons":3129,"Ġstubb":3130,"Ġwrap":3131,"Ġdesign":3132,"Ġvaluable":3133,"Ġcrayon":3134,"ĠDan":3135,"Ġstream":3136,"Ġancient":3137,"Ġwalls":3138,"ĠEllie":3139,"Ġcabin":3140,"Ġbreakfast":3141,"Ġwake":3142,"Ġhappiness":3143,"Ġstudy":3144,"edient":3145,"ouses":3146,"Ġlog":3147,"erry":3148,"Ġsuccessful":3149,"emo":3150,"ĠFred":3151,"Ġclay":3152,"orge":3153,"Ġtoast":3154,"Ġknows":3155,"Ġfoolish":3156,"Ġfalls":3157,"Ġstubborn":3158,"Ġfridge":3159,"Ġlean":3160,"apping":3161,"Ġunl":3162,"ye":3163,"Ġnicely":3164,"atch":3165,"Ġshape":3166,"Ġmovie":3167,"Ġfier":3168,"omed":3169,"Ġcudd":3170,"Ġrough":3171,"Ġdreams":3172,"Ġnosy":3173,"ĠPete":3174,"Ġcity":3175,"Ġhouses":3176,"Ġspace":3177,"Ġbloom":3178,"Ġfat":3179,"Ġobedient":3180,"Ġdelicate":3181,"Ġfierce":3182,"ĠMy":3183,"Ġgrandpa":3184,"Ġoffice":3185,"az":3186,"ado":3187,"laimed":3188,"Ġtomato":3189,"Ġsuggested":3190,"Ġicy":3191,"Ġcompetit":3192,"Ġwagon":3193,"ĠToday":3194,"Ġshark":3195,"Ġnotice":3196,"pes":3197,"Ġexclaimed":3198,"Ġdead":3199,"Ġmem":3200,"Ġkinds":3201,"Ġwiped":3202,"Ġmixed":3203,"Ġshells":3204,"ext":3205,"Ġstri":3206,"Ġuseful":3207,"uth":3208,"Ġpoured":3209,"ÅĵLet":3210,"Ġcher":3211,"Ġlights":3212,"Ġtools":3213,"ĠBobo":3214,"Ġaunt":3215,"Ġlocked":3216,"Ġsounded":3217,"Ġstove":3218,"Ġthu":3219,"Ġexplored":3220,"Ġexcitedly":3221,"wards":3222,"ĠRose":3223,"Ġfrag":3224,"eorge":3225,"Ġrose":3226,"!\".":3227,"Ġegg":3228,"Ġson":3229,"arry":3230,"oppy":3231,"Ġtimes":3232,"Ġshadow":3233,"Ġcro":3234,"ĠTweety":3235,"Ġbags":3236,"Ġenc":3237,"Ġfountain":3238,"ention":3239,"oot":3240,"ache":3241,"dom":3242,"Ġthemselves":3243,"Ġlow":3244,"Ġstumbled":3245,"Ġbushes":3246,"Ġshowing":3247,"Ġweal":3248,"Ġspoiled":3249,"Ġabove":3250,"Ġsmaller":3251,"Ġfingers":3252,"Ġresc":3253,"Ġlab":3254,"Ġindepend":3255,"Ġperform":3256,"vice":3257,"Ġthoughtful":3258,"kn":3259,"Ġwitch":3260,"Ġjog":3261,"Ġdough":3262,"Ġfragile":3263,"Em":3264,"ray":3265,"na":3266,"Ġdependable":3267,"Ġraced":3268,"Ġeng":3269,"corn":3270,"inal":3271,"Ġplayful":3272,"Ġspinning":3273,"Ġtele":3274,"Ġparrot":3275,"arth":3276,"Ġhelm":3277,"Ġseem":3278,"Ġrode":3279,"Ġstretch":3280,"Ġbrightly":3281,"Ġprint":3282,"ormous":3283,"ines":3284,"Ġclock":3285,"Ġjam":3286,"Ġdelighted":3287,"Ġadmired":3288,"Ġenormous":3289,"Ġbuilt":3290,"Ġlaw":3291,"Ġcounted":3292,"ĠU":3293,"Ġkicked":3294,"Ġswe":3295,"Ġorig":3296,"Ġcop":3297,"Ġpractice":3298,"Ġchanged":3299,"Ġroof":3300,"Ġways":3301,"ĠElla":3302,"Ġshone":3303,"reen":3304,"Ġrat":3305,"Ġtwig":3306,"Ġreminded":3307,"Ġacorn":3308,"Ġcam":3309,"Ġsunfl":3310,"Ġhammer":3311,"ither":3312,"ience":3313,"Ġindependent":3314,"eeze":3315,"Ġsniff":3316,"Ġzip":3317,"Ġbitter":3318,"Ġusing":3319,"Ġhanded":3320,"ĠYour":3321,"Ġwhispered":3322,"mbre":3323,"anut":3324,"Ġchose":3325,"Ġchir":3326,"known":3327,"Ġumbre":3328,"Ġhoop":3329,"Ġcone":3330,"Ġloll":3331,"Ġsolve":3332,"ĠMrs":3333,"Ġstronger":3334,"Ġsteal":3335,"Ġtunn":3336,"Ġjolly":3337,"Ġserious":3338,"Ġbees":3339,"Ġoriginal":3340,"ĠMar":3341,"ipop":3342,"Ġbeak":3343,"Ġtummy":3344,"Ġpopcorn":3345,"Ġterrible":3346,"Ġbrace":3347,"ÅĵYes":3348,"Ġlollipop":3349,"Ġboats":3350,"Ġmis":3351,"ict":3352,"Ġpainted":3353,"Ġfre":3354,"Ġallowed":3355,"Ġhairy":3356,"Ġmoder":3357,"ĠBella":3358,"Ġsauce":3359,"iable":3360,"Ġcleaning":3361,"Ġunknown":3362,"Ġfinding":3363,"Ġjoined":3364,"Ġgasped":3365,"Ġguard":3366,"Ġleaving":3367,"Ġpotato":3368,"Ġdust":3369,"Ġsalad":3370,"ĠBu":3371,"iew":3372,"Ġbean":3373,"Ġpicking":3374,"upid":3375,"het":3376,"Ġpumpkin":3377,"See":3378,"inary":3379,"ĠNemo":3380,"amond":3381,"Ġclum":3382,"Ġdove":3383,"uring":3384,"Ġbump":3385,"anger":3386,"Ġsink":3387,"Ġcostum":3388,"Ġtank":3389,"Ġhalf":3390,"Ġyet":3391,"Ġmetal":3392,"Ġdolphin":3393,"Ġreliable":3394,"Ġbounce":3395,"Ġview":3396,"Ġtor":3397,"Ġdoesn":3398,"Ġdiamond":3399,"Ġthose":3400,"robe":3401,"Ġpost":3402,"Ġforth":3403,"Ġstamp":3404,"aghet":3405,"aghetti":3406,"Ġadvice":3407,"Ġrubb":3408,"com":3409,"Ġhay":3410,"ĠSn":3411,"Ġmodern":3412,"Ġbarber":3413,"Ġing":3414,"Ġthinking":3415,"gu":3416,"Ġgem":3417,"Ġholds":3418,"Ġpirate":3419,"Ġregular":3420,"ĠAlice":3421,"Ġmarble":3422,"ebra":3423,"ugged":3424,"redient":3425,"Ġingredient":3426,"Ġcreate":3427,"Ġyarn":3428,"Ġclumsy":3429,"Ġsleeping":3430,"ĠGrandpa":3431,"Ġsearching":3432,"Ġrushed":3433,"Ġstairs":3434,"ilty":3435,"Ġwealthy":3436,"Ġstupid":3437,"Ġprep":3438,"ĠWhenever":3439,"Ġguilty":3440,"Ġtelling":3441,"Ġpeanut":3442,"Ġcheap":3443,"Ġspaghetti":3444,"Ġgoose":3445,"ophie":3446,"ÅĵWhat":3447,"Ġchar":3448,"Ġflex":3449,"Ġmask":3450,"ations":3451,"Ġcompass":3452,"Ġrub":3453,"Ġpatch":3454,"Ġmagn":3455,"Ġengine":3456,"ĠFr":3457,"Ġstat":3458,"Ġopens":3459,"Ġarrow":3460,"Ġzebra":3461,"Ġsquare":3462,"io":3463,"illa":3464,"Ġknock":3465,"Ġthunder":3466,"eezed":3467,"irsty":3468,"Ġumbrella":3469,"Ġcur":3470,"Ġangel":3471,"Ġcamera":3472,"ĠMike":3473,"Ġcrazy":3474,"cod":3475,"Ġdriving":3476,"Ġgraceful":3477,"Go":3478,"âĤ¬âĢ":3479,"Ġshiver":3480,"Ġbeet":3481,"Ġwashed":3482,"Ġpopular":3483,"Ġbull":3484,"Ġcarrying":3485,"Ġdull":3486,"Ġstage":3487,"umbers":3488,"isk":3489,"Ġmissing":3490,"ĠDucky":3491,"Ġsparkled":3492,"ÅĵIt":3493,"Mary":3494,"fa":3495,"Ġfriendship":3496,"Ġtruth":3497,"Ġmeal":3498,"Ġseeds":3499,"Ġflexible":3500,"Ġcomb":3501,"Ġimpressive":3502,"Ġtied":3503,"Ġlibrary":3504,"Ġsne":3505,"time":3506,"Ġpebble":3507,"Ġcareless":3508,"uper":3509,"Ġjacket":3510,"Ġpatter":3511,"Ġdeliver":3512,"Ġimagined":3513,"Ġshel":3514,"Ġnature":3515,"Ġpersist":3516,"Ġending":3517,"Ġreward":3518,"ision":3519,"Ġdestro":3520,"Ġhandle":3521,"Ġrubbed":3522,"Ġfresh":3523,"Ġingredients":3524,"Ġdreaming":3525,"Ġshocked":3526,"ric":3527,"Ġload":3528,"Ġprize":3529,"Ġsudden":3530,"ĠDave":3531,"Ġcrocod":3532,"oomy":3533,"Ġpattern":3534,"ief":3535,"Ġpige":3536,"Ġcompassion":3537,"ibb":3538,"Ġenth":3539,"Ġflashlight":3540,"Ġsadly":3541,"Ġthirsty":3542,"Ġenvel":3543,"ĠFin":3544,"Ġencou":3545,"Ġstranger":3546,"ince":3547,"ÅĵLetÃ¢":3548,"Ġenthus":3549,"Ġwheels":3550,"ement":3551,"Ġfork":3552,"arsh":3553,"Ġdiscover":3554,"Ġtem":3555,"Ġreading":3556,"Ġnumbers":3557,"Ġdesk":3558,"Ġearly":3559,"Ġsuit":3560,"Ġwire":3561,"Ġpenny":3562,"Ġpeeked":3563,"Ġbutterflies":3564,"Ġmailbox":3565,"Ġcryst":3566,"Ġspilled":3567,"awn":3568,"Ġgum":3569,"Ġbracelet":3570,"Ġtorn":3571,"loo":3572,"Ġrug":3573,"Ġstops":3574,"Ġenv":3575,"Ġrece":3576,"Ġcomput":3577,"bled":3578,"Ġahead":3579,"Ġsurf":3580,"Ġspring":3581,"Ġanx":3582,"Ġsorts":3583,"ĠBear":3584,"ellig":3585,"comfort":3586,"Ġcere":3587,"Ġorder":3588,"Ġobject":3589,"Ġtowers":3590,"Ġbent":3591,"Ġwarned":3592,"Ġwing":3593,"Ġpengu":3594,"Ġhumble":3595,"Ġintellig":3596,"ĠWhile":3597,"Ġearth":3598,"Ġpup":3599,"Ġspoke":3600,"ĠMummy":3601,"gest":3602,"Ġwindows":3603,"ĠMandy":3604,"Ġuncomfort":3605,"Ġplaced":3606,"Ġavo":3607,"Ġpow":3608,"iches":3609,"Ow":3610,"Ġuncomfortable":3611,"Ġpant":3612,"Ġtravel":3613,"Yay":3614,"Ġpale":3615,"Ġbadly":3616,"Ġnote":3617,"Ġanxious":3618,"Ġsunflower":3619,"Ġslides":3620,"Ġolder":3621,"Ġtrap":3622,"Ġbiggest":3623,"Ġscale":3624,"Ġcompl":3625,"ikes":3626,"Ġflute":3627,"Ġstack":3628,"ĠcouldnÃ¢":3629,"Ġscoot":3630,"Ġstatue":3631,"Ġgrowing":3632,"ĠPe":3633,"Ġcounting":3634,"Ġcooking":3635,"Ġbeetle":3636,"Ġtunnel":3637,"Ġcelebrate":3638,"Ġcomplet":3639,"Ġliz":3640,"Ġmel":3641,"host":3642,"ĠBill":3643,"Ġsofa":3644,"Ġcupboard":3645,"Ġharmless":3646,"Ġmush":3647,"Ġnail":3648,"Ġscatter":3649,"Ġmole":3650,"ĠKim":3651,"Ġbeauty":3652,"Ġsuper":3653,"Ġvalue":3654,"Ġnurse":3655,"Ġperm":3656,"Ġdeaf":3657,"Ġpersistent":3658,"While":3659,"Ġer":3660,"Ġhung":3661,"Ġshut":3662,"Ġjumps":3663,"Ġcrocodile":3664,"ĠHere":3665,"Ġcrane":3666,"Ġghost":3667,"Ġgifted":3668,"Ġtrick":3669,"Ġcharming":3670,"Ġrefused":3671,"ĠGive":3672,"Ġneat":3673,"Ġnames":3674,"Ġcourage":3675,"Ġyawn":3676,"Ġcurt":3677,"Ġflour":3678,"ĠLola":3679,"cream":3680,"Ġraven":3681,"opus":3682,"Ġcereal":3683,"Ġbase":3684,"Ġpony":3685,"ctopus":3686,"Ġtur":3687,"ices":3688,"Ġsandwiches":3689,"ĠToby":3690,"Ġpretending":3691,"Ġcurtain":3692,"Ġsupport":3693,"Ġsnuggled":3694,"Ġordinary":3695,"ud":3696,"Ġdestroy":3697,"Ġchasing":3698,"aid":3699,"Ġuniver":3700,"Ġquestion":3701,"aches":3702,"ĠLook":3703,"Ġtriang":3704,"Ġenvelope":3705,"Ġdrawer":3706,"Daisy":3707,"Ġsett":3708,"Ġcamp":3709,"used":3710,"Ġcomputer":3711,"Ġcrawl":3712,"aby":3713,"Ġlively":3714,"Ġvi":3715,"Ġsend":3716,"Ġattract":3717,"Ġrules":3718,"Ġoctopus":3719,"Alice":3720,"Ġgloomy":3721,"Ġcartoon":3722,"Ġintelligent":3723,"Ġuncle":3724,"Ġmay":3725,"ips":3726,"Ġpiano":3727,"Ġspeed":3728,"Ġcrystal":3729,"Ġcollar":3730,"Ġturkey":3731,"Ġpackage":3732,"Ġshaking":3733,"Ġhelmet":3734,"cu":3735,"Ġparade":3736,"Ġblueber":3737,"Ġmushroom":3738,"uddy":3739,"Ġneedle":3740,"Ġcreatures":3741,"ĠEventually":3742,"oe":3743,"Ġphot":3744,"Ġtwirled":3745,"Ġhurry":3746,"heart":3747,"aff":3748,"illie":3749,"stri":3750,"Re":3751,"ÅĵThat":3752,"enry":3753,"Ġlizard":3754,"ubby":3755,"erable":3756,"orant":3757,"ceed":3758,"Ġalert":3759,"Ġtask":3760,"gust":3761,"Ġsoldier":3762,"Ġthief":3763,"Ġstation":3764,"Ġmiserable":3765,"arlie":3766,"Ġpepper":3767,"Ġfireman":3768,"Ġhunter":3769,"Ġbicy":3770,"Ġdisgust":3771,"Ġanywhere":3772,"Ġdug":3773,"cut":3774,"Ġcarp":3775,"Ġener":3776,"iest":3777,"Ġseal":3778,"Ġresist":3779,"Ġwishes":3780,"Ġled":3781,"Ġvide":3782,"coa":3783,"Ġignorant":3784,"Ġbeep":3785,"Ġbandage":3786,"Ġstickers":3787,"Ġhelpless":3788,"Ġbounced":3789,"Ġscreen":3790,"Ġrepe":3791,"tter":3792,"Give":3793,"Ġradio":3794,"Ġtrash":3795,"Ġpracticed":3796,"Ġsecond":3797,"Ġshine":3798,"Ġmuff":3799,"Ġleash":3800,"Ġchance":3801,"Ġimpat":3802,"Ġletters":3803,"Ġmill":3804,"Ġattractive":3805,"Ġtooth":3806,"Ġcube":3807,"Ġstretched":3808,"Ġstirred":3809,"Ġnobody":3810,"Ġthread":3811,"ummer":3812,"Ġchubby":3813,"urb":3814,"Ġpand":3815,"Ġcricket":3816,"Ġpasta":3817,"Ġjeep":3818,"Ġpigeon":3819,"Ġcompassionate":3820,"If":3821,"Benny":3822,"Ġjet":3823,"Ġfu":3824,"Ġgir":3825,"ses":3826,"Ġtrump":3827,"ĠGeorge":3828,"Ġdecorate":3829,"ĠCl":3830,"arian":3831,"Ġtire":3832,"Ġcocoa":3833,"orable":3834,"Ġbrighter":3835,"Ġclub":3836,"Ġdisturb":3837,"Ġsteps":3838,"ccol":3839,"Ġsucceed":3840,"ĠPolly":3841,"Ġimpatient":3842,"ccoli":3843,"Ġcompetitive":3844,"Ġrespectful":3845,"Ġfurther":3846,"Ġjug":3847,"Ġotter":3848,"Ġtroubled":3849,"Ġitself":3850,"Ġpressed":3851,"aked":3852,"noon":3853,"Ġcandle":3854,"Ġbet":3855,"Ġafternoon":3856,"olin":3857,"Ġattic":3858,"Ġstarts":3859,"ĠAl":3860,"Ġostri":3861,"ĠWh":3862,"Ġmug":3863,"Ġpun":3864,"Ġrestless":3865,"Ġtap":3866,"Ġsomewhere":3867,"Ġcarpet":3868,"Ġribb":3869,"ĠAre":3870,"Ġshoe":3871,"Ġdisgusting":3872,"Ġdess":3873,"Ġtray":3874,"Ġwaff":3875,"Ġanyway":3876,"Ġquar":3877,"Ġallig":3878,"Ġadorable":3879,"stic":3880,"aurant":3881,"Ġvine":3882,"Ġskip":3883,"Ġfort":3884,"Ġshouts":3885,"Ġnuts":3886,"Ġgor":3887,"Ġleop":3888,"Ġcase":3889,"gn":3890,"Ġrestaurant":3891,"Ġfearful":3892,"Ġenvious":3893,"Ġpants":3894,"Ġscrew":3895,"come":3896,"opter":3897,"icopter":3898,"Ġsweetheart":3899,"Ġcards":3900,"Ġfilthy":3901,"Little":3902,"Ġdistant":3903,"iastic":3904,"Ġtrumpet":3905,"ĠSh":3906,"Ġenthusiastic":3907,"Ġexper":3908,"Ġgiggle":3909,"Ġhipp":3910,"Ġbroccoli":3911,"Ġcooked":3912,"Ġhelicopter":3913,"Ġmonkeys":3914,"aroo":3915,"angaroo":3916,"Grandma":3917,"Ġhook":3918,"night":3919,"Ġreco":3920,"Ġpor":3921,"gging":3922,"Ġsandbox":3923,"ĠWould":3924,"ĠWhere":3925,"ĠBrownie":3926,"irit":3927,"Ġten":3928,"Ġnowhere":3929,"Ġbackpack":3930,"Ġsoar":3931,"Ġadmire":3932,"Ġharsh":3933,"Ġsent":3934,"Ġbri":3935,"ĠLee":3936,"cycle":3937,"Ġbatht":3938,"Ġscooter":3939,"llie":3940,"Ġpipe":3941,"Ġexplain":3942,"Ġbelt":3943,"Ġmeas":3944,"gie":3945,"Ġbathtub":3946,"opl":3947,"Ġants":3948,"eropl":3949,"Ġcountry":3950,"Ġbarking":3951,"Ġkangaroo":3952,"Ġquite":3953,"Ġpoem":3954,"Ġunpack":3955,"par":3956,"Ġaeropl":3957,"stairs":3958,"Ġspeak":3959,"Ġcows":3960,"Ġspell":3961,"Ġtemp":3962,"Ġlid":3963,"Ġhappier":3964,"Ġleopard":3965,"Ġsquash":3966,"Ġbicycle":3967,"Ġrepair":3968,"imi":3969,"Ġmama":3970,"ĠEverything":3971,"Ġsepar":3972,"Ġlistening":3973,"Ġsummer":3974,"Ġcush":3975,"Ġstared":3976,"Ġfirework":3977,"Ġbreat":3978,"ĠAlex":3979,"Ġmessage":3980,"uct":3981,"ĠdidnÃ¢":3982,"Ġgrabs":3983,"Ġloop":3984,"Ġmule":3985,"Ġgiven":3986,"Ġcomet":3987,"Ġostrich":3988,"hood":3989,"Ġhuman":3990,"Ġgorilla":3991,"apa":3992,"Ġsort":3993,"Ġpaid":3994,"Ġimpro":3995,"Jenny":3996,"ĠJoey":3997,"Ġyogurt":3998,"year":3999,"Ġmodest":4000,"Ġfinds":4001,"Ġobser":4002,"Ġdessert":4003,"Ġmeat":4004,"ĠSophie":4005,"Ġalligator":4006,"Ġur":4007,"ipping":4008,"Ġhedge":4009,"Bye":4010,"Ġviolin":4011,"Ġmelon":4012,"Ġspirit":4013,"Ġjellyfish":4014,"shed":4015,"ĠSm":4016,"Everyone":4017,"Ġpulls":4018,"Ġsplit":4019,"Ġrescue":4020,"Ġtripped":4021,"ucked":4022,"Ġpaws":4023,"Ġprov":4024,"Ġsize":4025,"Ġfive":4026,"Ġwheat":4027,"Ġholes":4028,"Ġforgave":4029,"Ġroared":4030,"Ġcats":4031,"Ġpurse":4032,"ĠPat":4033,"ophone":4034,"Ġpilot":4035,"Ġrecogn":4036,"Daddy":4037,"Ġraft":4038,"Ġhippo":4039,"Ġhall":4040,"Ġtax":4041,"Ġcact":4042,"Ġsheet":4043,"Ġpushing":4044,"Ġswinging":4045,"Ġinse":4046,"Ġorganize":4047,"Ġbikes":4048,"Ġsle":4049,"ci":4050,"Ġpal":4051,"Ġscold":4052,"Ġbehave":4053,"Ġsalt":4054,"Ġrice":4055,"Ġshade":4056,"Ġstarting":4057,"Ġhaircut":4058,"Ġoat":4059,"Ġbin":4060,"Ġlightning":4061,"Ġtriangle":4062,"ĠTweetie":4063,"Ġbuzz":4064,"eer":4065,"Ġfle":4066,"Ġenergy":4067,"ĠSnow":4068,"bul":4069,"lcano":4070,"ÅĵYou":4071,"Ġriding":4072,"Ġped":4073,"aled":4074,"iskers":4075,"Ġbur":4076,"Ġporch":4077,"Ġfrowned":4078,"Ġknot":4079,"Ġeither":4080,"Ġlear":4081,"Ġmath":4082,"Ġlearnt":4083,"ebook":4084,"Ġlip":4085,"iling":4086,"Ġnotebook":4087,"seum":4088,"Ġtrains":4089,"Ġended":4090,"Ġwallet":4091,"inking":4092,"Ġchalk":4093,"Ġbananas":4094,"Ġlend":4095,"Ġluck":4096,"Ġcactus":4097,"reci":4098,"Ġevening":4099,"Ġpanda":4100,"Ġsticker":4101,"Ġsweater":4102,"Ġrod":4103,"Ġvolcano":4104,"Ġpapers":4105,"Ġmuseum":4106,"Ġjokes":4107,"Ġappreci":4108,"ube":4109,"Ġlions":4110,"Ġpalace":4111,"Ġboots":4112,"Ġtaxi":4113,"Ġstrawberry":4114,"Ġbears":4115,"Ġrolling":4116,"Ġneighbour":4117,"Ġchain":4118,"Ġshopkeeper":4119,"Ġmicr":4120,"Ġbarrel":4121,"Ġhadn":4122,"astic":4123,"Ġeras":4124,"ffe":4125,"Ġshakes":4126,"icer":4127,"ooped":4128,"Ġmild":4129,"Ġsilver":4130,"ffee":4131,"Ġlaund":4132,"urch":4133,"ĠRed":4134,"play":4135,"Ġreind":4136,"Ġalive":4137,"Ġsmells":4138,"ĠAndy":4139,"Ġlaundry":4140,"Ġsteak":4141,"Ġsock":4142,"Ġstrugg":4143,"iron":4144,"Ġpole":4145,"Ġgoal":4146,"ĠJerry":4147,"Ġavoc":4148,"Ġink":4149,"Ġmicrophone":4150,"Ġputting":4151,"Ġsoftly":4152,"Ġpushes":4153,"Ġvisited":4154,"Ġol":4155,"edy":4156,"Ġtricks":4157,"Ġclapping":4158,"ĠTr":4159,"Ġmagnet":4160,"Ġjudge":4161,"Ġdrawings":4162,"Ġshield":4163,"Ġpad":4164,"Ġfalling":4165,"Ġtube":4166,"Ġcolours":4167,"Ġsailor":4168,"Ġshovel":4169,"Ġleaned":4170,"Ġairport":4171,"Ġzoomed":4172,"Ġhive":4173,"Ha":4174,"Ġshelter":4175,"Ġbelongs":4176,"Ġambul":4177,"Ġunlock":4178,"Ġpenguin":4179,"aggie":4180,"Ġsprink":4181,"happy":4182,"Ġchecked":4183,"Ġinsist":4184,"Ġrag":4185,"Ġquarrel":4186,"Ġmarched":4187,"elery":4188,"Ġclimbing":4189,"hino":4190,"ĠBet":4191,"Ġdisplay":4192,"cast":4193,"Ġreindeer":4194,"Ġgro":4195,"Ġoy":4196,"ĠPaul":4197,"Ġsaus":4198,"Ġaeroplane":4199,"ense":4200,"Ġdishes":4201,"Ġavail":4202,"ophy":4203,"Ġdive":4204,"Ġpolish":4205,"ĠdonÃ¢":4206,"Ġambulance":4207,"Ġgrapes":4208,"Ġbarks":4209,"Ġfields":4210,"ges":4211,"Ġelev":4212,"Ġsandcast":4213,"Ġpeek":4214,"Ġapologized":4215,"Ġyach":4216,"ĠPapa":4217,"Ġcoffee":4218,"Ġtrophy":4219,"Ġskill":4220,"ait":4221,"sely":4222,"Ġcostume":4223,"Ġsoil":4224,"Ġhoping":4225,"anic":4226,"Ġplanet":4227,"Ġrubber":4228,"Ġfeelings":4229,"Ġunhappy":4230,"ĠBunny":4231,"ĠOr":4232,"Ġart":4233,"ron":4234,"Ġmedal":4235,"Ġelevator":4236,"Ġraining":4237,"chanic":4238,"Ġdrops":4239,"Ġfilm":4240,"Ġshrimp":4241,"Ġkitty":4242,"Ġrhino":4243,"nger":4244,"Ġprun":4245,"âĤ¬âĢľ":4246,"Ġavailable":4247,"Ġminute":4248,"Ġcord":4249,"Ġthanks":4250,"Ġstom":4251,"Ġmarry":4252,"Ġmen":4253,"Ġwool":4254,"Ġincl":4255,"ected":4256,"Ġfisher":4257,"Ġshouldn":4258,"Ġbasketball":4259,"Ġcelery":4260,"Ġherb":4261,"Ġbul":4262,"reeze":4263,"Ġonion":4264,"Ġshort":4265,"Ġperfectly":4266,"Ġyacht":4267,"Ġeraser":4268,"Ġmechanic":4269,"ĠBuddy":4270,"Ġpage":4271,"Ġimagine":4272,"Ġwinter":4273,"Ġrever":4274,"Ġflies":4275,"nam":4276,"Ġcomplete":4277,"Ġdiary":4278,"Ġappl":4279,"Ġclosely":4280,"Ġinsect":4281,"Ġmagaz":4282,"eath":4283,"Ġcardboard":4284,"ĠWill":4285,"Ġeagerly":4286,"Ġjournal":4287,"Ġplayer":4288,"Ġvend":4289,"ĠWhiskers":4290,"Ġbaking":4291,"Ġdisag":4292,"Ġfurn":4293,"iture":4294,"Ġquit":4295,"ĠSmith":4296,"Ġglove":4297,"Ġbulb":4298,"azz":4299,"Ġfurniture":4300,"Ġstuffed":4301,"Ġtreasures":4302,"Ġtub":4303,"gen":4304,"quit":4305,"Ġimagination":4306,"Ġbreaks":4307,"Ġskull":4308,"ecause":4309,"Ġheaded":4310,"Ġchurch":4311,"Ġwife":4312,"Ġfreez":4313,"Ġfrogs":4314,"Ġcooler":4315,"Ġpair":4316,"any":4317,"Ġcounter":4318,"Ġtut":4319,"Ġknob":4320,"mand":4321,"Ġpit":4322,"Ġswitch":4323,"ween":4324,"ories":4325,"stead":4326,"Ġfactor":4327,"Ġfootball":4328,"right":4329,"ifl":4330,"aulifl":4331,"Ġsym":4332,"Ġsunset":4333,"place":4334,"Ġoffer":4335,"ides":4336,"Ġbetween":4337,"Ġlie":4338,"Ġcheek":4339,"Ġmos":4340,"Ch":4341,"quito":4342,"Ġmotorcycle":4343,"Ġfactory":4344,"Ġcups":4345,"ĠTed":4346,"Ġswung":4347,"Ġchirp":4348,"Ġshouting":4349,"Ġflame":4350,"Ġtwink":4351,"Ġblowing":4352,"kelet":4353,"pe":4354,"Ġpeach":4355,"Ġsung":4356,"Ġcaulifl":4357,"Ġhut":4358,"..":4359,"Ġgolf":4360,"bol":4361,"nament":4362,"lass":4363,"Ġpainter":4364,"ĠMimi":4365,"Ġvendor":4366,"affe":4367,"Ġornament":4368,"Ġseeing":4369,"Ġvideo":4370,"Ġhotel":4371,"Ġmosquito":4372,"ccer":4373,"Ġfolder":4374,"Ġpirates":4375,"ab":4376,"izes":4377,"Ġcushion":4378,"Ġcoal":4379,"Ġcreated":4380,"Ġkay":4381,"Ġthrows":4382,"Ġsymbol":4383,"Ġmixer":4384,"Ġheads":4385,"Ġoil":4386,"Ġframe":4387,"orses":4388,"Ġfisherman":4389,"mm":4390,"ĠMaria":4391,"ĠBaby":4392,"ĠBun":4393,"angu":4394,"zzy":4395,"Ġsoccer":4396,"ceros":4397,"Ġpopped":4398,"Ġcable":4399,"Ġskelet":4400,"Ġcauliflower":4401,"Ġpine":4402,"Ġbattery":4403,"ef":4404,"Ġhorses":4405,"Ġattention":4406,"Ġwipe":4407,"Ġlangu":4408,"Ġstud":4409,"Ġforgotten":4410,"Ġlaser":4411,"Ġlives":4412,"Ġweather":4413,"Ġax":4414,"Ġcelebrated":4415,"osie":4416,"Ġpowder":4417,"rod":4418,"ĠLilly":4419,"render":4420,"Ġmop":4421,"Ġtrail":4422,"Ġsince":4423,"ĠGod":4424,"Ġfishing":4425,"Ġrot":4426,"aws":4427,"ĠIÃ¢":4428,"Ġphoto":4429,"Ġsurround":4430,"Ġmaze":4431,"Ġslept":4432,"ites":4433,"elcome":4434,"Ġwaving":4435,"ĠRo":4436,"Ġyoga":4437,"Ġrhinoceros":4438,"unately":4439,"Ġsneak":4440,"Ġanch":4441,"Ġdear":4442,"ĠGrace":4443,"Ġintrod":4444,"Ġgiraffe":4445,"Ġpoke":4446,"Inside":4447,"Ġswamp":4448,"Ġpoints":4449,"Ġflea":4450,"Ġitch":4451,"lasses":4452,"Ġbreeze":4453,"Ġpoint":4454,"Ġglowing":4455,"Ġfireplace":4456,"ĠitÃ¢":4457,"ney":4458,"Ġsunglasses":4459,"Your":4460,"ĠCharlie":4461,"Ġkingdom":4462,"Ġvet":4463,"Ġsub":4464,"Ġiron":4465,"Ġtutor":4466,"Ġmemories":4467,"Ġstreng":4468,"ĠAnnie":4469,"spap":4470,"Ġpetals":4471,"Ġvest":4472,"Ġreve":4473,"Ġtuna":4474,"Ġparent":4475,"Ġaxe":4476,"Ġcomplain":4477,"Ġmistakes":4478,"Ġbaseball":4479,"Ġnewspap":4480,"Ġdancer":4481,"hero":4482,"Ġceiling":4483,"Ġfog":4484,"Ġig":4485,"ĠSandy":4486,"Ġchickens":4487,"Ġgreedy":4488,"rosc":4489,"Ġstrength":4490,"ckey":4491,"Ġsquirrels":4492,"Ġigloo":4493,"Ġhockey":4494,"Ġskeleton":4495,"Ġgrin":4496,"Ġanchor":4497,"Ġsir":4498,"ues":4499,"Ġsuperhero":4500,"Ġgolden":4501,"Ġargue":4502,"Ġsniffed":4503,"Ġnapkin":4504,"Ġgrocer":4505,"Eventually":4506,"chie":4507,"Ġmusician":4508,"ĠTony":4509,"roscope":4510,"ĠUn":4511,"Ġtrave":4512,"Ġtemple":4513,"Ġstaff":4514,"Ġhanging":4515,"medi":4516,"Ġunif":4517,"Ġskirt":4518,"Ġbury":4519,"Ġagree":4520,"mediately":4521,"Ġsque":4522,"Ġdiscu":4523,"Ġuniform":4524,"Ġeaten":4525,"Ġtheater":4526,"Ġmeeting":4527,"Ġmicroscope":4528,"ĠJess":4529,"istol":4530,"Thanks":4531,"Ġslipper":4532,"Ġwelcomed":4533,"Ġzipper":4534,"Ġshoulder":4535,"Ġinvest":4536,"ssible":4537,"Ġquietly":4538,"Ġseas":4539,"Ġpistol":4540,"Ġlime":4541,"Ġpinch":4542,"Ġflapped":4543,"chair":4544,"Ġinvestig":4545,"Ġslippery":4546,"Ġminer":4547,"erc":4548,"Ġfought":4549,"Ġradish":4550,"Ġaccepted":4551,"reek":4552,"Ġthrowing":4553,"Ġdoors":4554,"Ġbouncing":4555,"ĠInstead":4556,"men":4557,"Ġplastic":4558,"Today":4559,"house":4560,"Ġcob":4561,"Ġcalls":4562,"Ġsticky":4563,"Ġcreek":4564,"Emma":4565,"tress":4566,"Ġpear":4567,"Ġmattress":4568,"Qu":4569,"Ġkayak":4570,"tain":4571,"Ġsurrender":4572,"Ġmoves":4573,"ĠHenry":4574,"aces":4575,"Ġnovel":4576,"alley":4577,"Ġvroom":4578,"Wait":4579,"Ġcub":4580,"Ġcared":4581,"Ġfreezer":4582,"Ġlawy":4583,"Ġsuff":4584,"ler":4585,"Ġavocado":4586,"ison":4587,"aud":4588,"Ġlotion":4589,"ĠMillie":4590,"case":4591,"Ġwriting":4592,"Ġreef":4593,"Ġfauc":4594,"Ġnews":4595,"te":4596,"Ġoyster":4597,"was":4598,"inked":4599,"Ġarmchair":4600,"web":4601,"Ġvalley":4602,"Ġmakeup":4603,"Ġinvestigate":4604,"anny":4605,"Ġsailing":4606,"Ġmystery":4607,"Ġtug":4608,"Ġregret":4609,"Ġcherries":4610,"Ġcrib":4611,"Ġexerc":4612,"Ġfaucet":4613,"washer":4614,"imney":4615,"Ġworth":4616,"Ġsplashing":4617,"Ġticket":4618,"Ġtoil":4619,"Ġcollected":4620,"ĠKate":4621,"Ġsprayed":4622,"Together":4623,"Ġagre":4624,"Ġmagazine":4625,"Ġchimney":4626,"Ġpresents":4627,"Ġprevent":4628,"Ġwags":4629,"Ġcobweb":4630,"Next":4631,"Ġhappens":4632,"Ġdishwasher":4633,"ÅĵItÃ¢":4634,"Ġpassport":4635,"Ġentered":4636,"Ġquack":4637,"Ġtear":4638,"Ġcastles":4639,"Ġscolded":4640,"Ġveil":4641,"Ġshrugged":4642,"Sammy":4643,"Ġhar":4644,"Ġseparate":4645,"Ġapplaud":4646,"Ġweigh":4647,"ives":4648,"Ġtoilet":4649,"Ġchess":4650,"lend":4651,"Ġalarm":4652,"Ġblankets":4653,"Ġrake":4654,"Ġtucked":4655,"Ġignored":4656,"ĠDanny":4657,"Ġchoice":4658,"eve":4659,"Ġlawyer":4660,"Ġcoats":4661,"ived":4662,"Ġkisses":4663,"Ġcandles":4664,"Ġclassroom":4665,"ĠRu":4666,"Ġpuddles":4667,"Ġhopes":4668,"Ġattach":4669,"Ġappro":4670,"Ġfollows":4671,"Ġeasily":4672,"ety":4673,"Ġapart":4674,"ring":4675,"sit":4676,"Ġbeef":4677,"Ġdisappear":4678,"Ġchairs":4679,"Ġburned":4680,"Ġbother":4681,"Ġstraight":4682,"Ġletting":4683,"Ġyield":4684,"ĠNext":4685,"eterin":4686,"eterinarian":4687,"Ġcane":4688,"Ġdressed":4689,"Ġtrusted":4690,"Ġveterinarian":4691,"Ġraz":4692,"Ġward":4693,"Ġsizes":4694,"Ġteleph":4695,"Ġlanguage":4696,"Ġcaring":4697,"Ġblinked":4698,"ĠSu":4699,"raged":4700,"atched":4701,"Ġrise":4702,"Ġjewelry":4703,"Ġplanes":4704,"iday":4705,"Ġwardrobe":4706,"Ann":4707,"Ġrequ":4708,"Ġshower":4709,"Ġkeeping":4710,"Ġoak":4711,"vision":4712,"Ġstable":4713,"ĠHarry":4714,"Ġmissile":4715,"Ġcrossed":4716,"Ġlawn":4717,"Ġnewspaper":4718,"Ġclaws":4719,"Ġtelephone":4720,"Ġbookshe":4721,"Mandy":4722,"Ġcabinet":4723,"Ġstro":4724,"Ġpuzzles":4725,"rs":4726,"Ġsigh":4727,"Ġtrade":4728,"mend":4729,"Ġrooms":4730,"Ġcell":4731,"ival":4732,"Ġaut":4733,"Ġincre":4734,"Ġinf":4735,"una":4736,"Ġscratch":4737,"Ġtornado":4738,"Ġwhisper":4739,"ĠMiss":4740,"Ġsnap":4741,"Ġbookcase":4742,"anges":4743,"Ġamazement":4744,"Ġblueberries":4745,"ampoo":4746,"ction":4747,"Ġsqueezed":4748,"ommend":4749,"Because":4750,"Ġbookshelf":4751,"Ġperfu":4752,"Ġrecommend":4753,"ĠRosie":4754,"Ġdelay":4755,"Ġopera":4756,"Ġpra":4757,"Ġsubway":4758,"atie":4759,"Ġgrill":4760,"Ġgym":4761,"Ġrazor":4762,"ĠAb":4763,"Ġtelevision":4764,"Ġrequest":4765,"ĠSee":4766,"ggy":4767,"Ġpur":4768,"Ġcrawling":4769,"Ġpoked":4770,"ĠHelp":4771,"omes":4772,"iction":4773,"âĤ¬.":4774,"Ġbill":4775,"Ġfollowing":4776,"Ġhol":4777,"Ġblouse":4778,"Ġspear":4779,"Ġmint":4780,"Ġexperience":4781,"ĠTrue":4782,"Ġlicks":4783,"Ġsqueeze":4784,"Ġfile":4785,"Ġholiday":4786,"Ġlumber":4787,"Ġshampoo":4788,"Ġsteam":4789,"Ġdemand":4790,"Ġcrow":4791,"ictionary":4792,"Ġimprove":4793,"Ġserve":4794,"fortunately":4795,"Ġringing":4796,"Ġcliff":4797,"Ġribbon":4798,"Ġperfume":4799,"Is":4800,"Ġimmediately":4801,"ah":4802,"Ġhelper":4803,"Ġfest":4804,"Ġmuffin":4805,"bbie":4806,"Ġdictionary":4807,"Ġgrowled":4808,"Ġbegged":4809,"Ġshrink":4810,"Ġisn":4811,"Ġmatches":4812,"Ġideas":4813,"Ġwarmth":4814,"Ġprop":4815,"ib":4816,"Ġmustache":4817,"Ġblood":4818,"Ġwaste":4819,"Ġbirdc":4820,"Ġsneeze":4821,"Ġinvite":4822,"hic":4823,"Ġvehic":4824,"ups":4825,"ores":4826,"uckily":4827,"ĠJul":4828,"Ġrabbits":4829,"Ġbirdcage":4830,"Ġalright":4831,"Ġgear":4832,"Ġfuel":4833,"Ġweep":4834,"Ġmarried":4835,"Ġyucky":4836,"Ġinstr":4837,"Ġflutter":4838,"Ġfallen":4839,"asis":4840,"ĠRe":4841,"Ġcalend":4842,"Ġberry":4843,"Ġrefre":4844,"Ġrow":4845,"Ġrail":4846,"lier":4847,"Did":4848,"Ġpastry":4849,"Ġworms":4850,"Ġlaught":4851,"Ġbravely":4852,"Ġbelow":4853,"ucture":4854,"Ġwigg":4855,"Ġkneel":4856,"Ġstructure":4857,"ĠClara":4858,"Ġwandered":4859,"Ġsurprises":4860,"Will":4861,"Ġble":4862,"ising":4863,"Ġunderstanding":4864,"Ġpages":4865,"Ġhurting":4866,"Ġlaughter":4867,"Ġdire":4868,"Ġoasis":4869,"Ġcalendar":4870,"Ġairpl":4871,"Ġdrain":4872,"Ok":4873,"Ġhearts":4874,"omeday":4875,"Ġenter":4876,"Ġitem":4877,"inky":4878,"ĠIs":4879,"asp":4880,"Ġharb":4881,"omob":4882,"Ġcrash":4883,"Ġsafety":4884,"Ġapron":4885,"Ġfloat":4886,"Ġreaches":4887,"Ġburied":4888,"ÅĵNo":4889,"Ġbathe":4890,"Ġautomob":4891,"Ġadmir":4892,"Ġcaptain":4893,"achel":4894,"Ġjunk":4895,"Ġroot":4896,"Ġstrawberries":4897,"Ġrelaxed":4898,"Ġbuckle":4899,"Ġmyself":4900,"Ġsandcastle":4901,"htray":4902,"Ġignore":4903,"Ġskills":4904,"oral":4905,"Ġplates":4906,"Lisa":4907,"Welcome":4908,"Ġwhip":4909,"ĠFo":4910,"'ve":4911,"Ġmoments":4912,"Ġashtray":4913,"Ġspade":4914,"Ġreverse":4915,"icing":4916,"ari":4917,"Ġfestival":4918,"ĠWho":4919,"ĠKing":4920,"Ġquiz":4921,"'.":4922,"riger":4923,"cakes":4924,"Ġbeamed":4925,"Ġrefriger":4926,"Ġsnapped":4927,"Ġraise":4928,"Ġsomeday":4929,"Ġrefrigerator":4930,"Ġreceived":4931,"Yuck":4932,"Ġearlier":4933,"Ġtong":4934,"ĠFreddy":4935,"Ġvac":4936,"Ġmodel":4937,"Ġweap":4938,"Ġteaching":4939,"ĠPeople":4940,"Ġmass":4941,"Ġlic":4942,"Ġharbor":4943,"Ġsaving":4944,"aped":4945,"ĠSnowy":4946,"Ġvanished":4947,"Ġsparkling":4948,"Ġinsisted":4949,"Ġspots":4950,"Ġbumped":4951,"Ġsocks":4952,"ĠIts":4953,"Ġthumb":4954,"anna":4955,"Ġsupply":4956,"xy":4957,"ission":4958,"Ġdried":4959,"Ġprepare":4960,"Ġtoes":4961,"igail":4962,"Ġjewels":4963,"Ġjail":4964,"Ġbalan":4965,"Ġblackboard":4966,"Ġspending":4967,"Ġscattered":4968,"ĠBefore":4969,"Ġscooped":4970,"Ġsettled":4971,"Ġsparkle":4972,"Ġpermission":4973,"amber":4974,"Ġknown":4975,"ctly":4976,"ĠMay":4977,"Ġbreathe":4978,"Ġboot":4979,"Ġyawned":4980,"Ġachie":4981,"With":4982,"Ġdestroyed":4983,"Ġwaffle":4984,"ĠJames":4985,"Ġres":4986,"Ġtease":4987,"Ġhardly":4988,"antly":4989,"Ġreplace":4990,"Ġbathrobe":4991,"Ġencouraged":4992,"Ġremain":4993,"Ġdare":4994,"Ġdecorations":4995,"Ġlemonade":4996,"Ġpride":4997,"sters":4998,"Ġremove":4999,"Ġpulling":5000,"Ġhanger":5001,"ops":5002,"Ġsits":5003,"ĠHave":5004,"Peter":5005,"Ġcuddled":5006,"avid":5007,"Ġhate":5008,"Ġdaisy":5009,"Ġbeans":5010,"Ġrespons":5011,"Ġsimp":5012,"Ġport":5013,"izard":5014,"Ġlicense":5015,"sing":5016,"Ġchirping":5017,"Ġpraised":5018,"reat":5019,"ents":5020,"Ġhits":5021,"Ġsuffer":5022,"Ġpatiently":5023,"xture":5024,"Ġbuzzing":5025,"Ġfastest":5026,"Ġmention":5027,"Ġequ":5028,"Ġdresses":5029,"Ġrhy":5030,"sity":5031,"nies":5032,"osed":5033,"Ġmall":5034,"Ġbleed":5035,"Ġappreciate":5036,"Ġdestination":5037,"Ġhomes":5038,"Ġtaller":5039,"Ġpoppy":5040,"Ġnation":5041,"Ġflav":5042,"Ġautomobile":5043,"Ġdigg":5044,"Ġguy":5045,"ium":5046,"Ġwine":5047,"Ġpalm":5048,"Ġclimbs":5049,"Ġbelieved":5050,"Ġwashing":5051,"Mmm":5052,"Ġglo":5053,"Ġdigging":5054,"Emily":5055,"Ġshot":5056,"Ġhesit":5057,"All":5058,"fied":5059,"Ġinfant":5060,"Ġapproached":5061,"Ġlabel":5062,"Ġdeeper":5063,"Ġtore":5064,"Ġnone":5065,"Ġchamber":5066,"Ġscore":5067,"Ġrestore":5068,"Ġmitten":5069,"ude":5070,"Ġhers":5071,"ĠOllie":5072,"ĠTina":5073,"Ġstruggling":5074,"Ġdifferen":5075,"Ġsausage":5076,"Ġheat":5077,"rm":5078,"Ġpillows":5079,"Ġpunish":5080,"Ġhills":5081,"Ġtongue":5082,"Ġhurric":5083,"Ġsneezed":5084,"Ġwizard":5085,"Ġsport":5086,"Ġbillboard":5087,"Ġbrain":5088,"Ġprovide":5089,"ĠEach":5090,"Jake":5091,"Ġdiscuss":5092,"Ġthrilled":5093,"Ġawe":5094,"Ġupstairs":5095,"Ġwarning":5096,"Ġpanic":5097,"Ġtwisted":5098,"Ġuniverse":5099,"Ġglowed":5100,"Ġvacation":5101,"Ġparts":5102,"Ġsolved":5103,"Ġworse":5104,"Ġcrunch":5105,"Ġpoison":5106,"Ġfiref":5107,"Ġtherm":5108,"osity":5109,"Ġairplane":5110,"Ġsetting":5111,"Ġevent":5112,"Ġshed":5113,"ĠCo":5114,"bey":5115,"allen":5116,"Mark":5117,"Ġtour":5118,"Ġplays":5119,"Ġexamine":5120,"Ġranch":5121,"Ġremained":5122,"Ġsparkles":5123,"Ġneighborhood":5124,"Ġhurricane":5125,"Ġfloated":5126,"Ġinvit":5127,"Ġthermomet":5128,"Ġchallen":5129,"Ġshooting":5130,"Ġchores":5131,"Ġoranges":5132,"Ġsty":5133,"thm":5134,"Ġweeks":5135,"ĠMaggie":5136,"Ġleak":5137,"Ġuniversity":5138,"ĠBetsy":5139,"Ġrepeat":5140,"ĠEveryday":5141,"Ġbites":5142,"Ġpaints":5143,"Ġthermometer":5144,"These":5145,"adium":5146,"Ġbang":5147,"Ġfixing":5148,"Ġfloating":5149,"Ġmeasured":5150,"ging":5151,"Sh":5152,"Ġsupposed":5153,"Ġstadium":5154,"Ġduring":5155,"Ġgrinned":5156,"Ġsurrounded":5157,"!\",":5158,"!'":5159,"Ġrhythm":5160,"aspoon":5161,"Ġpaused":5162,"do":5163,"Ġconf":5164,"Fl":5165,"Ġbrings":5166,"Ġfut":5167,"Ġcherry":5168,"Ġmassage":5169,"Ġgifts":5170,"Ġfasc":5171,"Ġfuture":5172,"Ġsigns":5173,"Ġmarbles":5174,"Ġsprinkles":5175,"Ġcollection":5176,"Ġteaspoon":5177,"Ġgrey":5178,"bbles":5179,"Ġjazz":5180,"ÅĵIÃ¢":5181,"Ġmemory":5182,"Jen":5183,"rise":5184,"Not":5185,"ĠBuzz":5186,"Ġflood":5187,"Ġstomach":5188,"Ġwisdom":5189,"emember":5190,"Ġdiscovery":5191,"Ġactually":5192,"Would":5193,"Ġgust":5194,"Ġinclud":5195,"Ġvehicle":5196,"Ġsew":5197,"ishing":5198,"Ġtide":5199,"Ġlily":5200,"Ġgirls":5201,"Ġsunrise":5202,"ĠGood":5203,"ĠLiz":5204,"vet":5205,"Ġmeowed":5206,"ls":5207,"Ġelephants":5208,"ÅĵThatÃ¢":5209,"Ġchewed":5210,"Ġexercise":5211,"Ġurge":5212,"Ġrush":5213,"Ġmailman":5214,"Ġlugg":5215,"ero":5216,"Ġdecision":5217,"umble":5218,"Ġstrang":5219,"Ġobserve":5220,"Ġweapon":5221,"Ġunite":5222,"Ġluggage":5223,"Ġfascin":5224,"Ġscur":5225,"iers":5226,"Ġpossible":5227,"ĠLater":5228,"Ġcartoons":5229,"Ġsore":5230,"Ġtoe":5231,"Ġtomatoes":5232,"Ġfolded":5233,"Ġcurled":5234,"allow":5235,"Ġgrape":5236,"ĠRuby":5237,"Ġmelted":5238,"Ġrust":5239,"Ġsip":5240,"cles":5241,"ĠV":5242,"Ġsunlight":5243,"Ġchirped":5244,"ities":5245,"Ġcollecting":5246,"Ġspill":5247,"Ġcakes":5248,"uing":5249,"Ġmineral":5250,"Ġx":5251,"ĠRachel":5252,"Ġbrus":5253,"son":5254,"Ġdifference":5255,"eed":5256,"ĠJoy":5257,"Ġjogging":5258,"Ġproblems":5259,"Ġtracks":5260,"Ġwherever":5261,"Ġbes":5262,"Le":5263,"eration":5264,"Ġmountains":5265,"Ġbak":5266,"Johnny":5267,"Al":5268,"Ready":5269,"Ġsliding":5270,"Ġmanage":5271,"ĠMe":5272,"etch":5273,"Ġlaid":5274,"ipment":5275,"Ġwatered":5276,"Ġlick":5277,"Ġadmiring":5278,"ĠSpike":5279,"Ġsatis":5280,"Ġcontain":5281,"cious":5282,"Ġpotatoes":5283,"Ġequipment":5284,"oved":5285,"Ġpetted":5286,"rr":5287,"Ġskipping":5288,"Ġpatterns":5289,"ĠSomeone":5290,"Ġtwigs":5291,"Ġkindly":5292,"Ġseats":5293,"Ġbricks":5294,"Ġsoldiers":5295,"Ex":5296,"Ġemer":5297,"bers":5298,"zag":5299,"Ġslice":5300,"Ġgloves":5301,"Ġreceive":5302,"joyed":5303,"Ġcontinue":5304,"unday":5305,"ddy":5306,"omas":5307,"Ġspaces":5308,"Ġlets":5309,"walk":5310,"Ġgain":5311,"Ġcopper":5312,"Ġstrangers":5313,"Ġkeeper":5314,"Ġordered":5315,"Ġoverjoyed":5316,"Ġgotten":5317,"Ġzipped":5318,"Ġwhistling":5319,"Ġwatches":5320,"mother":5321,"Ġpigs":5322,"Ġlands":5323,"Ġgaz":5324,"Ġbeside":5325,"ĠSunday":5326,"Ġsafari":5327,"ĠCat":5328,"ÅĵThank":5329,"Ġprayed":5330,"ĠSteve":5331,"Ġbeg":5332,"bbled":5333,"Ġpeered":5334,"Susie":5335,"Ġspit":5336,"Ġeff":5337,"Ġmarching":5338,"Ġinvitation":5339,"Ġours":5340,"Ġnetwork":5341,"ĠPenny":5342,"Ġsidewalk":5343,"ases":5344,"Ġearthqu":5345,"Ġeagle":5346,"igzag":5347,"Ġglitter":5348,"Ġacorns":5349,"Ġwooden":5350,"Ġdoggy":5351,"Ġdrinks":5352,"Ġdisagreed":5353,"irp":5354,"Ġweight":5355,"Ġweren":5356,"Ġgrocery":5357,"Ġnavy":5358,"Ġattached":5359,"Ġraised":5360,"Yum":5361,"loe":5362,"ĠLetÃ¢":5363,"Ġbeat":5364,"ĠPoppy":5365,"Ġcompany":5366,"ĠMilly":5367,"fy":5368,"Ouch":5369,"hest":5370,"Ġmister":5371,"Ġonwards":5372,"\",":5373,"Ġhappiest":5374,"Ġburning":5375,"Ġwre":5376,"Ġracing":5377,"Ġfed":5378,"Before":5379,"Moral":5380,"Ġspoons":5381,"Ġcrashed":5382,"Ġbrid":5383,"ĠSpark":5384,"seek":5385,"Ġcrunchy":5386,"ĠSharing":5387,"Ġpeanuts":5388,"Ġhist":5389,"ĠRa":5390,"Ġmeow":5391,"Ġwhistled":5392,"Ġhurried":5393,"nie":5394,"Ġprice":5395,"Ġaccom":5396,"Ġtremb":5397,"Ġbrick":5398,"Ġflap":5399,"Ġofficer":5400,"Ġrefreshed":5401,"Ġoperation":5402,"Ġscratched":5403,"Ġhistory":5404,"Ġpies":5405,"Ġworks":5406,"Ġclearing":5407,"ĠSad":5408,"Ġexa":5409,"Ġprepared":5410,"Ġfireworks":5411,"Ġbowed":5412,"Ġremem":5413,"amb":5414,"ÅĵWe":5415,"Ġlips":5416,"Ġescaped":5417,"aded":5418,"amie":5419,"Ġremembers":5420,"Really":5421,"Ġprune":5422,"Ġplanted":5423,"ĠChr":5424,"Ġtalent":5425,"Ġmenu":5426,"ĠKatie":5427,"Ġeasier":5428,"Ġdinosaurs":5429,"Ġbuildings":5430,"ĠAbigail":5431,"Ġbridges":5432,"Ġcomfy":5433,"Ġrevealed":5434,"Ġturning":5435,"Ro":5436,"Ġbye":5437,"Ġhated":5438,"ĠQu":5439,"Ġolive":5440,"Ġscreams":5441,"Ġbrand":5442,"ĠLuna":5443,"ĠZoe":5444,"Ġchat":5445,"Ġaccompl":5446,"Ġrecognized":5447,"Ġselling":5448,"Ġcrept":5449,"die":5450,"Ġwarn":5451,"Ġsnowball":5452,"Ġprecious":5453,"ĠNot":5454,"omething":5455,"ĠFro":5456,"Ġlandsc":5457,"Ġstrip":5458,"Ġpadd":5459,"Ġmuddy":5460,"Ġwid":5461,"xygen":5462,"Ġdrinking":5463,"Ġsings":5464,"Ġsettle":5465,"Ġearthquake":5466,"ecture":5467,"ĠRemy":5468,"ĠMat":5469,"Ġbeds":5470,"Ġsimple":5471,"Ġpupp":5472,"Ġeffort":5473,"Ġreminder":5474,"Ġslip":5475,"cc":5476,"Ġmeasuring":5477,"Ġlecture":5478,"Ġperched":5479,"Ġspaceship":5480,"Ġappear":5481,"Ġserved":5482,"Ġbones":5483,"Ġwonders":5484,"Ġvoices":5485,"ÅĵCan":5486,"Ġshadows":5487,"Ġwaits":5488,"Ġeveryday":5489,"Ġcuddle":5490,"Ġpedal":5491,"Ġresponsible":5492,"ffic":5493,"Ġvel":5494,"Ġcomforted":5495,"Ġcircus":5496,"Ġsoared":5497,"Ġvict":5498,"Ġrained":5499,"Ġagreement":5500,"Ġpitch":5501,"Ġobey":5502,"Ġanytime":5503,"Ġsucceeded":5504,"Ġallow":5505,"Ġzigzag":5506,"Ġtip":5507,"Ġcal":5508,"Ġfash":5509,"Ġtrapped":5510,"Ġwhatever":5511,"Ġtastes":5512,"Ġsecrets":5513,"Ġshopping":5514,"Ġvillag":5515,"Ġapologize":5516,"Ġlandscape":5517,"ĠDavid":5518,"Ġrang":5519,"Ġcutting":5520,"Ġvelvet":5521,"Ġpets":5522,"Ġprinter":5523,"Ġbun":5524,"Ġdisturbed":5525,"Ġtraffic":5526,"Ġitems":5527,"Ġbringing":5528,"Ġwaist":5529,"Ġsteel":5530,"Ġoats":5531,"Ġpracticing":5532,"Ġswims":5533,"Ġrested":5534,"Ġexactly":5535,"Ġvisiting":5536,"Luckily":5537,"Ġscoop":5538,"Ġolives":5539,"Ġactiv":5540,"Ġsisters":5541,"Ġcostumes":5542,"izing":5543,"annah":5544,"Ġanswers":5545,"ĠFrank":5546,"ien":5547,"mble":5548,"laire":5549,"Ġbrushed":5550,"Ġmouths":5551,"ishes":5552,"Ġstyle":5553,"Ġsoak":5554,"ĠPr":5555,"Ġfashion":5556,"Ġcuriosity":5557,"ĠSunny":5558,"neath":5559,"Ġrele":5560,"Ġoutdo":5561,"Ġbreaking":5562,"Ġowned":5563,"ĠNut":5564,"Ġladyb":5565,"Ġimage":5566,"ÅĵDon":5567,"Ġencourage":5568,"mare":5569,"Ġbeneath":5570,"Ġfascinated":5571,"Tweet":5572,"icorn":5573,"Ġknelt":5574,"Ġwaffles":5575,"oming":5576,"Ġvillagers":5577,"Ġunicorn":5578,"Ġunderground":5579,"Ġnails":5580,"iggy":5581,"Ġleather":5582,"terday":5583,"Ġsadness":5584,"Ġunlocked":5585,"Ġdied":5586,"enty":5587,"Ġcatching":5588,"Ġoxygen":5589,"ĠChirp":5590,"Ġgrandmother":5591,"Ġdownstairs":5592,"Ġrecognize":5593,"ĠItÃ¢":5594,"Ġcreation":5595,"Ġtremble":5596,"inda":5597,"Ġjogged":5598,"ĠJe":5599,"isten":5600,"Ġchef":5601,"Ġmonsters":5602,"Ġpupil":5603,"Ġeats":5604,"ik":5605,"Ġnightmare":5606,"ĠThese":5607,"Ġwanting":5608,"Ġdoctors":5609,"Ġcape":5610,"Ġstripes":5611,"Ġsoaring":5612,"ĠHowever":5613,"Ġblueberry":5614,"Ġstruggled":5615,"Ġfamil":5616,"ley":5617,"ĠBeth":5618,"Ġwondering":5619,"Ġbleeding":5620,"Ġpunished":5621,"Happy":5622,"Ġlemons":5623,"Ġgained":5624,"Ġplanned":5625,"Ġfetch":5626,"Ġnicer":5627,"ĠSomething":5628,"Ġmission":5629,"ayla":5630,"dam":5631,"Ġcaut":5632,"Ġherbs":5633,"Ġguessed":5634,"First":5635,"Ġdrag":5636,"Ġexamined":5637,"Ġstealing":5638,"Ġsitu":5639,"Ġarea":5640,"Ġsi":5641,"Ġmachines":5642,"Ġfreeze":5643,"ĠFirst":5644,"Ġcomple":5645,"uke":5646,"Ġargued":5647,"Ġintroduc":5648,"Ġstirring":5649,"Ġpiles":5650,"Ġchallenge":5651,"Sometimes":5652,"Ġripped":5653,"Ġsix":5654,"Ġbend":5655,"Ġfiremen":5656,"Un":5657,"Ġstudied":5658,"Ġtugged":5659,"ĠSuzy":5660,"Ġbare":5661,"Ġwagging":5662,"Ġzooming":5663,"Ġvictory":5664,"agull":5665,"Ġaccidents":5666,"ĠOw":5667,"Or":5668,"Ġsatisfied":5669,"Ġproperly":5670,"Ġbunnies":5671,"Ġinstruct":5672,"Dave":5673,"Ġwreck":5674,"Ġwinning":5675,"Ġkeys":5676,"ux":5677,"Ġshivering":5678,"looking":5679,"ĠUncle":5680,"ulu":5681,"Ġincrease":5682,"Ġtune":5683,"Ġexit":5684,"ding":5685,"Ġmice":5686,"Ġgathering":5687,"Ġloaded":5688,"Ġoutdoors":5689,"Ġteasing":5690,"Ġwinner":5691,"Ġfirefight":5692,"Ġseagull":5693,"Ġtwirling":5694,"Ġdecorated":5695,"uxu":5696,"Ġpeel":5697,"Ġslapped":5698,"Ġpearl":5699,"Ġneighbourhood":5700,"Ġsupplies":5701,"Ġsights":5702,"Ġunderneath":5703,"Ġdeser":5704,"Ġyelling":5705,"Ġpermit":5706,"Ġpancakes":5707,"usan":5708,"ĠKe":5709,"Ġpeaches":5710,"Ġtickets":5711,"Ġann":5712,"Ġrides":5713,"Ġbegin":5714,"Ġsiren":5715,"oh":5716,"Ġburrow":5717,"ena":5718,"ĠJan":5719,"Ġweighed":5720,"Ġmixing":5721,"Ġreleased":5722,"Fluffy":5723,"aky":5724,"ĠTw":5725,"Ġsneaked":5726,"Ġdraws":5727,"indy":5728,"Ġconfident":5729,".'":5730,"Ġrealize":5731,"ica":5732,"Ġinstructions":5733,"Ġluxu":5734,"ĠFloppy":5735,"Ġspiders":5736,"Ġcontro":5737,"Lola":5738,"Ġdam":5739,"shing":5740,"Ġintroduce":5741,"ĠNutty":5742,"Bella":5743,"Ġmuffins":5744,"Ġsolut":5745,"Ġpinched":5746,"Ġbudge":5747,"Ġzero":5748,"Cl":5749,"ĠletÃ¢":5750,"ĠRabbit":5751,"ĠLucky":5752,"Ġstudying":5753,"Ġcompetition":5754,"Ġloving":5755,"ĠJulie":5756,"Ġinch":5757,"ales":5758,"Ġprinted":5759,"Ġopin":5760,"Ġstruck":5761,"Ġbaked":5762,"Ġrelease":5763,"Ġbeha":5764,"Ġpockets":5765,"Ġshoulders":5766,"Ġbunch":5767,"ÅĵLook":5768,"Ġfrosting":5769,"Ġlines":5770,"ĠDid":5771,"ĠCoco":5772,"Ġdecides":5773,"Ġgiggling":5774,"Goodbye":5775,"Ġbroom":5776,"Ġemergen":5777,"Ġourselves":5778,"ĠLike":5779,"nes":5780,"Ġcones":5781,"Ġstamps":5782,"Ġpastel":5783,"Ġtravell":5784,"Ġweb":5785,"George":5786,"ĠOl":5787,"ÅĵHello":5788,"Ġstair":5789,"Ġladybug":5790,"ĠPip":5791,"ĠStop":5792,"Ġruler":5793,"Ġsides":5794,"bbing":5795,"Ġscurried":5796,"Ġmarks":5797,"Ġstitch":5798,"Ġgrant":5799,"Ġtim":5800,"oed":5801,"âĤ¬âĢĿ":5802,"ais":5803,"Mike":5804,"Ġstrings":5805,"Ġprunes":5806,"Mr":5807,"Andy":5808,"ednes":5809,"ednesday":5810,"Ġpoking":5811,"Teddy":5812,"Ġdrift":5813,"Ġpears":5814,"Ġrepeated":5815,"gers":5816,"Ġago":5817,"Ġkeeps":5818,"Ġclaps":5819,"ĠAm":5820,"ÅĵThis":5821,"anta":5822,"Ġcrowd":5823,"Ġstretching":5824,"ays":5825,"ĠThomas":5826,"Ye":5827,"low":5828,"Ġruin":5829,"Ġbrushes":5830,"kins":5831,"len":5832,"ĠHop":5833,"ĠBig":5834,"Ġdemanded":5835,"ira":5836,"Ġmentioned":5837,"Ġsting":5838,"Ġkicking":5839,"ody":5840,"Ġprints":5841,"Ġneighbors":5842,"Ġtonight":5843,"Ġtouching":5844,"ĠChirpy":5845,"ĠJosh":5846,"Ġmast":5847,"Ġsweeties":5848,"owers":5849,"Ġprotected":5850,"Ġwrites":5851,"uesday":5852,"va":5853,"ĠWednesday":5854,"jam":5855,"Ġyouth":5856,"Ġgoodnight":5857,"uctantly":5858,"Ġbuckets":5859,"Ġribbons":5860,"ashed":5861,"Ġforgi":5862,"tiest":5863,"Ġvent":5864,"Ġparked":5865,"Ġsoaked":5866,"Ġprettiest":5867,"exp":5868,"icky":5869,"Ġcamping":5870,"ĠChloe":5871,"hins":5872,"Ġbarely":5873,"Ġproject":5874,"zie":5875,"Ġhorns":5876,"Ġdiscovering":5877,"Ġbouncy":5878,"bies":5879,"Ella":5880,"icked":5881,"Bobby":5882,"Mar":5883,"riage":5884,"Ah":5885,"ĠTiny":5886,"Pete":5887,"ĠSure":5888,"ĠAn":5889,"ÅĵDonÃ¢":5890,"Ġeast":5891,"Joey":5892,"ĠOnce":5893,"ĠBir":5894,"Ġtwinkling":5895,"Ġstole":5896,"Ġdent":5897,"Ġsorting":5898,"Grandpa":5899,"Ġexpect":5900,"Ġsurface":5901,"Ġvowed":5902,"Ġtexture":5903,"Ġwest":5904,"ĠTuesday":5905,"Ġinterest":5906,"Ġgazed":5907,"Ġresult":5908,"ÅĵWhy":5909,"Ġpurred":5910,"ĠGr":5911,"Ġmovies":5912,"Ġguys":5913,"Ġbabies":5914,"Ġsteep":5915,"Ġcautious":5916,"Ġshock":5917,"ĠCarl":5918,"ĠRob":5919,"expected":5920,"Ġbeard":5921,"ĠBubbles":5922,"Fr":5923,"Ġpowers":5924,"Ġapplauded":5925,"zen":5926,"Ġcontrol":5927,"Ġentire":5928,"thank":5929,"Ġpebbles":5930,"Ġ1":5931,"Ġloose":5932,"Ġsilence":5933,"Ġtickle":5934,"Ġurged":5935,"Ġacted":5936,"Ġguns":5937,"Ġluxury":5938,"Ġdragons":5939,"Ġdragged":5940,"Ġunexpected":5941,"edding":5942,"Ġdolphins":5943,"Henry":5944,"Ġflat":5945,"ason":5946,"Ġemergency":5947,"Ġcatches":5948,"Uh":5949,"Ġfab":5950,"Ġfabric":5951,"Ġrocking":5952,"Ġchewing":5953,"ern":5954,"Ġmittens":5955,"Ġcompleted":5956,"Ġcurtains":5957,"une":5958,"Ġmuscles":5959,"Ġstrike":5960,"Maggie":5961,"Ġblink":5962,"Ġdirection":5963,"Ġintroduced":5964,"uly":5965,"Ġchips":5966,"Ġpatience":5967,"Ġimportance":5968,"Ġbank":5969,"Ġhonk":5970,"Ġreluctantly":5971,"Ġslim":5972,"eezing":5973,"Ġhighest":5974,"Ġseason":5975,"Ġeight":5976,"Ġfigured":5977,"Ġshivered":5978,"usted":5979,"Ġsolution":5980,"Remember":5981,"Ġlibrarian":5982,"Ġachieve":5983,"Ġrocked":5984,"Ġshelves":5985,"Ġchases":5986,"Ġcontest":5987,"Ġscreaming":5988,"Ġfrozen":5989,"Ġpouring":5990,"ĠJamie":5991,"ĠBetty":5992,"Ġreplac":5993,"ĠZoom":5994,"Rex":5995,"Ġwound":5996,"Ġrubbing":5997,"Ġstaring":5998,"Ġtheirs":5999,"Ġcrumb":6000,"Ġti":6001,"Ġhugging":6002,"Ġroaring":6003,"esome":6004,"ÅĵOh":6005,"Ġdrives":6006,"Ġsorted":6007,"Ġsnail":6008,"ledge":6009,"ĠAnne":6010,"Ġinclude":6011,"Ġsafer":6012,"Fred":6013,"Ġmater":6014,"Ġmateri":6015,"ĠSanta":6016,"Ġplanets":6017,"fit":6018,"Ġsituation":6019,"Ġgreet":6020,"Ġpoliceman":6021,"Ġfoods":6022,"Ġcurly":6023,"ĠcanÃ¢":6024,"Ġknowledge":6025,"Ġsighs":6026,"itely":6027,"Ġusual":6028,"irts":6029,"vin":6030,"Ġawesome":6031,"Ġpassing":6032,"Ġshined":6033,"Ġexha":6034,"Ġflags":6035,"Ġdared":6036,"Ġbalancing":6037,"Ġmatched":6038,"ĠyouÃ¢":6039,"Ġplenty":6040,"Ġtowels":6041,"Ġoutfit":6042,"Ġslimy":6043,"ults":6044,"Ġlied":6045,"Leo":6046,"Ġhomework":6047,"though":6048,"Ġcheering":6049,"Ġpretends":6050,"Ġbravery":6051,"ĠAunt":6052,"acob":6053,"avi":6054,"Ġheel":6055,"ĠLulu":6056,"Ġtruly":6057,"jamas":6058,"Ġwedding":6059,"Ġrainbows":6060,"ĠTilly":6061,"Ġgoals":6062,"Ġzookeeper":6063,"ĠHoppy":6064,"Ġsausages":6065,"ĠMatt":6066,"Ġresting":6067,"Ġaccomplish":6068,"James":6069,"ĠSusan":6070,"Ġthreat":6071,"ĠClaire":6072,"cuse":6073,"Ġpatted":6074,"Ġpaintings":6075,"Ġcaused":6076,"Ġradishes":6077,"Ġreaching":6078,"Danny":6079,"ĠCar":6080,"Ġpacking":6081,"Ġarguing":6082,"Paul":6083,"Ġgrowling":6084,"Ġblooming":6085,"Ġspraying":6086,"Kitty":6087,"Excuse":6088,"Ġfoc":6089,"...":6090,"aa":6091,"ĠAlways":6092,"ĠLou":6093,"izzie":6094,"Ġexhausted":6095,"iar":6096,"Ġwaiter":6097,"Grace":6098,"Ġstruggle":6099,"bert":6100,"Ġmarkers":6101,"Ġsweets":6102,"Ġkneeled":6103,"Ġge":6104,"ĠJessie":6105,"Ġmotion":6106,"Ġpout":6107,"Ġsticking":6108,"Ġworker":6109,"Ġpaddled":6110,"ĠFor":6111,"ences":6112,"Ġsway":6113,"ĠMomo":6114,"Ġboo":6115,"Ġstartled":6116,"Ġgrowl":6117,"Ġtraveled":6118,"Ġsuitc":6119,"immer":6120,"Ġsled":6121,"Ġsnugg":6122,"Sophie":6123,"Ġmane":6124,"Ġrescued":6125,"hello":6126,"Ġwritten":6127,"Ġcubes":6128,"Ġinviting":6129,"Ġspike":6130,"Ġslap":6131,"Ġexpected":6132,"Ġflavor":6133,"Ġcuts":6134,"Ġcent":6135,"Ġbottles":6136,"Ġdusty":6137,"Ġreveal":6138,"Ġsinger":6139,"Ġbead":6140,"Ġmatching":6141,"Ġregretted":6142,"Ġheav":6143,"Ġguest":6144,"lee":6145,"Ġlearns":6146,"Ġprincesses":6147,"Ġtrembling":6148,"Ġbloomed":6149,"Ġcreating":6150,"Ġfart":6151,"Ġfir":6152,"Ġarrive":6153,"Yeah":6154,"you":6155,"Ġpencils":6156,"Ġrecorded":6157,"Ġreplaced":6158,"pite":6159,"ĠYes":6160,"Ġmarriage":6161,"aisies":6162,"Ġobserved":6163,"Ġlap":6164,"Ġincluded":6165,"njoy":6166,"Ġdisagree":6167,"Annie":6168,"Ġchuck":6169,"Ġdaisies":6170,"Ġprayer":6171,"Ġpots":6172,"Ġtimer":6173,"Ġfirm":6174,"Ġpajamas":6175,"Ġactivities":6176,"Charlie":6177,"Ġdarkness":6178,"Ġworkers":6179,"Ġworries":6180,"ĠLinda":6181,"Ġroads":6182,"Ġremoved":6183,"Ġorganizing":6184,"ĠĠĊ":6185,"Ġventured":6186,"ĠHa":6187,"Ġwires":6188,"Ġrelief":6189,"Ġuses":6190,"Ġstare":6191,"Ġcompletely":6192,"Mrs":6193,"angled":6194,"Ġcountryside":6195,"Ġfairies":6196,"ĠMad":6197,"uzz":6198,"Ġopening":6199,"ĠBy":6200,"Ġwasted":6201,"Ġleap":6202,"vers":6203,"Ġstorekeeper":6204,"Ġowners":6205,"ĠAbby":6206,"aty":6207,"Ġranger":6208,"ĠBo":6209,"Ġreply":6210,"Ġcott":6211,"Ġbelly":6212,"Ġfault":6213,"ĠSadly":6214,"Ġpolishing":6215,"ĠJu":6216,"Ġpartic":6217,"Ġquacked":6218,"Ġunf":6219,"Ġleader":6220,"ĠJohnson":6221,"iding":6222,"Ġbecoming":6223,"Ġstern":6224,"lowly":6225,"ora":6226,"ĠQuack":6227,"ĠJeff":6228,"Ġkites":6229,"Ġflames":6230,"Afterwards":6231,"Ġlamb":6232,"ctions":6233,"ĠwasnÃ¢":6234,"Ġfaced":6235,"Ġeverybody":6236,"essie":6237,"ĠOut":6238,"Ġpoems":6239,"Ġpenguins":6240,"Ġagrees":6241,"ĠJones":6242,"However":6243,"Ġmelting":6244,"Ġseesaw":6245,"Ġvanish":6246,"ĠJenna":6247,"Ġsquealed":6248,"Ġfolding":6249,"Ġscales":6250,"ĠUnfortunately":6251,"ĠPinky":6252,"ĠBoth":6253,"Ġhealed":6254,"Ġcrabs":6255,"Ġthro":6256,"ĠLuke":6257,"Ġopinion":6258,"Ġwink":6259,"Ġhelmets":6260,"Ġlogs":6261,"Ġusually":6262,"ĠMart":6263,"hell":6264,"ords":6265,"ĠLeave":6266,"Ġthroat":6267,"Ġscra":6268,"Ġripe":6269,"Ġcrumbs":6270,"Ġdipped":6271,"opes":6272,"Ġtractor":6273,"ĠChrist":6274,"Ġcash":6275,"lings":6276,"Ġlollipops":6277,"Ġast":6278,"Ġteaches":6279,"Ġrisk":6280,"ivery":6281,"Ġseems":6282,"Ġcomm":6283,"Ġtwinkle":6284,"Ġgroceries":6285,"Ġdentist":6286,"ĠFollow":6287,"Ġden":6288,"Harry":6289,"Ġstaying":6290,"ĠBye":6291,"Ġpolished":6292,"Ġpeeking":6293,"Ġprovided":6294,"aze":6295,"Ġknights":6296,"asm":6297,"ids":6298,"Ġsnakes":6299,"Ġvalued":6300,"elle":6301,"Ġinterested":6302,"Ġblows":6303,"Ġcautiously":6304,"Ġscru":6305,"ĠDolly":6306,"Alex":6307,"ĠAdam":6308,"Ġcracked":6309,"ĠPut":6310,"Ġrubs":6311,"Ġrings":6312,"Ġunited":6313,"ĠWatch":6314,"araway":6315,"ophia":6316,"Ġwinked":6317,"Ġfaraway":6318,"Ġprotecting":6319,"Ġfreed":6320,"Ġdesert":6321,"Ġmarked":6322,"Ġbalanced":6323,"Ġmisses":6324,"mas":6325,"ĠSorry":6326,"Mittens":6327,"Ġyounger":6328,"Ġcloses":6329,"Ellie":6330,"Ġforehead":6331,"Ġsingle":6332,"Ġwrist":6333,"Ġchuckled":6334,"Ġwandering":6335,"Ġlistens":6336,"Ġsigned":6337,"go":6338,"boo":6339,"Ġrobb":6340,"Ġfuzzy":6341,"Ġboom":6342,"Ġparticular":6343,"ĠKayla":6344,"Ġpastries":6345,"Ġbeads":6346,"Ab":6347,"Ġroses":6348,"Ġhowever":6349,"Ġactions":6350,"ĠHannah":6351,"ĠFox":6352,"Ġdirections":6353,"ÅĵMommy":6354,"Ġcopy":6355,"ĠSuzie":6356,"ĠLizzy":6357,"Ġcrackers":6358,"Ġnaps":6359,"Ġcough":6360,"Ġsplashes":6361,"rance":6362,"Ġcous":6363,"Ġroots":6364,"igi":6365,"Ġyesterday":6366,"Ġfilling":6367,"ppers":6368,"ÅĵWhatÃ¢":6369,"Ġdelivery":6370,"ĠNina":6371,"Ġsnowballs":6372,"aura":6373,"Ġrestored":6374,"Ġbaker":6375,"Ġswooped":6376,"Ġconn":6377,"Ġstem":6378,"iles":6379,"Ġwiggled":6380,"Ġgaze":6381,"Ġfluttered":6382,"arling":6383,"ickey":6384,"Ġrolls":6385,"Bad":6386,"dies":6387,"Unfortunately":6388,"Ġphotos":6389,"abel":6390,"Ġsuitcase":6391,"Ġtipt":6392,"Ġsomebody":6393,"Ġbumpy":6394,"ĠChristmas":6395,"Sandy":6396,"ilo":6397,"ĠY":6398,"Ġslam":6399,"Ġswirl":6400,"Ġcelebration":6401,"Ġitchy":6402,"Some":6403,"bbly":6404,"Ġrefle":6405,"Ġpastels":6406,"Ġstroll":6407,"Ġpedals":6408,"Ëľ":6409,"âĤ¬Ëľ":6410,"oline":6411,"Ġtrips":6412,"Ġfroze":6413,"Ġbacked":6414,"Ġtallest":6415,"Ġcashier":6416,"Ġawake":6417,"atches":6418,"Ġtwin":6419,"Ġcause":6420,"ĠPipp":6421,"ĠDoggy":6422,"ility":6423,"Ġdarker":6424,"Ġdetermination":6425,"Ġlined":6426,"Ġsecure":6427,"ĠKeep":6428,"Ġremote":6429,"Ġnect":6430,"Ġnectar":6431,"Ġspeaking":6432,"ormed":6433,"anes":6434,"ĠMany":6435,"Ġpiggy":6436,"Ġcomplaining":6437,"ĠFriend":6438,"Ġwow":6439,"Ġknees":6440,"Ġbars":6441,"Kate":6442,"Ġrecording":6443,"per":6444,"Ġacting":6445,"May":6446,"Ġpleasure":6447,"oys":6448,"Ġhealth":6449,"Ġsilent":6450,"Ġaccomplishment":6451,"Run":6452,"Ġsneaky":6453,"Ġvideos":6454,"?\",":6455,"Ġliqu":6456,"Ġty":6457,"Ġentrance":6458,"ĠBird":6459,"Millie":6460,"Ġcoloured":6461,"Ġglee":6462,"Bun":6463,"Ġwears":6464,"Ġinsp":6465,"esmer":6466,"Ġdelivered":6467,"ĠPrin":6468,"boat":6469,"Ġrockets":6470,"Ġhi":6471,"ĠEnjoy":6472,"Ġopp":6473,"Nina":6474,"Ġmiles":6475,"Ġmesmer":6476,"Ġcheeks":6477,"ĠBeing":6478,"Ġtricked":6479,"yond":6480,"Ġbeyond":6481,"Ġaff":6482,"Ġnoon":6483,"Ġinsects":6484,"sequ":6485,"Ġafterwards":6486,"Ġglasses":6487,"Time":6488,"umm":6489,"Ġsib":6490,"Ġhissed":6491,"ĠMo":6492,"Ġstays":6493,"Ġconsequ":6494,"cited":6495,"Ġstolen":6496,"ky":6497,"Ġbowls":6498,"Toby":6499,"Ġtickled":6500,"ĠNothing":6501,"Ġjoking":6502,"Rose":6503,"Ġfarther":6504,"affes":6505,"Ġscaring":6506,"Fine":6507,"Ġsobbed":6508,"Ġcolored":6509,"Ġburst":6510,"Sad":6511,"Ġsense":6512,"Ġtricky":6513,"Ġmasks":6514,"Ġsandcastles":6515,"arter":6516,"Ġattack":6517,"Ġrule":6518,"Ġinstrum":6519,"Ġgiraffes":6520,"Ġcovers":6521,"iki":6522,"Ġpause":6523,"?'":6524,"Bl":6525,"Ġdeal":6526,"Ġhandful":6527,"Ġcalmed":6528,"ÅĵCome":6529,"Ġtalented":6530,"Ġtangled":6531,"Ġsmarter":6532,"Ġcandies":6533,"ths":6534,"Ġadding":6535,"aren":6536,"Ġshirts":6537,"Ġlung":6538,"Ġscarves":6539,"Ġindeed":6540,"ĠSparky":6541,"Ġachieved":6542,"Ġchoices":6543,"ĠJessica":6544,"igers":6545,"rious":6546,"Lilly":6547,"Ġliquid":6548,"ossible":6549,"Ġbehavi":6550,"Ġconsequences":6551,"Polly":6552,"Ġyourselves":6553,"Ġleading":6554,"Ġbatteries":6555,"choo":6556,"Ġhesitated":6557,"ĠMon":6558,"Ġimpossible":6559,"Ġbumps":6560,"ept":6561,"Ġreads":6562,"Ġbadge":6563,"ĠTara":6564,"Ġmi":6565,"Ġpaddle":6566,"Ġmixture":6567,"iled":6568,"ĠTwo":6569,"ĠMel":6570,"Ġexplorers":6571,"Ġclowns":6572,"Ġdarling":6573,"Ġmagnets":6574,"Ġkicks":6575,"ouch":6576,"ana":6577,"ĠGet":6578,"ĠLizzie":6579,"ners":6580,"Ġweeping":6581,"Ġrecommended":6582,"Ġexperien":6583,"Shh":6584,"Ġseashell":6585,"ĠCindy":6586,"Ġgracefully":6587,"Ġbakery":6588,"Ġflapping":6589,"anging":6590,"Ġseeker":6591,"ĠJon":6592,"uggles":6593,"Ġsalty":6594,"atul":6595,"Ġimproved":6596,"Those":6597,"Whe":6598,"brush":6599,"coat":6600,"vest":6601,"Ġswept":6602,"Ġfirefighters":6603,"rig":6604,"ĠJulia":6605,"Ġdeserve":6606,"urry":6607,"Ġwipes":6608,"Ġstroked":6609,"Milly":6610,"Ġcomplained":6611,"Ġbeginning":6612,"ĠJacob":6613,"ĠMickey":6614,"Ġmushrooms":6615,"yan":6616,"ĠEl":6617,"ĠSqu":6618,"Ru":6619,"ĠHappy":6620,"Ġcust":6621,"Ġhider":6622,"Ġthorn":6623,"ĠSque":6624,"ĠPandy":6625,"obody":6626,"Ġseven":6627,"Ġobjects":6628,"itches":6629,"Ġknocks":6630,"Ġcans":6631,"Ġteased":6632,"Ġbasement":6633,"Ġtravelled":6634,"Ġsteer":6635,"Ġhoriz":6636,"ÅĵDo":6637,"Days":6638,"ĠPrincess":6639,"Ġtigers":6640,"Ġthird":6641,"ĠSnuggles":6642,"ÅĵYouÃ¢":6643,"Ġparties":6644,"Ġhearing":6645,"Ġsnuck":6646,"Ġcupcakes":6647,"Ġheading":6648,"Ġclick":6649,"Ġhorizon":6650,"Ġraincoat":6651,"ĠLarry":6652,"Ġseconds":6653,"Ġcustom":6654,"tle":6655,"Ġdots":6656,"elia":6657,"ĠGigi":6658,"Ġsiblings":6659,"ĠLena":6660,"Ġdrums":6661,"Ġfever":6662,"Ġmarker":6663,"indr":6664,"Ġsmiley":6665,"Ġyells":6666,"Ġfluttering":6667,"ĠPl":6668,"no":6669,"Ġperformance":6670,"Ġartist":6671,"ans":6672,"Ġhallway":6673,"Ġbeam":6674,"ĠLuckily":6675,"Ġsnatched":6676,"Ġlighter":6677,"Ġbedtime":6678,"Ġruining":6679,"Ġjackets":6680,"step":6681,"ÅĵHi":6682,"Ġbuying":6683,"Ġraindr":6684,"pare":6685,"Ġfamilies":6686,"Ġwee":6687,"igning":6688,"Ġgems":6689,"ĠwouldnÃ¢":6690,"Ġneither":6691,"Ġconcer":6692,"ĠWithout":6693,"dri":6694,"Ġcelebrating":6695,"Ġpaying":6696,"ĠSlowly":6697,"Ġscrubbed":6698,"rigued":6699,"Ġlett":6700,"ĠWater":6701,"Ġpuppies":6702,"Ġannoy":6703,"ÅĵWow":6704,"ĠJazz":6705,"Ġdollhouse":6706,"umbling":6707,"Ġamong":6708,"Ġcreamy":6709,"Ġdrifted":6710,"Ġrivers":6711,"Ġlettuce":6712,"band":6713,"Ġpeacefully":6714,"Ġtreehouse":6715,"Ġwidened":6716,"Ġwadd":6717,"Ġscratches":6718,"Ġwrapping":6719,"atur":6720,"Bobo":6721,"Tina":6722,"cers":6723,"Ġrumble":6724,"ades":6725,"ivity":6726,"Ġrepa":6727,"Ġtasks":6728,"Ġhides":6729,"ĠBuzzy":6730,"Ġrusty":6731,"Ġbehaved":6732,"Ġplayers":6733,"ael":6734,"Dan":6735,"Ġwins":6736,"alph":6737,"ĠEverybody":6738,"Ġlun":6739,"ĠwonÃ¢":6740,"Ġcuddly":6741,"Ġfact":6742,"Ġuns":6743,"Ġlower":6744,"Ġrewarded":6745,"immering":6746,"fall":6747,"Ġwilling":6748,"Ġneedles":6749,"ounce":6750,"An":6751,"Ġcreativity":6752,"Ġarrows":6753,"Ġshrinking":6754,"Ġincluding":6755,"Ġrepaired":6756,"Ġsource":6757,"Ġlosing":6758,"Ġcor":6759,"Ġech":6760,"Ġfears":6761,"Ġpassen":6762,"Ġtemper":6763,"iece":6764,"Ġgrandpare":6765,"Ġchoo":6766,"Ġtiptoed":6767,"Ġcreations":6768,"itched":6769,"jo":6770,"ĠJune":6771,"ongr":6772,"Tr":6773,"ded":6774,"Ġtapped":6775,"Ġdef":6776,"Ġgrassy":6777,"ichael":6778,"Ġminerals":6779,"Clara":6780,"Ġrising":6781,"ĠGoodbye":6782,"Ġseparated":6783,"Ġsprinkled":6784,"ĠAbbie":6785,"hew":6786,"Ġchefs":6787,"Ġchop":6788,"Ġimagining":6789,"Ġtempt":6790,"Ġgross":6791,"Ġgranted":6792,"Great":6793,"Ġaren":6794,"Ġaud":6795,"ĠRock":6796,"ongratul":6797,"ĠEmmy":6798,"ĠSophia":6799,"Ġtiss":6800,"ĠZip":6801,"Ġswimsuit":6802,"Ġlimes":6803,"ĠLaura":6804,"Ġscrewdri":6805,"ishy":6806,"Ġpans":6807,"Ġdecorating":6808,"Ġpouted":6809,"Ġcoup":6810,"Ġstomped":6811,"Ġbackwards":6812,"ĠPo":6813,"imon":6814,"Ġhesitant":6815,"Ġdamage":6816,"Ġearn":6817,"hog":6818,"Have":6819,"Ġonions":6820,"Ġgrabbing":6821,"Ġpeppers":6822,"ÅĵMy":6823,"Ġspong":6824,"itude":6825,"Ġsquares":6826,"Ġstung":6827,"Ġprinting":6828,"Ġtodd":6829,"Ġunpacked":6830,"cl":6831,"Ġtramp":6832,"ntil":6833,"Ġplanning":6834,"ments":6835,"Ġdiving":6836,"Ġchip":6837,"Ġslower":6838,"Pat":6839,"ĠJay":6840,"Ġheavier":6841,"Ġcowb":6842,"Ġbeloved":6843,"Ġgrowls":6844,"Ġraindrops":6845,"Ġmaterials":6846,"ĠOlive":6847,"ĠRemember":6848,"Ġsailboat":6849,"Ġwrink":6850,"Ġsnowmen":6851,"Wh":6852,"Ġmer":6853,"Ġpromises":6854,"Ġrecipe":6855,"Meow":6856,"Ġscrewdriver":6857,"cope":6858,"Ġpointy":6859,"Ġavoid":6860,"Ġsurroundings":6861,"Ġrustling":6862,"Ġcousin":6863,"Ġforgiven":6864,"Yummy":6865,"Ġaudience":6866,"Que":6867,"eds":6868,"kend":6869,"Ġneighbours":6870,"Ġgobbled":6871,"Ġstool":6872,"Ġcenter":6873,"Ġweekend":6874,"Ġslices":6875,"Ġblocking":6876,"Ġtouc":6877,"Queen":6878,"Ġwiping":6879,"Ġtemperature":6880,"Bill":6881,"Ġwindy":6882,"Ġtrampoline":6883,"Ġarr":6884,"Ġrefu":6885,"int":6886,"Ġhelpers":6887,"Ġdiscussed":6888,"For":6889,"yes":6890,"Ġwobbled":6891,"Ġrip":6892,"ushing":6893,"Katie":6894,"sty":6895,"ĠEarth":6896,"Ġhedgehog":6897,"Ġcouple":6898,"pr":6899,"itted":6900,"ĠStella":6901,"Ġdesigned":6902,"ĠPam":6903,"uzzy":6904,"Oops":6905,"Ġfeast":6906,"ĠEls":6907,"Ġnoses":6908,"Ġdreamt":6909,"Ġcorners":6910,"Fo":6911,"eal":6912,"unched":6913,"ĠRobby":6914,"Ġornaments":6915,"Ġpecked":6916,"Ġslammed":6917,"ae":6918,"Ġafford":6919,"child":6920,"Ġswans":6921,"Ew":6922,"Ġhus":6923,"Ġsports":6924,"iley":6925,"Roar":6926,"Ġhitting":6927,"ĠMira":6928,"ĠDr":6929,"Ġstreets":6930,"Ġtissue":6931,"Ġage":6932,"Ġwag":6933,"ably":6934,"arrow":6935,"Ġaside":6936,"Ġdads":6937,"Ġrequested":6938,"oey":6939,"Ġmeals":6940,"Ġache":6941,"Ġforks":6942,"ccoon":6943,"Ġraccoon":6944,"Ġstain":6945,"Ġcuriously":6946,"Ġreflection":6947,"Ġsponge":6948,"Ġwarnings":6949,"Ġduckling":6950,"Ġsparks":6951,"Baby":6952,"Ġsunflowers":6953,"Ġbows":6954,"Ġplans":6955,"cky":6956,"Ġprett":6957,"ĠNick":6958,"Ġsnowfl":6959,"ĠBinky":6960,"Ġshaped":6961,"Ġtails":6962,"Ġleaning":6963,"Ġvanilla":6964,"Ġfamiliar":6965,"--":6966,"Ġdet":6967,"ido":6968,"Ġdances":6969,"Ġgri":6970,"Jul":6971,"ition":6972,"Ġbreathed":6973,"Ġcoloring":6974,"ne":6975,"Ġadult":6976,"Ġremembering":6977,"Fin":6978,"Ġspreading":6979,"Ġdollars":6980,"Maria":6981,"Ġgreeted":6982,"ĠRobert":6983,"Ġsale":6984,"Ġshops":6985,"Ġintrigued":6986,"osen":6987,"Ġchosen":6988,"Ġgasp":6989,"ĠBee":6990,"using":6991,"Ġtwice":6992,"ĠRyan":6993,"Ġpraying":6994,"Ġgrandchild":6995,"aker":6996,"ĠThose":6997,"Pe":6998,"Ġthrown":6999,"Ġprettier":7000,"Ġforgets":7001,"Ġscrews":7002,"Ġastron":7003,"llen":7004,"ĠTess":7005,"Ġtunnels":7006,"Ġhour":7007,"ĠSc":7008,"Ġpotion":7009,"arac":7010,"Surpr":7011,"Ġmoo":7012,"Ġenthusi":7013,"Ġastronaut":7014,"Ġtouches":7015,"ĠQueen":7016,"Ġreason":7017,"otten":7018,"ĠGranny":7019,"Ġenthusiasm":7020,"Ġswords":7021,"Ġsailors":7022,"Blue":7023,"Ġhusband":7024,"Ġdaring":7025,"Ġgardener":7026,"ertain":7027,"Woof":7028,"Ġspoonful":7029,"Ġsuperheroes":7030,"endy":7031,"ĠChris":7032,"Ġcorre":7033,"Boo":7034,"Ġwishing":7035,"Ġhops":7036,"Ġzipping":7037,"ĠThanks":7038,"Ġskunk":7039,"Ġwoof":7040,"Ġleast":7041,"Ġflight":7042,"Ġdod":7043,"Ġreass":7044,"Ġspikes":7045,"Ġmagician":7046,"Ġforgetting":7047,"ĠOur":7048,"Ġgrandparents":7049,"Ġchanging":7050,"ĠNobody":7051,"mallow":7052,"Ġmarsh":7053,"Ġscamp":7054,"Ġrotten":7055,"Ġbodies":7056,"Ġborrowed":7057,"Ġflavors":7058,"Ġpens":7059,"ĠBluey":7060,"ĠAbi":7061,"Ġcounts":7062,"Ġhopeful":7063,"Ġencourag":7064,"ĠFinn":7065,"Ġ10":7066,"ently":7067,"fly":7068,"Ġneare":7069,"Ġcharac":7070,"Ġguests":7071,"Ġcharacter":7072,"Ġmesmerized":7073,"ounced":7074,"Ġsending":7075,"ĠFriends":7076,"Ġmuscle":7077,"ĠMikey":7078,"Ġsnuggle":7079,"oni":7080,"stick":7081,"Ġheroes":7082,"Ġneatly":7083,"Frank":7084,"ĠCra":7085,"Ġbuzzed":7086,"ĠRover":7087,"Ġseaw":7088,"ĠSqueaky":7089,"Our":7090,"Ruby":7091,"Whee":7092,"ĠMilo":7093,"Ġgrows":7094,"Ġwraps":7095,"the":7096,"Ġsteady":7097,"ĠUntil":7098,"Ġfeeding":7099,"wk":7100,"irrel":7101,"Ġnibb":7102,"Ġposs":7103,"Ġhandsome":7104,"Ġcond":7105,"Ġnine":7106,"Ġdelivering":7107,"Ġmarshmallow":7108,"ĠListen":7109,"Ġpolitely":7110,"Ġoh":7111,"Ġdived":7112,"Miss":7113,"armer":7114,"Ġsuffering":7115,"Ġalien":7116,"Ġonward":7117,"antha":7118,"Tw":7119,"bba":7120,"Ġmints":7121,"Ġnapkins":7122,"Ġsneezing":7123,"Ġzebras":7124,"years":7125,"Ġplucked":7126,"Ġwarmer":7127,"Ġhonked":7128,"Ġcrashing":7129,"Ġbaths":7130,"Ġdefe":7131,"Tweety":7132,"Ġplain":7133,"ĠthatÃ¢":7134,"Ġposter":7135,"Ġmatters":7136,"meal":7137,"opsy":7138,"ection":7139,"Ġlifts":7140,"Ġembarrass":7141,"Ġrefreshing":7142,"Ġstudents":7143,"By":7144,"ĠJudy":7145,"Ġseaweed":7146,"Ġlungs":7147,"Ġincreased":7148,"Ġunsure":7149,"ĠBirthday":7150,"ÅĵMom":7151,"ĠMartha":7152,"Ġscen":7153,"Ġstands":7154,"allowed":7155,"Ġcrew":7156,"Ġswallowed":7157,"Ġoatmeal":7158,"Ġtoddler":7159,"ĠEx":7160,"Ġproper":7161,"Ġjoining":7162,"Ġexpress":7163,"Ġwhispers":7164,"Ġpreparing":7165,"Ġdip":7166,"ÅĵBut":7167,"Ġthud":7168,"Ġglued":7169,"ĠHoot":7170,"aster":7171,"Ġropes":7172,"Ġamount":7173,"Ġrespond":7174,"Ġtoaster":7175,"Su":7176,"Ġwatering":7177,"Ġperformed":7178,"Ġleads":7179,"ĠStar":7180,"Ġdie":7181,"Ġtrembled":7182,"Sadly":7183,"Ġstarfish":7184,"Ġdancers":7185,"Ġwobbly":7186,"Ġpresses":7187,"Ġbully":7188,"Ġtriangles":7189,"Ġlessons":7190,"while":7191,"Ġhawk":7192,"Ġconfl":7193,"Ġbiting":7194,"Nemo":7195,"Ġpuff":7196,"Ġpostman":7197,"Ġcushions":7198,"Ġresisted":7199,"ÅĵWell":7200,"Ġmerry":7201,"Ġpops":7202,"Ġflas":7203,"Ġscraped":7204,"ĠMaya":7205,"Ġgeese":7206,"Back":7207,"Ġtalks":7208,"Ġfocused":7209,"Ġfreedom":7210,"Ġrushing":7211,"Ġsofter":7212,"Ġadults":7213,"Ġwaddled":7214,"Ġpanicked":7215,"vant":7216,"Ġsniffs":7217,"ĠKiki":7218,"Ġslips":7219,"Ġtrot":7220,"Ducky":7221,"iona":7222,"Ġnecklaces":7223,"Ġpuppet":7224,"Ġfirmly":7225,"ados":7226,"Ġdropping":7227,"Ġencouraging":7228,"ĠSun":7229,"Ġjoyful":7230,"Ġdrawers":7231,"Ġfirefly":7232,"onna":7233,"Ġwrigg":7234,"Ġwiggle":7235,"Ġfrowning":7236,"ÅĵWhere":7237,"Ġtested":7238,"Ġtables":7239,"Br":7240,"Ġwaterfall":7241,"Ġnervously":7242,"Ġrout":7243,"Ġworn":7244,"Ġfaded":7245,"Ġblast":7246,"Ġlifting":7247,"Ġscampered":7248,"Ġev":7249,"Ġhumans":7250,"Ġexplo":7251,"bird":7252,"fia":7253,"Mimi":7254,"Ġdrivers":7255,"Ġappreciation":7256,"rey":7257,"lets":7258,"Very":7259,"ippy":7260,"Ġspat":7261,"ĠOnly":7262,"ĠZoey":7263,"cake":7264,"Ġthoughts":7265,"Ġdrawn":7266,"Ġfirefighter":7267,"Bet":7268,"Ġpours":7269,"Ġquarreling":7270,"Ġtwinkled":7271,"Ġrobber":7272,"Ġthroughout":7273,"Ġstacked":7274,"Ġleapt":7275,"retty":7276,"Ġrespected":7277,"Ġsqueak":7278,"ĠThatÃ¢":7279,"Ġpigeons":7280,"Ġdresser":7281,"Ġocc":7282,"ĠLove":7283,"Ġpennies":7284,"Ġfits":7285,"rrr":7286,"but":7287,"Ġscient":7288,"ĠAlong":7289,"ĠFrosty":7290,"anwhile":7291,"Ġcoc":7292,"Ġmaster":7293,"Ġscientist":7294,"Ġpolar":7295,"roken":7296,"Ġmonths":7297,"ĠStay":7298,"now":7299,"Ġovercome":7300,"Ġelf":7301,"ĠJanie":7302,"Ġbravest":7303,"Ġavocados":7304,"Listen":7305,"ĠBaa":7306,"Ġnur":7307,"Ġnotes":7308,"Ġstrongest":7309,"ears":7310,"Ġplaytime":7311,"Ġgonna":7312,"Ġsan":7313,"Tony":7314,"Ġwept":7315,"fire":7316,"ĠMarie":7317,"ĠAsh":7318,"ĠTake":7319,"Ġmanag":7320,"ĠMeg":7321,"Ġconvers":7322,"ĠSquirrel":7323,"eel":7324,"Ġcosy":7325,"Ġscored":7326,"ĠTodd":7327,"Ġmunch":7328,"Ġcertain":7329,"bage":7330,"Ġnood":7331,"Ġechoed":7332,"Ġwakes":7333,"Ġspins":7334,"Mine":7335,"Ġcolder":7336,"Ġgarbage":7337,"urious":7338,"Ġpeck":7339,"eezes":7340,"Ġperforming":7341,"ĠSadie":7342,"ĠFrog":7343,"Ġsweetest":7344,"Ġdesigns":7345,"Ġexplorer":7346,"Ġprove":7347,"Ġplayroom":7348,"Ġsank":7349,"Ġtricycle":7350,"oke":7351,"Ġflown":7352,"plash":7353,"Ġpumpkins":7354,"Ġprob":7355,"ca":7356,"Ġforgiving":7357,"Ġprobably":7358,"iment":7359,"Like":7360,"Ġtossed":7361,"Ġgest":7362,"Ġbehaving":7363,"Ġmarshmallows":7364,"ĠFido":7365,"ĠJacky":7366,"ĠBessie":7367,"Ġrobots":7368,"cher":7369,"Ġsadd":7370,"Ġblinking":7371,"Ġguide":7372,"please":7373,"rying":7374,"bbling":7375,"Kim":7376,"Ġsqueezing":7377,"ÅĵIf":7378,"broken":7379,"Ġshown":7380,"ĠQuick":7381,"ÅĵOkay":7382,"Ġsquishy":7383,"Ġcobwebs":7384,"Ġcausing":7385,"espite":7386,"undred":7387,"...\"":7388,"Ġhaird":7389,"Ġcongratul":7390,"Ġbells":7391,"Ġspices":7392,"Ġpassengers":7393,"ammy":7394,"Ġcraft":7395,"Ġtighter":7396,"ĠChe":7397,"Ġmate":7398,"Ġangels":7399,"Ġyielded":7400,"?!\"":7401,"Mad":7402,"ĠZara":7403,"ĠFire":7404,"Ġties":7405,"ading":7406,"fus":7407,"Ġhealing":7408,"Ġpound":7409,"ĠFarmer":7410,"Ġreversed":7411,"David":7412,"ilda":7413,"ĠOwl":7414,"Ġnapping":7415,"Ġgiggles":7416,"During":7417,"Even":7418,"Ġaimed":7419,"Quick":7420,"upt":7421,"Ġnearly":7422,"Ġoffic":7423,"Follow":7424,"Ġdistract":7425,"Ġpays":7426,"Ġsewing":7427,"alloween":7428,"Ġinstruments":7429,"Ġunw":7430,"Ġconflict":7431,"Ġkittens":7432,"Ġwider":7433,"Ġnuzz":7434,"Ġreun":7435,"found":7436,"mates":7437,"Ġtil":7438,"Ġdoorway":7439,"aying":7440,"Ġyum":7441,"Ġshoo":7442,"Ġclues":7443,"Ġpaintbrush":7444,"Ġ2":7445,"Ġinj":7446,"Ġappreciated":7447,"Ġbrushing":7448,"Ġcoug":7449,"ĠJackie":7450,"ĠUnder":7451,"Ġcottage":7452,"Watch":7453,"ĠHalloween":7454,"Ġgrandd":7455,"Ġease":7456,"ĠMouse":7457,"Ġbru":7458,"Ġaction":7459,"Alright":7460,"ĠSimon":7461,"Ġpaths":7462,"Ġblocked":7463,"Ġloading":7464,"Ġpassports":7465,"Ġheartbroken":7466,"Ġais":7467,"ancy":7468,"Ġbits":7469,"onies":7470,"Ġmerma":7471,"Ġpins":7472,"Ġbelts":7473,"Ġslipping":7474,"Ġlaying":7475,"antastic":7476,"Ġmailed":7477,"idey":7478,"Ġsweep":7479,"Ġrepeating":7480,"Ġfigures":7481,"ĠTuna":7482,"Jerry":7483,"ĠMabel":7484,"asty":7485,"ĠAli":7486,"Ġresults":7487,"isc":7488,"Ġanger":7489,"Ġsoaking":7490,"Ġtwisty":7491,"ĠPatch":7492,"Ġevil":7493,"Ġtwisting":7494,"Ġaccomplished":7495,"Ġwithin":7496,"ĠWell":7497,"ĠLi":7498,"ino":7499,"Ġcrossing":7500,"Ġconnected":7501,"Ġpuzzled":7502,"ĠMichael":7503,"Ġund":7504,"Ġsurfing":7505,"Ġsuffered":7506,"Ġdamaged":7507,"Ġtuck":7508,"Ġsweat":7509,"ĠWendy":7510,"âĤ¬,":7511,"Ġbreathing":7512,"Ġresponsib":7513,"Ġoysters":7514,"ĠAmelia":7515,"Ġsever":7516,"Ted":7517,"Ġbuses":7518,"Ġshrug":7519,"Ġshovels":7520,"Ġlicking":7521,"Ġbehavior":7522,"Ġnoodles":7523,"Ġseveral":7524,"Ġhundred":7525,"Poppy":7526,"Ġroars":7527,"Ġtoward":7528,"Ġdespite":7529,"Ġrisks":7530,"Ġfinishing":7531,"Ġhairdress":7532,"lves":7533,"ighting":7534,"ÅĵPlease":7535,"ĠRalph":7536,"Ġbracelets":7537,"Ġstreamers":7538,"Ġlending":7539,"Ġtying":7540,"Ġhumming":7541,"Ġsupported":7542,"Ġsurrendered":7543,"Ġdefin":7544,"Ġawoke":7545,"Ġencount":7546,"Ġfleas":7547,"da":7548,"anie":7549,"Ġrainy":7550,"byes":7551,"Vroom":7552,"ĠRay":7553,"Ġquieter":7554,"Ġshady":7555,"Abigail":7556,"Ġcleaner":7557,"Steve":7558,"Ġluckily":7559,"Ġgoodbyes":7560,"ĠHoney":7561,"Ġwhose":7562,"ĠRobbie":7563,"Whenever":7564,"Ġignoring":7565,"ĠBubba":7566,"Ġrather":7567,"Ġfantastic":7568,"unity":7569,"ÅĵOf":7570,"Ġstitches":7571,"Surprise":7572,"Ġcuddles":7573,"Take":7574,"erk":7575,"isions":7576,"Ġtablet":7577,"Ġslither":7578,"Ġedges":7579,"Ġfrowns":7580,"ĠMaddie":7581,"Ġponies":7582,"dding":7583,"Ġcloudy":7584,"ecca":7585,"ĠFlopsy":7586,"Ġhanding":7587,"Ġfinal":7588,"Ġsped":7589,"ening":7590,"Ġhairdresser":7591,"Ġcoral":7592,"Ġthorns":7593,"Ġdrown":7594,"Ġelbow":7595,"Ġsnowflakes":7596,"onnie":7597,"agic":7598,"Ġdefinitely":7599,"Ġrains":7600,"Ġcotton":7601,"ĠFuzzy":7602,"ĠHolly":7603,"ĠBecause":7604,"ppies":7605,"Ġsurv":7606,"iel":7607,"athy":7608,"Ġkings":7609,"Ġgesture":7610,"crow":7611,"Ġsmallest":7612,"Ġbattle":7613,"ĠBirdy":7614,"ĠUp":7615,"Ġsy":7616,"Ġwisely":7617,"Ġreminding":7618,"Ġdriveway":7619,"ÅĵNow":7620,"Ġcorrectly":7621,"whe":7622,"Ġnewfound":7623,"Ġsou":7624,"Ġdecisions":7625,"Ġsharks":7626,"Ġprick":7627,"Ġpeeled":7628,"Ġchopped":7629,"Ġvines":7630,"Ġstudent":7631,"Ġsqueaked":7632,"Hannah":7633,"Ġweeds":7634,"ĠGreen":7635,"Ġfishes":7636,"abby":7637,"hil":7638,"Ġsymbols":7639,"Ġsnort":7640,"Ġwarri":7641,"Ġgrandson":7642,"ĠX":7643,"Ġsimply":7644,"cent":7645,"Ġnasty":7646,"Ġwobble":7647,"Ġexercises":7648,"Ġgranddaughter":7649,"Ġbandages":7650,"True":7651,"onse":7652,"Ġstopping":7653,"Ġresponse":7654,"Ġexcept":7655,"Ġinspired":7656,"ĠKaren":7657,"Ġni":7658,"steps":7659,"Ġoccas":7660,"Adam":7661,"Ġafar":7662,"Ġbanged":7663,"Ġtravels":7664,"Ġlent":7665,"Ġflipped":7666,"Ġdarl":7667,"Ġdarlings":7668,"Ġtipped":7669,"Beep":7670,"Ġdisturbing":7671,"ĠRocky":7672,"Ġtar":7673,"ÅĵHey":7674,"Ġfills":7675,"worm":7676,"Thomas":7677,"ĠFreddie":7678,"Ġpedaled":7679,"Ġmasterp":7680,"father":7681,"Ġspits":7682,"Ġtravelling":7683,"Ġbirdhouse":7684,"Ġfootsteps":7685,"Ġpunishment":7686,"line":7687,"Ġchocolates":7688,"Ġpurr":7689,"Ġscarecrow":7690,"sol":7691,"Ġconvin":7692,"ĠAlthough":7693,"eeling":7694,"elie":7695,"Ġships":7696,"Jamie":7697,"Ġpresented":7698,"ĠPippin":7699,"Ġcongratulated":7700,"Ġwindowsill":7701,"Ġsurfboard":7702,"Ġplanting":7703,"Ġantic":7704,"Ġaddress":7705,"Ġapologised":7706,"ĠRuth":7707,"citedly":7708,"mered":7709,"Ġforests":7710,"ms":7711,"Ġarranged":7712,"ĠWelcome":7713,"ddie":7714,"Ġbelieving":7715,"Ġtrotted":7716,"Ġreassured":7717,"Ġreunited":7718,"ĠIm":7719,"Ġreapp":7720,"ĠJojo":7721,"ĠGina":7722,"Josh":7723,"Ġclerk":7724,"Ġnodding":7725,"Ġbusiness":7726,"ĠMegan":7727,"Ġcheers":7728,"Ġcampfire":7729,"Ġbackpacks":7730,"ris":7731,"Ġmagnif":7732,"Ġlies":7733,"ooky":7734,"Ġsuits":7735,"Ġencouragement":7736,"Since":7737,"ĠSpidey":7738,"Ġmarve":7739,"Ġsails":7740,"Ġterrified":7741,"Ġfocus":7742,"perate":7743,"Ġknots":7744,"issa":7745,"Ġcovering":7746,"utter":7747,"Ġofficers":7748,"Ġpoppies":7749,"iza":7750,"Ġimages":7751,"Ġactivity":7752,"Ġgrip":7753,"manda":7754,"Ġmood":7755,"Ġsmelling":7756,"Ġexpert":7757,"Ġyel":7758,"ĠAng":7759,"otte":7760,"Ġtarget":7761,"Ġdep":7762,"ider":7763,"Bunny":7764,"Ġchilly":7765,"Ġsurprising":7766,"Ġspills":7767,"inkle":7768,"Ġyelped":7769,"Ġchanges":7770,"Ġdelayed":7771,"Ġwrinkled":7772,"Ġtesting":7773,"Ġconcert":7774,"Ġtasting":7775,"Ġmasterpiece":7776,"we":7777,"ĠFighting":7778,"Ġspeeding":7779,"Ġcalmly":7780,"Penny":7781,"artled":7782,"arlotte":7783,"ĠRain":7784,"Ġgears":7785,"ĠOkay":7786,"Ġsniffing":7787,"Ġcomforting":7788,"ats":7789,"Ġbraver":7790,"Ġsuggestion":7791,"Mat":7792,"Mira":7793,"ĠLia":7794,"acle":7795,"Ġpleaded":7796,"ĠAny":7797,"Jess":7798,"Ġlabels":7799,"Ġdiscussing":7800,"acles":7801,"Ġmermaid":7802,"ĠSnowman":7803,"Ġdisplayed":7804,"ĠLouise":7805,"Ġmagazines":7806,"Ġspies":7807,"Ġmischie":7808,"Ġstumble":7809,"Ġworrying":7810,"Ġbothering":7811,"Ġaware":7812,"Ġmischievous":7813,"Ġheight":7814,"emma":7815,"Ġunderstands":7816,"asha":7817,"flies":7818,"Ġadmiration":7819,"ĠTry":7820,"Ġunfortunately":7821,"Ġbelongings":7822,"Ġcrowns":7823,"Ġartwork":7824,"Chloe":7825,"Ġefforts":7826,"Ġpuck":7827,"Ġalthough":7828,"Ġfoxes":7829,"Ġjars":7830,"Ġburying":7831,"pen":7832,"ails":7833,"screen":7834,"Ġtoolbox":7835,"Ġhoo":7836,"Ġsav":7837,"Ġseller":7838,"Ġbuddy":7839,"ĠDavey":7840,"Ġrefuse":7841,"rier":7842,"Ġexperienced":7843,"Ġbless":7844,"ighing":7845,"Ġdragonfly":7846,"inted":7847,"Ġdecl":7848,"Ġbitten":7849,"Ġque":7850,"Ġbaskets":7851,"what":7852,"Ġvehicles":7853,"wise":7854,"ibbit":7855,"ĠAlly":7856,"vroom":7857,"Ġdisc":7858,"aturday":7859,"bell":7860,"Ġpackages":7861,"Ġtumbled":7862,"Ġseashells":7863,"Ġannoyed":7864,"Ġsolving":7865,"ĠEva":7866,"Ġpeas":7867,"ugging":7868,"Ġdump":7869,"ĠSaturday":7870,"Ġfires":7871,"Ġmemb":7872,"ipes":7873,"ĠKaty":7874,"Ġpandas":7875,"Ġmembers":7876,"ÅĵThe":7877,"Ġwarmly":7878,"Ġmomma":7879,"Ġtreated":7880,"Ġposit":7881,"Ġtroubles":7882,"Ġrotting":7883,"Ġsunscreen":7884,"Ke":7885,"ĠWally":7886,"Ġsquaw":7887,"Ġwealth":7888,"ĠFroggy":7889,"Ġmaterial":7890,"Ġnibbled":7891,"aint":7892,"Meanwhile":7893,"Beth":7894,"Ġconqu":7895,"Ġscent":7896,"Ġprayers":7897,"Ġuntied":7898,"ÅĵSure":7899,"ĠSofia":7900,"Dear":7901,"Ġstomp":7902,"Ġconversation":7903,"Rachel":7904,"Any":7905,"ĠWil":7906,"Ġgazing":7907,"Ġdiso":7908,"ĠOther":7909,"Ġargum":7910,"Ġcoach":7911,"Ġparted":7912,"Ġinsisting":7913,"Ġenviron":7914,"Ġloops":7915,"Quack":7916,"Ġsill":7917,"ongo":7918,"Joy":7919,"Ġteachers":7920,"Ġsewed":7921,"ĠDory":7922,"Ġcollap":7923,"Ġenvironment":7924,"Ġjoins":7925,"Ġraces":7926,"Ġstored":7927,"ĠPen":7928,"Ġwhispering":7929,"Ġorders":7930,"Get":7931,"Ġscurrying":7932,"Ġencountered":7933,"Ġbea":7934,"ĠDog":7935,"Ġtilted":7936,"ppa":7937,"ortunately":7938,"ĠSamantha":7939,"Ġjoked":7940,"Ġexch":7941,"attered":7942,"Ġspooky":7943,"ĠDuck":7944,"Ġpurpose":7945,"ĠPepper":7946,"Ġtweet":7947,"Goodnight":7948,"Ġpermitted":7949,"ĠPippa":7950,"Ġloses":7951,"aven":7952,"order":7953,"airy":7954,"Ġhoops":7955,"Ġsheets":7956,"Ġcowboy":7957,"Ġtoss":7958,"eedy":7959,"Ġgenie":7960,"Ġtype":7961,"Ġmaker":7962,"igger":7963,"Ġdiamonds":7964,"Ġpupils":7965,"Ġscram":7966,"Ġquarre":7967,"ĠFiona":7968,"Ġtrans":7969,"iscuit":7970,"Ġaim":7971,"ĠFlo":7972,"Ġanticip":7973,"uel":7974,"Ġends":7975,"Ġgap":7976,"Ġturtles":7977,"Ġbeaming":7978,"Ġqueens":7979,"ĠDespite":7980,"Ġglittering":7981,"Ġtubes":7982,"Ġnearest":7983,"Ġdonkey":7984,"Ġservant":7985,"Ġcleared":7986,"Ġspells":7987,"Ġopport":7988,"Am":7989,"ÅĵSee":7990,"Ġvisitors":7991,"illiam":7992,"Ġwhimp":7993,"Rosie":7994,"Ġtapping":7995,"Ġuntie":7996,"Ġstroke":7997,"Ġcustomers":7998,"Ġrin":7999}