{"<|pad|>":0,"<|problem|>":1,"<|step|>":2,"<|answer|>":3,"<|end|>":4,"!":5,"\"":6,"#":7,"$":8,"%":9,"&":10,"'":11,"(":12,")":13,"*":14,"+":15,",":16,"-":17,".":18,"/":19,"0":20,"1":21,"2":22,"3":23,"4":24,"5":25,"6":26,"7":27,"8":28,"9":29,":":30,";":31,"<":32,"=":33,">":34,"?":35,"@":36,"A":37,"B":38,"C":39,"D":40,"E":41,"F":42,"G":43,"H":44,"I":45,"J":46,"K":47,"L":48,"M":49,"N":50,"O":51,"P":52,"Q":53,"R":54,"S":55,"T":56,"U":57,"V":58,"W":59,"X":60,"Y":61,"Z":62,"[":63,"\\":64,"]":65,"^":66,"_":67,"`":68,"a":69,"b":70,"c":71,"d":72,"e":73,"f":74,"g":75,"h":76,"i":77,"j":78,"k":79,"l":80,"m":81,"n":82,"o":83,"p":84,"q":85,"r":86,"s":87,"t":88,"u":89,"v":90,"w":91,"x":92,"y":93,"z":94,"{":95,"|":96,"}":97,"~":98,"¡":99,"¢":100,"£":101,"¤":102,"¥":103,"¦":104,"§":105,"¨":106,"©":107,"ª":108,"«":109,"¬":110,"®":111,"¯":112,"°":113,"±":114,"²":115,"³":116,"´":117,"µ":118,"¶":119,"·":120,"¸":121,"¹":122,"º":123,"»":124,"¼":125,"½":126,"¾":127,"¿":128,"À":129,"Á":130,"Â":131,"Ã":132,"Ä":133,"Å":134,"Æ":135,"Ç":136,"È":137,"É":138,"Ê":139,"Ë":140,"Ì":141,"Í":142,"Î":143,"Ï":144,"Ð":145,"Ñ":146,"Ò":147,"Ó":148,"Ô":149,"Õ":150,"Ö":151,"×":152,"Ø":153,"Ù":154,"Ú":155,"Û":156,"Ü":157,"Ý":158,"Þ":159,"ß":160,"à":161,"á":162,"â":163,"ã":164,"ä":165,"å":166,"æ":167,"ç":168,"è":169,"é":170,"ê":171,"ë":172,"ì":173,"í":174,"î":175,"ï":176,"ð":177,"ñ":178,"ò":179,"ó":180,"ô":181,"õ":182,"ö":183,"÷":184,"ø":185,"ù":186,"ú":187,"û":188,"ü":189,"ý":190,"þ":191,"ÿ":192,"Ā":193,"ā":194,"Ă":195,"ă":196,"Ą":197,"ą":198,"Ć":199,"ć":200,"Ĉ":201,"ĉ":202,"Ċ":203,"ċ":204,"Č":205,"č":206,"Ď":207,"ď":208,"Đ":209,"đ":210,"Ē":211,"ē":212,"Ĕ":213,"ĕ":214,"Ė":215,"ė":216,"Ę":217,"ę":218,"Ě":219,"ě":220,"Ĝ":221,"ĝ":222,"Ğ":223,"ğ":224,"Ġ":225,"ġ":226,"Ģ":227,"ģ":228,"Ĥ":229,"ĥ":230,"Ħ":231,"ħ":232,"Ĩ":233,"ĩ":234,"Ī":235,"ī":236,"Ĭ":237,"ĭ":238,"Į":239,"į":240,"İ":241,"ı":242,"Ĳ":243,"ĳ":244,"Ĵ":245,"ĵ":246,"Ķ":247,"ķ":248,"ĸ":249,"Ĺ":250,"ĺ":251,"Ļ":252,"ļ":253,"Ľ":254,"ľ":255,"Ŀ":256,"ŀ":257,"Ł":258,"ł":259,"Ń":260,"Ġt":261,"he":262,"Ġa":263,"Ġthe":264,"Ġs":265,"in":266,"Ġw":267,"Ġo":268,"er":269,"re":270,"nd":271,"is":272,"Ġb":273,"Ġf":274,"Ġof":275,"Ġc":276,"Ġto":277,"ha":278,"es":279,"ed":280,"Ġ$":281,"Ġp":282,"ĠT":283,"Ġm":284,"Ġand":285,"Ġd":286,"al":287,"Ġis":288,"Ġ=":289,"it":290,"an":291,"ou":292,"on":293,"Ġ1":294,"ĠThe":295,"en":296,"ar":297,"or":298,"ing":299,"at":300,"Ġl":301,"Ġn":302,"Ġg":303,"ac":304,"et":305,"Ġe":306,"Ġ2":307,"as":308,"Ġh":309,"il":310,"Ġhe":311,"Ġha":312,"om":313,"Ġin":314,"id":315,"ay":316,"ow":317,"00":318,"ĠS":319,"ot":320,"le":321,"Ġ+":322,"Ġx":323,"im":324,"Ġwe":325,"hat":326,"ve":327,"ic":328,"Ġ3":329,"##":330,"um":331,"Ġ\\":332,"Ġso":333,"Ġv":334,"ut":335,"Ġwas":336,"ir":337,"Ġan":338,"Ġfor":339,"ion":340,"ĠH":341,"st":342,"Ġ4":343,"Ġ-":344,"Ġu":345,"ber":346,"Ġre":347,"qu":348,"ent":349,"ri":350,"ĠI":351,"ll":352,"Ġon":353,"umber":354,"Ġsa":355,"Ġ5":356,"Ġthat":357,"Ġit":358,"Ġst":359,"oo":360,"Ġr":361,"Ġare":362,"Ġher":363,"iv":364,"wer":365,"Ġy":366,"Ġbe":367,"ue":368,"ld":369,"Ġshe":370,"swer":371,"Ġanswer":372,"ore":373,"ĠL":374,"ig":375,"Ġth":376,"ak":377,"am":378,"Ġ6":379,"ĠW":380,"ce":381,"rac":382,"'s":383,"Ġcan":384,"ly":385,"ad":386,"ĠHe":387,"Ġne":388,"Ġ*":389,"Ġas":390,"ach":391,"Ġval":392,"Ġnumber":393,"ĠShe":394,"tal":395,"Ġtotal":396,"$.":397,"Ġday":398,"ith":399,"Ġvalue":400,"ation":401,"Ġ\"":402,"Ġco":403,"Ġwith":404,"ĠA":405,"Ġk":406,"Ġ(":407,"our":408,"se":409,"ill":410,"pp":411,"ĠM":412,"ht":413,"Ġhis":414,"ver":415,"Ġse":416,"ĠThey":417,"Ġhas":418,"ĠB":419,"Ġeach":420,"}{":421,"Ġdo":422,"Ġpl":423,"Ġequ":424,"Ġ8":425,"Ġby":426,"if":427,"Ġwh":428,"ble":429,"end":430,"frac":431,"ant":432,"ul":433,"ro":434,"ind":435,"ter":436,"Ġ10":437,"Ġhave":438,"ily":439,"Ġman":440,"####":441,"Ġ####":442,"her":443,"un":444,"all":445,"ag":446,"ur":447,"ch":448,"ook":449,"Ġtim":450,"now":451,"Ġper":452,"Ġup":453,"On":454,"rom":455,"ĠJ":456,"Ġsp":457,"Ġbot":458,"nt":459,"Ġ7":460,"Ġsaid":461,"ain":462,"Ġthere":463,"el":464,"Ġ12":465,"th":466,"Ġget":467,"Ġthey":468,"Ġequation":469,"Ġat":470,"ers":471,"Ġ$\\":472,"ound":473,"ĠWe":474,"Ġsid":475,"Ġmany":476,"Ġhad":477,"Ġneed":478,"ĠIf":479,"ake":480,"Ġboth":481,"ĠLily":482,"Ġfrom":483,"50":484,"ack":485,"ĠTo":486,"Ġle":487,"ct":488,"han":489,"ice":490,"Ġ20":491,"ĠN":492,"Ġplay":493,"are":494,"ould":495,"Ġ9":496,"pl":497,"est":498,"ox":499,"ked":500,"ght":501,"10":502,"ra":503,"Ġsh":504,"Ġpo":505,"Ġwant":506,"Ġhour":507,"res":508,"Ġwill":509,"Ġtw":510,"ĠThere":511,"Ġyou":512,"Ġsides":513,"ide":514,"ia":515,"Ġgiv":516,"ars":517,"ĠC":518,"Ġcost":519,"<<":520,">>":521,"$,":522,"Ġtime":523,"fore":524,"20":525,"Ġfind":526,"ich":527,"Ġun":528,"Ġnot":529,"ome":530,"ie":531,"one":532,"Ġmom":533,"ate":534,"my":535,"ry":536,"ents":537,"ount":538,"co":539,"000":540,"Ġmin":541,"ies":542,"les":543,"ub":544,"Ġwhat":545,"art":546,"ks":547,"Ġwhich":548,"ine":549,"Ġex":550,"ĠF":551,"Ġpro":552,"ree":553,"ere":554,"itt":555,"Ġthan":556,"Ġfri":557,"Ġfe":558,"Ġsol":559,"Ġj":560,"Ġall":561,"Ġthis":562,"ud":563,"op":564,"Ġme":565,"Ġ0":566,"Ġsm":567,"ĠD":568,"Ġfriend":569,"Ġmu":570,"ard":571,"Ġlo":572,"Ġwere":573,"ĠOn":574,"Ġhapp":575,"Ġbut":576,"Ġbu":577,"ĠE":578,"mat":579,"Ġminut":580,"ery":581,"ĠSo":582,"ĠTherefore":583,"Ġgiven":584,"ĠĠ":585,"Ġhow":586,"Ġye":587,"Ġthen":588,"Ġli":589,"ft":590,"Ġal":591,"Ġ/":592,"Ġgo":593,"Ġsolve":594,"Ġ30":595,"ĠNumber":596,"ight":597,"hen":598,"Ġint":599,"Ġ15":600,"Ġout":601,"Ġcom":602,"}$.":603,"Ġcl":604,"ĠX":605,"Ġdid":606,"ke":607,"ive":608,"ip":609,"Ġthem":610,"12":611,"ĠIt":612,"and":613,"aria":614,"Ġvery":615,"eg":616,"Ġro":617,"ittle":618,"erm":619,"Ġbig":620,"ick":621,"nown":622,"Ġlittle":623,"known":624,"Ġone":625,"Ġunknown":626,"ays":627,"Ġtheir":628,"Ġvaria":629,"irst":630,"Ġhours":631,"Ġmore":632,"ĠTim":633,"Ġam":634,"Ġminutes":635,"Ġch":636,"Ġvariable":637,"Ġwor":638,"Ġqu":639,"Ġknow":640,"ite":641,"dot":642,"Ġhappy":643,"ts":644,"ge":645,"ĠLet":646,"ab":647,"Ġsaw":648,"Ġor":649,"ec":650,"40":651,"Ġcon":652,"Ġhim":653,"box":654,"very":655,"Ġwee":656,"own":657,"Ġtwo":658,"Ġtoo":659,".\"":660,"Ġsc":661,"ird":662,"pres":663,"Ġpr":664,"hes":665,"cdot":666,"boxed":667,"ĠHow":668,"'t":669,"ood":670,"60":671,"Ġdiv":672,"ist":673,"Ġrem":674,"Ġfirst":675,"impl":676,"ĠOne":677,"ved":678,"Ġ<<":679,"Ġwat":680,"Ġlook":681,"ong":682,"ĠWhat":683,"implif":684,"irl":685,"ol":686,"fter":687,"ought":688,"Ġar":689,"ck":690,"au":691,"!\"":692,"arn":693,"100":694,"Ġad":695,"age":696,"Ġgirl":697,"Ġpe":698,"ract":699,"ark":700,"}$":701,"Ġ50":702,"Ġab":703,"Ġmil":704,"akes":705,"oy":706,"ast":707,"Ġmuch":708,"lf":709,"Ġfl":710,"Once":711,"us":712,"Ġ60":713,"implify":714,"ings":715,"Ġ&":716,"ade":717,"get":718,"Ġmake":719,"ess":720,"ince":721,"Ġ40":722,"ang":723,"Ġbl":724,"Ġfriends":725,"ult":726,"Ġamount":727,"ĠP":728,"ally":729,"80":730,"ĠBen":731,"ĠTom":732,"Ġset":733,"hed":734,"ĠIn":735,"Ġwanted":736,"15":737,"ep":738,"Ġ100":739,"Ġleft":740,"Ġthree":741,"ame":742,"Ġupon":743,"rt":744,"Ġ16":745,"Ġwould":746,"Ġfo":747,"Ġweek":748,"Ġcould":749,"Ġtimes":750,"ass":751,"Ġgr":752,"Ġevery":753,"cond":754,"Ġus":755,"qrt":756,"Ġsqu":757,"30":758,"25":759,"Ġback":760,"iz":761,"oney":762,"sqrt":763,"Ġinc":764,"Ġsecond":765,"Ġwent":766,"ans":767,"ows":768,"Ġpa":769,"Ġstud":770,"Ġdown":771,"ons":772,"Ġtri":773,"Ġwho":774,"rix":775,"ĠSince":776,"Ġmoney":777,"Ġbr":778,"Ġfun":779,"Ġsmil":780,"gs":781,"Ġwr":782,"ĠR":783,"Ġwhen":784,"Ġlike":785,"Ġ24":786,"Ġnew":787,"os":788,"Ġ25":789,"Ġbook":790,"Ġmade":791,"Ġstart":792,"Ġinto":793,"If":794,"Ġyears":795,"Ġhel":796,"Ġold":797,"gether":798,"Ġte":799,"Ġdoes":800,"ys":801,"day":802,"ces":803,"Ġdays":804,"ove":805,"Ġbox":806,"ps":807,"Ġcar":808,"ther":809,"Ġmiles":810,"Ġdec":811,"Ġapp":812,"ase":813,"ax":814,"matrix":815,"Ġball":816,"Ġsquare":817,"Ġsum":818,"tract":819,"Ġtr":820,"Ġ14":821,"eterm":822,"ĠBut":823,"Ġmon":824,"?\"":825,"ish":826,"od":827,"amed":828,"Ġhelp":829,"ure":830,"ople":831,"ubtract":832,"Ġtake":833,"Ġ18":834,"Ġboy":835,"The":836,"Ġsome":837,"ĠG":838,"Ġpeople":839,"way":840,"ave":841,"Ġneeds":842,"its":843,"Ġ$(":844,"Ġ\\\\":845,"Ġsee":846,"ĠTimmy":847,"Ġbre":848,"Ġcu":849,"ets":850,"ug":851,"Ġwater":852,"Ġpos":853,"Ġag":854,"Ġif":855,"aining":856,"Ġpound":857,"Ġnamed":858,"pmatrix":859,"Ġrepres":860,"right":861,")^":862,"ided":863,"omet":864,"You":865,"Ġfeet":866,"Ġstudents":867,"Ġother":868,"Ġeat":869,"etermine":870,"side":871,"Ġsl":872,"hb":873,"out":874,"so":875,"fer":876,"Ġfoll":877,"elt":878,"Ġtogether":879,"16":880,"Ġbird":881,"hing":882,"Ġaway":883,"we":884,"ace":885,"Ġcol":886,"blem":887,"estion":888,"Ġproblem":889,"Ġquestion":890,"Ġloved":891,"Ġadd":892,"ultip":893,"orm":894,"Ġwal":895,"Ġalso":896,"xt":897,"ĠJo":898,"Ġbought":899,"Ġasked":900,"ance":901,"other":902,"av":903,"Ġgre":904,"Ġhalf":905,"ouse":906,"Ġfelt":907,"Ġaround":908,"ool":909,"Ġearn":910,"Ġsmiled":911,"Ġhome":912,"Ġpoin":913,"Ġmonth":914,"Ġafter":915,"irc":916,"otal":917,"ff":918,"act":919,"Ġpark":920,"Ġremaining":921,"ous":922,"Ġdetermine":923,"Ġput":924,"ity":925,"Ġlooked":926,"imes":927,"ild":928,"Ġtwice":929,"iding":930,"Ġran":931,"ence":932,"ĠTotal":933,"Ġwrite":934,"ne":935,"ob":936,"na":937,"Ġbec":938,"per":939,"ial":940,"Ġbet":941,"ors":942,"Ġabove":943,"Ġlong":944,"eng":945,"Ġrepresents":946,"Ġcat":947,"Ġpounds":948,"Ġrun":949,"Ġsmall":950,"ire":951,"ful":952,"Ġspend":953,"ĠK":954,"Ġ13":955,"Ġdog":956,"mathb":957,"here":958,"Ġread":959,"Ġ80":960,"Ġ11":961,"mathbf":962,"Ġpie":963,"Ġsimplify":964,"Ġdivide":965,"Ġequal":966,"og":967,"Ġ200":968,"ages":969,"Ġinteg":970,"Ġcook":971,"Ġstarted":972,"gh":973,"Ġno":974,"uc":975,"ĠTh":976,"Ġdif":977,"ny":978,"Ġfound":979,"Ġsha":980,"Ġspent":981,"Ġbuy":982,"Ġdoll":983,"Ġgot":984,",\"":985,"Ġho":986,"^{":987,")$":988,"Ġsold":989,"Ġdiffer":990,"ots":991,"Ġtook":992,"ving":993,"Ġsomet":994,"ara":995,"ared":996,"âĤ":997,"âĤ¬":998,"Ġgave":999,"Ġbooks":1000,"Ġbreak":1001,"ens":1002,"form":1003,"Ġcha":1004,"24":1005,"ĠYou":1006,"em":1007,"ited":1008,"ultiply":1009,"ary":1010,"Ġyour":1011,"oud":1012,"Ġfour":1013,"ell":1014,"Ġinches":1015,"Ġsell":1016,"ards":1017,"Ġsays":1018,"200":1019,"Ġagain":1020,"Ġpic":1021,"14":1022,"Ġred":1023,"hn":1024,"als":1025,"Ġdist":1026,"ues":1027,"ven":1028,"Ġterm":1029,"Ġhouse":1030,"ength":1031,"Ġcont":1032,"Ã¢":1033,"Ġ\\[":1034,"Ġover":1035,"bin":1036,"ust":1037,"ĠAn":1038,"ĠMom":1039,"ĠDiv":1040,"Ġbag":1041,"Ġgood":1042,"raw":1043,"pped":1044,"press":1045,"ĠDividing":1046,"Ġsad":1047,"Ġtree":1048,"Ġ36":1049,"ough":1050,"egin":1051,"18":1052,"ction":1053,"ile":1054,"begin":1055,"Ġtakes":1056,"Ġsomething":1057,"ible":1058,"Ġapples":1059,"ĠSam":1060,"ĠThen":1061,"Ġmeans":1062,"times":1063,"Ġfollows":1064,"Ġexc":1065,"11":1066,")(":1067,"Ġgra":1068,"Ġplaying":1069,"ap":1070,"ost":1071,");":1072,"What":1073,"Ġyear":1074,"ond":1075,"Ġsubtract":1076,"Ġlength":1077,"ull":1078,"formation":1079,"ort":1080,"orn":1081,"Ġfact":1082,"Ġcand":1083,"Ġinformation":1084,"Ġmar":1085,"ĠSimplify":1086,"Ġrece":1087,"Ġpre":1088,"verage":1089,"ĠSimplifying":1090,"\\]":1091,"pi":1092,"wn":1093,"Ġche":1094,"ise":1095,"Ġcal":1096,"Ġdecided":1097,"Ġless":1098,"Ġisol":1099,"ĠAfter":1100,"Ġlet":1101,"Ġarea":1102,"Ġ$<<":1103,"Ġisolate":1104,"ived":1105,"Ġpack":1106,"Ġblue":1107,"Ġcomp":1108,"75":1109,"ices":1110,"Ġany":1111,"angle":1112,"ĠEach":1113,"Ġ120":1114,"Ġside":1115,"Ġfin":1116,"Ġform":1117,"Ġmat":1118,"Ġen":1119,"ty":1120,"ĠHer":1121,"{\\":1122,"Ġnow":1123,"Ġtoys":1124,"Ġroom":1125,"Ġsw":1126,"13":1127,"ute":1128,"Ġprice":1129,"ĠWhen":1130,"ĠJohn":1131,"ames":1132,"Ġcame":1133,"Ġdad":1134,"Ġoff":1135,"ause":1136,"Ġthird":1137,"rave":1138,"Ġthings":1139,"Ġsu":1140,"Ġposit":1141,"Ġliked":1142,"igh":1143,"te":1144,"Ġpages":1145,"Ġdis":1146,"Ġcosts":1147,"Ġpay":1148,"uck":1149,"Ġuse":1150,"Ġfish":1151,"Ġcookies":1152,"Ġaverage":1153,"ubst":1154,"Ġnumbers":1155,"ect":1156,"Ġend":1157,"ĠAnd":1158,"ubstit":1159,"Ġabout":1160,"Ġpieces":1161,"ord":1162,"Ġwork":1163,"Ġonly":1164,"bles":1165,"urn":1166,"aking":1167,"Ġstore":1168,"Ġclass":1169,"mon":1170,"Ġpoints":1171,"Ġang":1172,"Ġhug":1173,"Ġsk":1174,"me":1175,"Ġthese":1176,"ank":1177,"Ġbecause":1178,"ĠMax":1179,"Ġprod":1180,"ways":1181,"Ġexcited":1182,"Ġpositive":1183,"ĠSara":1184,"rees":1185,"Ġcare":1186,"Ġdon":1187,"ins":1188,"Ġflow":1189,"Ġmy":1190,"ĠJack":1191,"Ġ90":1192,"ition":1193,"lect":1194,"Ġits":1195,"Ġalways":1196,"}\\":1197,"ink":1198,"Ġdr":1199,"Ġwants":1200,"ged":1201,"),":1202,"Ġgives":1203,"36":1204,"Ġscore":1205,"oes":1206,"udd":1207,"Ġfr":1208,"Ġthr":1209,"chool":1210,"ment":1211,"ĠHis":1212,"Ġpur":1213,"ates":1214,"irs":1215,"Ġshow":1216,"ween":1217,"ix":1218,"Ġanim":1219,"Ġsame":1220,"Ġfeel":1221,"Ġhand":1222,"Ġused":1223,"Ġscared":1224,"Ġlar":1225,"Ġwhere":1226,"Ġbetween":1227,"Ġpart":1228,"cks":1229,"Ġlau":1230,"Ġdidn":1231,"Ġdig":1232,"Ġop":1233,"Ġpain":1234,"=\\":1235,"ump":1236,"Ġwa":1237,"Ġ45":1238,"cc":1239,"Ġeg":1240,"Ġtick":1241,"Ġcho":1242,"arm":1243,"ting":1244,"Ġsal":1245,"Ġ19":1246,"Ġ28":1247,"Ġbott":1248,"Ġchild":1249,"Ġexpress":1250,"Ġpen":1251,"Ġwalk":1252,"Ġplant":1253,"Ġprodu":1254,"ened":1255,"Ġgall":1256,"Ġschool":1257,"able":1258,"Ġoutside":1259,"Ġlearn":1260,"cos":1261,"Ġ17":1262,"Ġkne":1263,"ĠAnna":1264,"ane":1265,"ĠFrom":1266,".$":1267,"ren":1268,"Ġthought":1269,"Ġcr":1270,"Ġ32":1271,"Ġspec":1272,"Ġdistance":1273,"Ġage":1274,"Ġfood":1275,"Ġmommy":1276,"der":1277,"Ġtoy":1278,"Ġ48":1279,"Ġ27":1280,"Ġbefore":1281,"Ġfam":1282,"Ġdraw":1283,"left":1284,"ĠO":1285,"Ġ21":1286,"Ġplayed":1287,"ions":1288,"ign":1289,"Ġ35":1290,"Ġsun":1291,"circ":1292,"Ġnext":1293,"Ġ150":1294,"ail":1295,"ph":1296,",$":1297,"90":1298,"Ġfactor":1299,"Ġeven":1300,"Ġmet":1301,"ime":1302,"Ġspecial":1303,"cul":1304,"sin":1305,"Ġgreat":1306,"Ġposs":1307,"ses":1308,"Ġstill":1309,"Ġrest":1310,"Ġgl":1311,"Ġvalues":1312,"Ġcre":1313,"Ġcle":1314,"ĠThis":1315,"Ġspends":1316,"Ġz":1317,"cha":1318,"orry":1319,"Ġmarbles":1320,"ĠAm":1321,"ume":1322,"ĠFor":1323,"Ġtold":1324,"ated":1325,"ves":1326,"Ġinside":1327,".\\]":1328,"^\\":1329,"Ġmust":1330,"Ġ300":1331,"Ġhar":1332,"ĠCost":1333,"Ġanimals":1334,"Ġterms":1335,"Ġinteger":1336,"Ġknew":1337,"Ġweeks":1338,"Ġdifferent":1339,"45":1340,"ĠBob":1341,"ĠEvery":1342,"Ġmultiply":1343,"ĠSubtract":1344,"Ġstr":1345,"Ġpossible":1346,"led":1347,"Ġoun":1348,"eep":1349,"iss":1350,"Ġboxes":1351,"udden":1352,"Ġres":1353,"inder":1354,"Ġ22":1355,"red":1356,"Ġtry":1357,"ĠSubtracting":1358,"izz":1359,"Ġdollars":1360,"(-":1361,"Ġcars":1362,"gin":1363,"Ġate":1364,"Ġweight":1365,"Ġeggs":1366,"Ġunits":1367,"son":1368,"Ġspe":1369,"Ġsorry":1370,"Ġcur":1371,"Ġgreen":1372,"Ġshould":1373,"cent":1374,"Ġreal":1375,"Ġfamily":1376,"uddenly":1377,"Ġdri":1378,"Ġlast":1379,"Ġbase":1380,"Ġmo":1381,"))":1382,"Ġmakes":1383,"aught":1384,"Ġwhile":1385,"Ġcards":1386,"Ġgard":1387,"by":1388,"120":1389,"self":1390,"Ġcall":1391,"--":1392,"Ġdivis":1393,"ams":1394,"Ġpaid":1395,"Ġtried":1396,"Ġfill":1397,"Ġgarden":1398,"Ġorder":1399,"Ġjust":1400,"Ġintegers":1401,"be":1402,"oin":1403,"ady":1404,"Ġcalcul":1405,"ose":1406,"equ":1407,"sh":1408,"Ġcons":1409,"Ġsur":1410,"ied":1411,"ular":1412,"Ġneeded":1413,"Ġshir":1414,"Ġexpl":1415,"ats":1416,"Ġounces":1417,"urt":1418,"Ġbas":1419,"Ġkil":1420,"Ġhold":1421,"Ġown":1422,"Ġve":1423,"Ġexpression":1424,"Ġblo":1425,"Ġsand":1426,"Ġpurcha":1427,"Ġcollect":1428,"=<<":1429,"pe":1430,"Ġproud":1431,"ĠNow":1432,"Ġlist":1433,"eter":1434,"ters":1435,"Ġunt":1436,"Ġchildren":1437,"Ġ$-":1438,"Ġnever":1439,"els":1440,"Ġexp":1441,"Ġpicked":1442,"Ġ75":1443,"Ġbuys":1444,"Ġbrother":1445,"Ġcirc":1446,"ula":1447,"Ġcouldn":1448,"17":1449,")$.":1450,"Ġim":1451,"Ġinit":1452,"Ġpret":1453,"Ġspeed":1454,"Ġcontain":1455,"Ġright":1456,"Ġuntil":1457,"nder":1458,"Ġcommon":1459,"ĠMia":1460,"32":1461,"ger":1462,"Ġbill":1463,"Ġreceived":1464,"Ġ400":1465,"Ġgallons":1466,"$?":1467,"Ġrema":1468,"Ġheard":1469,"Ġpaint":1470,"(\\":1471,"300":1472,"ball":1473,"Ġflo":1474,"Ġgame":1475,"Ġ70":1476,"Ġnice":1477,"Ġflowers":1478,"cil":1479,"500":1480,"rigin":1481,"Ġhugged":1482,"bab":1483,"uring":1484,"rent":1485,"ĠSuddenly":1486,"Ġballs":1487,"Ġdivided":1488,"Ġclean":1489,"bed":1490,"vent":1491,"Ġpizz":1492,"Ġtrave":1493,"ries":1494,"col":1495,"Ġdifference":1496,"anc":1497,"ee":1498,"400":1499,"ility":1500,"150":1501,"Ġtriangle":1502,"ss":1503,"'m":1504,"}$,":1505,"Ġyell":1506,"Ġ180":1507,"Ġpencil":1508,"Ġlit":1509,"Ġslices":1510,"Ġbo":1511,"Ġgu":1512,"ures":1513,"Ġline":1514,"Ġinter":1515,"Ġbest":1516,"Ġkind":1517,"Ġcandy":1518,"Ġjump":1519,"ath":1520,"uts":1521,"ange":1522,"Ġorigin":1523,"Ġcups":1524,"ning":1525,"Ġtickets":1526,"ious":1527,"Ġprime":1528,"Ġsat":1529,"Ġtall":1530,"dd":1531,"Ġprobab":1532,"Ġbags":1533,"Ġlaug":1534,"port":1535,"Ġaddition":1536,"Ġstick":1537,"ma":1538,"Ġgoing":1539,"ised":1540,"oup":1541,"aves":1542,"pr":1543,"Ġpu":1544,"28":1545,"Ġsay":1546,"az":1547,"illy":1548,"35":1549,"Ġtrip":1550,"pm":1551,"Ġbed":1552,"ater":1553,"Ġformula":1554,"Ġcurrent":1555,"Ġproduct":1556,"Ġdel":1557,"Ġcombin":1558,"ads":1559,"Ġbetter":1560,"Yes":1561,"ĠSol":1562,"Ġremainder":1563,"Ġpoint":1564,"room":1565,"Ġthrough":1566,"Let":1567,"ati":1568,"Ġlearned":1569,"Ġcub":1570,"Ġbear":1571,"Ġheight":1572,"Ġnight":1573,"Ġvol":1574,"Ġser":1575,"sing":1576,"Ġway":1577,"Ġwalked":1578,"Ġdisc":1579,"19":1580,"ched":1581,"Ġlove":1582,"600":1583,"Ġclos":1584,"ubstitut":1585,"Ġfly":1586,"ĠSolving":1587,"ike":1588,"Ġgets":1589,"Ġanother":1590,"Ġdeg":1591,"Ġprobability":1592,"dy":1593,"ially":1594,"ĠAmount":1595,"Ġcome":1596,"Ġfollow":1597,"log":1598,"ĠFin":1599,"70":1600,"Ġunder":1601,"Ġbeing":1602,"Ġcup":1603,"Ġfive":1604,"ĠU":1605,"Ġ500":1606,"oose":1607,"aut":1608,"Ġcount":1609,"ished":1610,"Ġde":1611,"ried":1612,"fe":1613,"Ġearned":1614,"Ġtrees":1615,"Ġem":1616,"ultiplying":1617,"ĠLuc":1618,"Ġfract":1619,"Ġchocol":1620,"imum":1621,"Ġpaper":1622,"Ġminute":1623,"reas":1624,"ator":1625,"anges":1626,"oons":1627,"ert":1628,"ips":1629,"ubstituting":1630,"}}":1631,"Ġ26":1632,"Ġword":1633,"Ġbuild":1634,"ize":1635,"Ġfru":1636,"Ġsells":1637,"Ġrain":1638,"Ġstay":1639,"Ġoranges":1640,"Ġsky":1641,"Ġph":1642,"Ġgive":1643,"Ġdogs":1644,"Ġ(-":1645,"line":1646,"ĠMr":1647,"ĠAs":1648,"Ġwind":1649,"Ġshare":1650,"Ġcareful":1651,"Ġturn":1652,"Ġadditional":1653,"Ġfle":1654,"Ġyellow":1655,"_{":1656,").":1657,"Ġmeters":1658,"Ġwhite":1659,"the":1660,"22":1661,"Ġhard":1662,"ls":1663,"Ġ\\[\\":1664,"ift":1665,"Ġbeaut":1666,"ĠFr":1667,"lo":1668,"Ġkid":1669,"Ġchan":1670,"ept":1671,"Ġroll":1672,"Ġpercent":1673,"Ġthanked":1674,"Ġdro":1675,"ress":1676,"ric":1677,"ĠAl":1678,"text":1679,"Ġsto":1680,"Ġfarm":1681,"Ġperson":1682,"Ġlaughed":1683,"Ġmean":1684,"Ġ42":1685,"Ġgames":1686,"ory":1687,"iced":1688,"Ġkeep":1689,"iny":1690,"Ġsafe":1691,"Ġ72":1692,"Number":1693,"Ġpencils":1694,"Ġbask":1695,"Ġdigit":1696,"21":1697,"ĠV":1698,"eb":1699,"ories":1700,"ĠEx":1701,"Ġac":1702,"Ġ600":1703,"ĠFinally":1704,"kes":1705,"ta":1706,"Ġweigh":1707,"Ġways":1708,"nts":1709,"Ġlot":1710,"ĠMultiplying":1711,"Ġ23":1712,"elly":1713,"48":1714,"Ġswe":1715,"arr":1716,"oon":1717,"Ġ&=":1718,"Ġhigh":1719,"It":1720,"Ġclim":1721,"Ġseconds":1722,"ĠSubstituting":1723,"gest":1724,"Ġloud":1725,"ĠÃ¢":1726,"}{\\":1727,"Ġsis":1728,"Ġchar":1729,"Ġlots":1730,"Ġcompl":1731,"27":1732,"ches":1733,"Ġblocks":1734,"Ġbeautif":1735,"Ġrec":1736,"Ġbeen":1737,"Ġbeautiful":1738,"Ġlived":1739,"ather":1740,"ĠMond":1741,"Ġcase":1742,"Ġnod":1743,"ower":1744,"Ġlab":1745,"Ġinitially":1746,"Ġcake":1747,"Ġground":1748,"Ġbutter":1749,"mber":1750,"Ġcans":1751,"ian":1752,"aces":1753,"Ġbad":1754,"Ġcent":1755,"ross":1756,"ired":1757,"Ġwait":1758,"pt":1759,"ete":1760,")*":1761,"Ġ1000":1762,"ĠMonday":1763,"Ġfull":1764,"Ġusing":1765,"ubstitute":1766,"Ġcalculate":1767,"ĠLucy":1768,"Ġpass":1769,"thing":1770,"inn":1771,"Ġsn":1772,"Ġlost":1773,"Ġwatch":1774,"Ġdiscount":1775,"Ġ($":1776,"Ġent":1777,"Ġpict":1778,"Ġfast":1779,"Ġpare":1780,"und":1781,"Ġliters":1782,"Ġsubstitute":1783,"Åĵ":1784,"Ġtruck":1785,"ope":1786,"Ġfraction":1787,"{-":1788,"Ġbus":1789,")--":1790,"ĠMar":1791,"ĠCar":1792,"Ġcalled":1793,"99":1794,"Ġkept":1795,"Ġmonths":1796,"Ġleaves":1797,"Ġice":1798,"leep":1799,"Ġsuch":1800,"Ġround":1801,"Ġchocolate":1802,"Ġfore":1803,"Ġ240":1804,"Ġflew":1805,"âĢ":1806,"gan":1807,"kay":1808,"ummy":1809,"Ġvolume":1810,"Ġrate":1811,"Ġwords":1812,"Ġra":1813,"Ġgrand":1814,"ordin":1815,"Ġpairs":1816,"hank":1817,"Ġrect":1818,"Ġreg":1819,"equiv":1820,"Ġclot":1821,"Ġearns":1822,"Ġoriginal":1823,"Ġey":1824,"Ġsolut":1825,"Ġsmallest":1826,"Ġcombined":1827,"Ġrew":1828,"Ġchick":1829,"Ġkn":1830,"Ġmilk":1831,"Ġrad":1832,"Ġbrave":1833,"));":1834,"ĠCom":1835,"Ġbro":1836,"Ġchoose":1837,"Ġhurt":1838,"theta":1839,"Ġbottles":1840,"iven":1841,"Ġsong":1842,"Ġscored":1843,"Ġmaking":1844,"Ġquar":1845,"Ġteam":1846,"Ġpizza":1847,"\",":1848,"Ġangry":1849,"Ġplace":1850,"Ġsister":1851,"rew":1852,"Ġlooking":1853,"Ġshirts":1854,"abb":1855,"Ġcircle":1856,"bs":1857,"ĠAt":1858,"ale":1859,"Ġgirls":1860,"Ġmag":1861,"Ġacc":1862,"ides":1863,"Ġopened":1864,"Ġworked":1865,"Ġkids":1866,"Ġruns":1867,"ables":1868,"ĠJoe":1869,"yc":1870,"lly":1871,"Ġsing":1872,"Ġwalking":1873,"uff":1874,"ized":1875,"ded":1876,"isf":1877,"pping":1878,"Ġable":1879,"Ġfloor":1880,"gr":1881,")=":1882,"Ġvis":1883,"Ġrepl":1884,"ĠJen":1885,"ember":1886,"icks":1887,"Ġfro":1888,"Ġpair":1889,"ĠSue":1890,"Ġ64":1891,"Ġwall":1892,"Ġdegrees":1893,"Ġsurpr":1894,"ered":1895,"ogr":1896,"Ġboys":1897,"ield":1898,"Ġsatisf":1899,"Ġsoon":1900,"ĠFirst":1901,"Ġsix":1902,"la":1903,"pha":1904,"Ġmember":1905,"Ġeats":1906,"Ġcm":1907,"Ġbow":1908,"1000":1909,"Ġpick":1910,"Ġfoot":1911,"Ġbasket":1912,"ĠJane":1913,"ants":1914,"Ġlight":1915,"unch":1916,"Ġbirds":1917,"Ġlabel":1918,"ĠEm":1919,"Ġexplore":1920,"ash":1921,"Ġpretty":1922,"ical":1923,"Ġshiny":1924,"Ġmorn":1925,"rib":1926,"Ġleast":1927,"Ġmorning":1928,"ĠSarah":1929,"}(":1930,"ĠTues":1931,"Ġstop":1932,"Ġhands":1933,"Ġcut":1934,"pot":1935,"ines":1936,"Ġrabb":1937,"Ġplan":1938,"}}$.":1939,"itc":1940,"Ġ33":1941,"Ġwood":1942,"Ġbars":1943,"over":1944,"Ġcry":1945,"binom":1946,"zen":1947,"ations":1948,"Ġlarge":1949,"Ġparty":1950,"Ġkilogr":1951,"Ġeyes":1952,"Ġ56":1953,"ĠTuesday":1954,"air":1955,"Ġblack":1956,"Ġnoise":1957,"ucks":1958,"pes":1959,"Ġduring":1960,"Ġdoor":1961,"Ġsit":1962,"ĠJames":1963,"Ġsod":1964,"pmod":1965,"Ġcray":1966,"Ġbrown":1967,"In":1968,"Ġel":1969,"Ġparents":1970,"agon":1971,"Ġmeas":1972,"Ġcover":1973,"atio":1974,"Ġhot":1975,"Ġpot":1976,"Ġbar":1977,"Ġ160":1978,"ultiple":1979,"Ġide":1980,"Ġangle":1981,"Ġprof":1982,"eds":1983,"omes":1984,"Ġjelly":1985,"ĠAdd":1986,"Ġnodded":1987,"Ġradi":1988,"lud":1989,"Ġtable":1990,"ready":1991,"Ġalready":1992,"Ġuses":1993,"Ġcollected":1994,"Ġadvent":1995,"Ġcust":1996,"Ġselling":1997,"Ġlargest":1998,"No":1999,"}}{":2000,"Ġmultiple":2001,"Ġmax":2002,"Ġhaving":2003,"Ġfunction":2004,"Ġcoff":2005,"inner":2006,"Ġfourth":2007,"Ġfav":2008,"Ġshoes":2009,"aring":2010,"Ġsleep":2011,"inks":2012,"Ġrewr":2013,"Ġhead":2014,"ider":2015,"ĠMary":2016,"aybe":2017,"ĠJim":2018,"((":2019,"Ġmother":2020,"cket":2021,"Ġbab":2022,"72":2023,"Ġ54":2024,"ĠCh":2025,"Ġcustom":2026,"Ġbel":2027,"Ġfire":2028,"joy":2029,"Ġ<":2030,"Ġbottle":2031,"Ġrequ":2032,"Ġworth":2033,")--(":2034,"Ġpull":2035,"ident":2036,"Ġwatched":2037,"ever":2038,"ila":2039,"Ġmid":2040,"ais":2041,"Ġdress":2042,"Ġty":2043,"iday":2044,"Ġcoins":2045,"Ġdi":2046,"Ġidea":2047,"Ġcaught":2048,"nes":2049,"Ġcurrently":2050,"amp":2051,"to":2052,"Ġplants":2053,"Ġpacks":2054,"Ġfeeling":2055,"Ġsees":2056,"ctor":2057,"âĢĻ":2058,"Ġsandw":2059,"(\"":2060,"sed":2061,"Ġeveryone":2062,"Ġten":2063,"Ġele":2064,"Ġpop":2065,"Ġratio":2066,"ĠMommy":2067,"Ġdou":2068,"ling":2069,"ives":2070,"Ġcream":2071,"Ġdigits":2072,"Ġswim":2073,"lls":2074,"Ġslide":2075,"Ġlisten":2076,"ĠSt":2077,"Ġcalories":2078,"cess":2079,"Ġdozen":2080,"ina":2081,"Ġforest":2082,"Ġmess":2083,"Ġrewrite":2084,"Ġopen":2085,"urs":2086,"ĠDad":2087,"Ġenjoy":2088,"That":2089,"Ġremember":2090,"Ġroot":2091,"ative":2092,"Ġsmile":2093,"Ġcents":2094,"Ġequations":2095,"âĦ":2096,"âĤ¬âĦ":2097,"âĤ¬âĦ¢":2098,"Ġstopped":2099,"Thank":2100,",-":2101,"Ġpupp":2102,"idth":2103,"Ġsnow":2104,"erry":2105,"Ġfar":2106,"Ġcrayons":2107,"Ġgas":2108,"ined":2109,"Ġban":2110,"Ġste":2111,"Ġprin":2112,"ason":2113,"Ġcolor":2114,"ĠMark":2115,"64":2116,"Ġju":2117,"Ġcoffee":2118,"Lily":2119,"Ġapple":2120,"Ġla":2121,"Ġweighs":2122,"ĠNe":2123,"Ġride":2124,"Ġ34":2125,"ĠWed":2126,"any":2127,"Ġatt":2128,"Ġfavor":2129,"800":2130,"Ġrow":2131,"Ġwhole":2132,"Ġnear":2133,"Ġtal":2134,"ush":2135,"ĠWednes":2136,"Ġbanan":2137,"Ġtow":2138,"anding":2139,"^{-":2140,"Ġbit":2141,"Ġreach":2142,"Ġenough":2143,"fl":2144,"Ġtop":2145,"align":2146,"ese":2147,"Ġjob":2148,"Ġface":2149,"poin":2150,"Ġbread":2151,"up":2152,"Ġwond":2153,"Ġ96":2154,"We":2155,"ted":2156,"Ġstrong":2157,"rat":2158,"Ġimport":2159,"Ġrunning":2160,"Ġcontains":2161,"Ġchairs":2162,"Ġstre":2163,"}=\\":2164,"Ġworks":2165,"ments":2166,"itchen":2167,"ĠUsing":2168,"Ġtrain":2169,"Ġwon":2170,"Ġinv":2171,"Ġkitchen":2172,"ĠWednesday":2173,"ier":2174,"Ġpens":2175,"row":2176,"Ġair":2177,"Ġour":2178,"Ġ52":2179,"Ġfinish":2180,"Ġmaximum":2181,"Ġkg":2182,"lex":2183,")$,":2184,"amps":2185,"Ġnoticed":2186,"Ġbecame":2187,"ĠFriday":2188,"olly":2189,"Ġmov":2190,"Ġperf":2191,"Ġtomat":2192,"Ġsequ":2193,"33":2194,"Ġshowed":2195,"Ġsound":2196,"Ġgroup":2197,"Ġtest":2198,"Ġteac":2199,"Ġbat":2200,"Ġquad":2201,"Ġboat":2202,"Ġdivisible":2203,"ones":2204,"Ġwhe":2205,"Ġflower":2206,"Ġhair":2207,"Ġitem":2208,"Ġfell":2209,"Ġcandies":2210,"lease":2211,"Ġcatch":2212,"Ġbills":2213,"ung":2214,"Ġcats":2215,"Ġquick":2216,"Ġbrought":2217,"ĠBilly":2218,"div":2219,"Ġrepresent":2220,"}.\\]":2221,"Ġmod":2222,"250":2223,"Ġever":2224,"ient":2225,"Ġ29":2226,"Ġprofit":2227,"Ġrabbit":2228,"ib":2229,"Ġamaz":2230,"Ġincreas":2231,"ĠAdding":2232,"Ġfur":2233,"Ġgold":2234,"Ġpercentage":2235,"Ġokay":2236,"Ġ55":2237,"Ġlegs":2238,"Ġden":2239,"Ġfruit":2240,"ges":2241,"Ġfewer":2242,"Ġjar":2243,"Ġreac":2244,"180":2245,"Ġpar":2246,"Ġpig":2247,"aster":2248,"Ġspl":2249,"Ġgrab":2250,"Ġballoons":2251,"ĠSpot":2252,"26":2253,"Ġreplied":2254,"Ġ250":2255,"Ġwarm":2256,"ĠThat":2257,"ating":2258,"Ġcorn":2259,"Ġstickers":2260,"Ġpays":2261,"Ġsoft":2262,"Ġcard":2263,"Ġshop":2264,"yl":2265,"Ġmed":2266,"Ġsho":2267,"Ġradius":2268,"Ġsure":2269,"Ġdinner":2270,"Ġimportant":2271,"Ġglass":2272,"23":2273,"Ġlunch":2274,"atur":2275,"oring":2276,"Ġcomplete":2277,"eff":2278,"$-":2279,"oun":2280,"Ġmult":2281,"Ġpond":2282,"Ġgrass":2283,"Ġcloser":2284,"berries":2285,"Look":2286,"bye":2287,"ĠSally":2288,"Ġvisit":2289,"Ġfavorite":2290,"Ġfactors":2291,"Ġshar":2292,"Ġ39":2293,"One":2294,"overline":2295,"tan":2296,"Ġclothes":2297,"ms":2298,"ĠCombin":2299,"Ġmath":2300,"ng":2301,"ordinates":2302,"rious":2303,"{(":2304,"Ġbun":2305,"Ġfilled":2306,"Ġchange":2307,"Ġass":2308,"Ġmembers":2309,"Ġvo":2310,"Ġtaking":2311,"Ġperfect":2312,"ium":2313,"Ġresp":2314,"Jo":2315,"Ġherself":2316,"val":2317,"Ġ38":2318,"Ġstamps":2319,"oth":2320,"ĠBr":2321,"ey":2322,"Ġbright":2323,"Ġfield":2324,"ires":2325,"Ġpet":2326,"ature":2327,"Ġpoly":2328,"vert":2329,"Ġseeds":2330,"Ġreceive":2331,"Ġticket":2332,"Ġsave":2333,"Ġteacher":2334,"Ġquickly":2335,"There":2336,"Find":2337,"more":2338,"Ġforg":2339,"ained":2340,"Ġtax":2341,"Ġname":2342,"ĠY":2343,"Ġgreatest":2344,"Ġcool":2345,"Ġrace":2346,"gy":2347,"vel":2348,"Ġfix":2349,"Ġgoes":2350,"Ġdone":2351,"*}":2352,"asy":2353,"Ġshout":2354,"Ġcurious":2355,"ĠCombining":2356,"42":2357,"Ġorange":2358,"Ġanymore":2359,"aur":2360,"Ġkilograms":2361,"Wh":2362,"Ġearnings":2363,"Ġsweet":2364,"Ġjuice":2365,"240":2366,"ork":2367,"Ġjumped":2368,"Ġrock":2369,"hour":2370,"Ġstory":2371,"rand":2372,"Ġsupp":2373,"$:":2374,"Ġsoda":2375,"omin":2376,"Ġcontin":2377,"Ġret":2378,"Ġstraw":2379,"Ġmulti":2380,"Ġfinished":2381,"Ġvoice":2382,"uch":2383,"Ġready":2384,"Ġdrink":2385,"ratic":2386,"Ġquadratic":2387,"Ġgoodbye":2388,"..":2389,"55":2390,"Ġtank":2391,"},":2392,"Ġsug":2393,"key":2394,"Ġitems":2395,"ĠGiven":2396,"aisy":2397,"Ġ360":2398,"Ġcart":2399,"Ġhig":2400,"Ġplayers":2401,"Ġthose":2402,"}.$":2403,"irth":2404,"Ġsequence":2405,"Ġhole":2406,"Ġsales":2407,"Ġsy":2408,"Ġ65":2409,"ject":2410,"ton":2411,"Can":2412,"Ġneck":2413,"Ġhimself":2414,"Ġbuilding":2415,"ĠWh":2416,"bo":2417,"Ġap":2418,"Ġhelped":2419,"Ġ[":2420,"iving":2421,"Ġbirth":2422,"Ġ84":2423,"ifth":2424,"Ġland":2425,"Ġstudent":2426,"Ġi":2427,"Ġmus":2428,"Ġfair":2429,"eth":2430,"ighb":2431,"})":2432,"Ġlady":2433,"Ġbike":2434,"ging":2435,"Ġmultipl":2436,"ĠJan":2437,"Tom":2438,"ĠZ":2439,"Ġsaved":2440,"Ġpower":2441,"ither":2442,"Ġpres":2443,"Ġ44":2444,"Ġbeads":2445,"Ġdeliv":2446,"Ġtre":2447,"igit":2448,"itten":2449,"Ġarri":2450,"Ġsongs":2451,"Ġneighb":2452,"Ġflour":2453,"Ġdenomin":2454,"ees":2455,"}=":2456,"Ġrel":2457,"ple":2458,"ĠSatur":2459,"Ġhere":2460,"Ġcarr":2461,"Ġfree":2462,"Ġ800":2463,"vings":2464,"ycle":2465,"Ġprom":2466,"Ġgetting":2467,"br":2468,"Ġtoday":2469,"Ġpink":2470,"app":2471,"'re":2472,"ĠThus":2473,"1200":2474,"Ġsquares":2475,"54":2476,"rel":2477,"Ġpies":2478,"Ġpat":2479,"Ġshirt":2480,"AB":2481,"Ġinst":2482,"Ġ37":2483,"ĠExpress":2484,"digit":2485,"Ġpool":2486,"king":2487,"Ġdes":2488,"Ġhappened":2489,"Ġcolle":2490,"Mom":2491,"Ġordered":2492,"Ġgift":2493,"ĠCan":2494,"where":2495,"Ġseen":2496,"Ġexpens":2497,"Ġroses":2498,"Ġrectangle":2499,"Ġpants":2500,"Ġlikes":2501,"Ġdolls":2502,"56":2503,"ĠSaturday":2504,"Ġdoing":2505,"Ġreached":2506,"Ġ49":2507,"Ġmove":2508,"Ġrealized":2509,"ken":2510,"Ġ2000":2511,"Ġwin":2512,"Ġmiss":2513,"Ġthink":2514,"rease":2515,"aken":2516,"imin":2517,"Ġeaten":2518,"ithm":2519,"ĠLila":2520,"vious":2521,"Ġcolors":2522,"ored":2523,"ests":2524,"+\\":2525,"Ġwithout":2526,"ster":2527,"Ġmark":2528,"andy":2529,"Ġsimplif":2530,"Ġworld":2531,"Ġpol":2532,"ĠDo":2533,"Ġinclud":2534,"Ġ140":2535,"Ġbath":2536,"Ġ85":2537,"Ġcour":2538,"Ġgrow":2539,"Ġgrabbed":2540,"ĠEveryone":2541,"Ġtaken":2542,"ife":2543,"Ġclimb":2544,"Ġfinal":2545,"2000":2546,"ĠĠĠĠ":2547,"Ġcubic":2548,"ebook":2549,"ality":2550,"man":2551,"iles":2552,"ah":2553,"Ġglad":2554,"John":2555,"ero":2556,"Ġnotebook":2557,"ĠAll":2558,"Ġband":2559,"Ġtouch":2560,"Ġadded":2561,"Ġlonger":2562,"Ġtail":2563,"Ġwom":2564,"med":2565,"Ġtables":2566,"Ġwalks":2567,"Ġcap":2568,"Ġpurchased":2569,"Ġcheese":2570,"Ġbowl":2571,"Ġtomatoes":2572,"Ġrows":2573,"Ġyes":2574,"Ġbuying":2575,"Ġ1200":2576,"Ġpurchase":2577,"zz":2578,"Ġ46":2579,"Ġref":2580,"Ġmusic":2581,"imeter":2582,"Ġdenominator":2583,"Ġducks":2584,"Ġwidth":2585,"Ġcustomers":2586,"=-":2587,"Ġfall":2588,"Ġ110":2589,"Ġsize":2590,"att":2591,"Ġsolutions":2592,"Ġpast":2593,"ploy":2594,"full":2595,"Ġthing":2596,"29":2597,"Ġsign":2598,"Ġcor":2599,"uffy":2600,"ze":2601,"Ġtired":2602,"Ġmost":2603,"Ġeverything":2604,"Ġcupc":2605,"ĠRe":2606,"Ġadventure":2607,"Wow":2608,"Ġhat":2609,"Ġbegan":2610,"Ġri":2611,"ote":2612,"Ġreturn":2613,"ued":2614,"Ġcoming":2615,"Ġshouted":2616,"Ġhop":2617,"Ġentire":2618,"ĠTommy":2619,"Ġemploy":2620,"Ġyummy":2621,"Ġbroken":2622,"fly":2623,"Ġfarmer":2624,"Don":2625,"Ġreally":2626,"Ġtell":2627,"Ġcube":2628,"Ġlooks":2629,"ney":2630,"cked":2631,"Ġchoices":2632,"Ġpictures":2633,"ended":2634,"160":2635,"Ġquestions":2636,"Ġresult":2637,"Ġdrive":2638,"ĠLe":2639,"Ġcenter":2640,"Ġneckl":2641,"ĠJill":2642,"Ġgallon":2643,"Ġcried":2644,"Ġbeans":2645,"Ġjoin":2646,"ĠBenny":2647,"Ġbirthday":2648,"ret":2649,"Ġcold":2650,"ĠDaisy":2651,"Ġlemon":2652,"Ġ-\\":2653,"Ġpicture":2654,"Ġtast":2655,"Ġsail":2656,"Ġolder":2657,"Ġsent":2658,"Ġsale":2659,"Ġbananas":2660,"Ġcoordinates":2661,"Ġfunny":2662,"Ġkilomet":2663,"Ġtraveled":2664,"Ġregular":2665,"Ġbee":2666,"Ġsugar":2667,"Ġchips":2668,"ually":2669,"Ġarr":2670,"Ġmonthly":2671,"fully":2672,"oke":2673,"Ġinequ":2674,"Ġworry":2675,"Ġbutterfly":2676,"Ġdark":2677,"Ġheld":2678,"Ġtrying":2679,"point":2680,"arry":2681,"Ġunderst":2682,"ases":2683,"roc":2684,"Ġdef":2685,"Ġcomm":2686,"de":2687,"Ġwonder":2688,"ients":2689,"Ġmum":2690,"ĠAmy":2691,"not":2692,"Ġbeach":2693,"Th":2694,"hind":2695,"Ġpract":2696,"orrow":2697,"Ġcakes":2698,"ults":2699,"Ġmile":2700,"Ġhill":2701,"Ġwaved":2702,"eddy":2703,"isa":2704,"Ġ$\\$":2705,"Ġsquir":2706,"ĠThurs":2707,"Ġswing":2708,"Ġmatrix":2709,"Ġow":2710,"ream":2711,"omial":2712,"Ġbring":2713,"Ġcows":2714,"imal":2715,"Ġdecides":2716,"65":2717,"Ġmach":2718,"Ġob":2719,"Ġca":2720,"ĠExp":2721,"Ġsatisfies":2722,"ĠSund":2723,"Ġbehind":2724,"acks":2725,"Ġsmaller":2726,"Ġapart":2727,"Ġbur":2728,"Ġdrove":2729,"Ġbaby":2730,"Ġfruits":2731,"reed":2732,"ĠThursday":2733,"ony":2734,"Ġchicken":2735,"Ġtravel":2736,"Ġ108":2737,"ĠHowever":2738,"Ġphone":2739,"Ġsocks":2740,"Ġstep":2741,"Ġmouse":2742,"dots":2743,"Ġslow":2744,"(\"$":2745,"Ġtown":2746,"Ġyards":2747,"Ġprevious":2748,"Ġbunny":2749,"ĠExpanding":2750,"Ġfollowing":2751,"Ġpotat":2752,"Ġwhy":2753,"ĠNext":2754,"ello":2755,"Ġfollowed":2756,"Ġcupcakes":2757,"Ġmovie":2758,"Ġfrog":2759,"ola":2760,"Ġcollection":2761,"rist":2762,"Ġconsum":2763,"Ġrespect":2764,"wo":2765,"Ġtower":2766,"Ġlake":2767,"ics":2768,"Ġconvert":2769,"ming":2770,"Ġliving":2771,"Ġsub":2772,"Ġsince":2773,"125":2774,"Ġcompany":2775,"ĠSunday":2776,"Ġwindow":2777,"38":2778,"xy":2779,"ĠBill":2780,"third":2781,"rack":2782,"Ġseg":2783,"Ġinterest":2784,"Ġsil":2785,"cept":2786,"Ġplane":2787,"iting":2788,"Ġpiece":2789,"Ġpill":2790,"Ġdecimal":2791,"Ġ$|":2792,"iches":2793,"Ġhopped":2794,"\".":2795,"49":2796,"Ġ$$":2797,"Ġcarry":2798,"Ġsurprise":2799,"ĠMic":2800,"Ġdelic":2801,"Ġclimbed":2802,"Ġham":2803,"Ġconsider":2804,"Ġdir":2805,"Ġspot":2806,"Ġbal":2807,"Ġvac":2808,"An":2809,"har":2810,"Ġclose":2811,"pper":2812,"Ġquarter":2813,"Ġarrived":2814,"Ġinequality":2815,"Ġmeasure":2816,"Ġsandwiches":2817,"'ll":2818,"eta":2819,"ĠBe":2820,"Ġwished":2821,"Ġ144":2822,"Ġperimeter":2823,"Ġlesson":2824,"Ġveget":2825,"Ġchickens":2826,"Ġconst":2827,"Ġturned":2828,"ior":2829,"itting":2830,"Ġdrinks":2831,"Ġfifth":2832,"Ġgoal":2833,"ĠDan":2834,"Ġpuppy":2835,"Ġhung":2836,"Ġfactoriz":2837,"Ġcast":2838,"$\",":2839,"Ġhappily":2840,"Ġremembered":2841,"anger":2842,"How":2843,"Ġtem":2844,"44":2845,"Ġbrac":2846,"Ġvide":2847,"Ġsolution":2848,"96":2849,"etic":2850,"Ġ58":2851,"Ġ|":2852,"Ġ31":2853,"Ġgraph":2854,"=$":2855,"Ġsets":2856,"Ġspr":2857,"Ġlaugh":2858,"Ġproper":2859,"Ġeither":2860,"Ġ63":2861,"ouses":2862,"ĠAlex":2863,"ĠMart":2864,"Ġdanc":2865,"Ġ900":2866,"Ġlion":2867,"Ġbracel":2868,"Ġexact":2869,"Ġ>":2870,"Ġagreed":2871,"Ġanything":2872,"Ġdeep":2873,"Ġpurple":2874,")/":2875,"Ġact":2876,"Ġep":2877,"Ġminimum":2878,"Ġcomput":2879,"Ġletters":2880,"Ġquarters":2881,"Hello":2882,"isod":2883,"Ġmen":2884,"Ġenjoyed":2885,"hel":2886,"Ġrep":2887,"ĠMike":2888,"Ġneighbor":2889,"Ġcannot":2890,"ĠTime":2891,"Ġincrease":2892,"Ġwrong":2893,"34":2894,"Ġwash":2895,"Ġepisod":2896,"Ġ210":2897,"angular":2898,"Ġdouble":2899,"Ġduck":2900,"ĠPeter":2901,"Ġpizzas":2902,"Ġ(\\":2903,"Ġje":2904,"Ġacross":2905,"Ġrooms":2906,"ities":2907,"Ġart":2908,"Ġequally":2909,"Ġfem":2910,"anna":2911,"Ġheav":2912,"ĠJul":2913,"Ġkilometers":2914,"Ġnon":2915,")}{":2916,"ual":2917,"Ġmix":2918,"Ġroots":2919,"=$<<":2920,"Ġcla":2921,"Ġbasketball":2922,"vmatrix":2923,"ountain":2924,"Ġgreater":2925,"Ġgone":2926,"Ġyard":2927,"ĠPr":2928,"Ġgrandma":2929,"work":2930,"Ġhor":2931,"Ġcarefully":2932,"Ġsitu":2933,"min":2934,"ĠTogether":2935,"Ġav":2936,"land":2937,"Ġshared":2938,"af":2939,"Ġhear":2940,"ley":2941,"Ġfew":2942,"37":2943,"ĠMolly":2944,"uce":2945,"Ġ99":2946,"Ġworking":2947,"450":2948,"Ġfence":2949,"Ġelimin":2950,"Ġleave":2951,"ĠSus":2952,"ĠFl":2953,"Ġplanted":2954,"ĠCal":2955,"ises":2956,"Ġgrams":2957,"Ġfinally":2958,"Ġbak":2959,"alpha":2960,"Ġlengths":2961,"sp":2962,"Ġdry":2963,"Ġdeterm":2964,"Ġcontinued":2965,"Determine":2966,"*.":2967,"Ġballoon":2968,")+":2969,"ĠTaking":2970,"Ġeating":2971,"Ġguests":2972,"Ġpage":2973,"Ġsomeone":2974,"Ġputs":2975,"Ġstrawberries":2976,"Ġcross":2977,"ĠTV":2978,"Ġstri":2979,"Ġfriendly":2980,"Ġsurprised":2981,"Ġplease":2982,"Ġ66":2983,"Ġholds":2984,"ody":2985,"Ġjellybe":2986,"Ġfurther":2987,"Ġgum":2988,"Ġwide":2989,"Ġpean":2990,"llip":2991,"ĠLisa":2992,"ont":2993,"Ġowner":2994,"Ġthank":2995,"Ġjellybeans":2996,"umer":2997,"Ġwra":2998,"Ġ450":2999,"Ġfeed":3000,"ĠBy":3001,"Ġstars":3002,"Ġext":3003,"Ġhu":3004,"Ġstand":3005,"Ġdaught":3006,"Ġbucket":3007,"Ġtemper":3008,"Ġthrow":3009,"ithmetic":3010,"Ġcloud":3011,"ĠMrs":3012,"ĠJenny":3013,"Ġfaster":3014,"Ġmight":3015,"Ġforgot":3016,"Ġcarrots":3017,"Ġfactorization":3018,"Ġfig":3019,"ĠAnn":3020,"erc":3021,"ĠTheir":3022,"Ġgent":3023,",\\":3024,"sec":3025,"ped":3026,"Ġdance":3027,"Ġlay":3028,"Ġmeet":3029,"Ġarithmetic":3030,"Ġcheck":3031,"iam":3032,"Ġcompared":3033,"ĠJerry":3034,"ude":3035,"stem":3036,"Ġtowards":3037,"Ġcond":3038,"tern":3039,"Ġothers":3040,"360":3041,"ym":3042,"eters":3043,"Ġemployees":3044,"Ġegg":3045,"loor":3046,"Ġincreased":3047,"Ġcourse":3048,"Ġstayed":3049,"cl":3050,"ĠJimmy":3051,"Ġdelicious":3052,"Ġeight":3053,"Ġinitial":3054,"Ġtight":3055,"Ġfather":3056,"arest":3057,"Ġadults":3058,"Ġsticks":3059,"Ġscores":3060,"arly":3061,"Ġ125":3062,"ately":3063,"Ġjour":3064,"sc":3065,"Ġelse":3066,"Ġsituation":3067,"Ġnearest":3068,"Ġleg":3069,"Ġask":3070,"dle":3071,"ek":3072,"Ġge":3073,"Ġdoctor":3074,"Ġmeat":3075,"Ġ$(-":3076,"Ġrecord":3077,"Ġwonderful":3078,"ama":3079,"Ġadult":3080,"Ġaccount":3081,"effic":3082,"Ġvegetables":3083,"Ġhungry":3084,"Ġmill":3085,"Ġmachine":3086,"76":3087,"CD":3088,"ean":3089,"Ġsmell":3090,"Ġreading":3091,"Ġdep":3092,"Ġplans":3093,"Ġpulled":3094,"Ġexactly":3095,"Ġanimal":3096,"Ġnotebooks":3097,"Ġbi":3098,"Ġbank":3099,"Ġweekend":3100,"Ġcoeffic":3101,"inct":3102,"Ġblank":3103,"Ġreceives":3104,"Ġcra":3105,"Ġlog":3106,"Ġglasses":3107,"Ġcastle":3108,"ĠGrand":3109,"aced":3110,"Ġsystem":3111,"ittens":3112,"Ġscoo":3113,"imeters":3114,"Ġasks":3115,"Ġriver":3116,"utive":3117,"valu":3118,"ward":3119,"Ġelepha":3120,"iod":3121,"ica":3122,"Ġtype":3123,"ead":3124,"Ġwet":3125,"Ġrectangular":3126,"Ġsquirrel":3127,"!}{":3128,"Ġstarts":3129,"Ġraised":3130,"vin":3131,"ĠPer":3132,"Ġmultiplying":3133,"Ġpus":3134,"uced":3135,"Ġdistinct":3136,"Ġoutc":3137,"Ġdividing":3138,"Ġfit":3139,"Ġhats":3140,"uel":3141,"ĠSim":3142,"85":3143,"ience":3144,"Ġspace":3145,"Ġfee":3146,"Ġscary":3147,"Ġphot":3148,"Ġheavy":3149,"Ġdivisor":3150,"Ġsoup":3151,"Ġlarger":3152,"ram":3153,"Ġfox":3154,"ĠJust":3155,"Ġexpon":3156,"Ġcharges":3157,"Ġben":3158,"oral":3159,"Ġnumer":3160,"Ġcandles":3161,"Ġlistened":3162,"Ġ105":3163,"Ġtrue":3164,"Ġfight":3165,"Ġallow":3166,"Ġcookie":3167,"Ġlawn":3168,"Ġtreas":3169,"This":3170,"\\%":3171,"Ġfold":3172,"outh":3173,"Ġvideo":3174,"Ġrequires":3175,"Ġperform":3176,"Ġer":3177,"aches":3178,"ipe":3179,"84":3180,"Ġvert":3181,"Ġrope":3182,"ĠFind":3183,"Ġwheels":3184,"anda":3185,"Ġunderstand":3186,"Ġrocks":3187,"Ġtrans":3188,"Ġpuzz":3189,"Ġproblems":3190,"Ġpin":3191,"Ġwell":3192,"ieve":3193,"ops":3194,"ws":3195,"Ġones":3196,"Ġselect":3197,"Ġ88":3198,"Ġalong":3199,"verse":3200,"Ġroad":3201,"ancy":3202,"110":3203,"ru":3204,"Ġ130":3205,"acity":3206,"ĠPl":3207,"shir":3208,"39":3209,"Ġ480":3210,"bled":3211,"Ġlines":3212,"Ġ220":3213,"Ġpotatoes":3214,"Ġnick":3215,"ĠMaybe":3216,"Ġtra":3217,"Ġorgan":3218,"Ġ95":3219,"icy":3220,"Ġrent":3221,"Ġzero":3222,"Ġpopul":3223,"Ġsimplifies":3224,"140":3225,"Ġdough":3226,"Ġsavings":3227,"66":3228,"Ġalone":3229,"Ġsmiles":3230,"Ġgroc":3231,"cover":3232,"Ġextra":3233,".\\":3234,"Ġodd":3235,"ails":3236,"Ġocc":3237,"Ġsea":3238,"Ġamong":3239,"Ġcompet":3240,"Ġflying":3241,"Ġson":3242,"Ġonce":3243,"Ġord":3244,"fish":3245,"Ġspark":3246,"ists":3247,"Ġcher":3248,"Ġsear":3249,"ifts":3250,"den":3251,"Ġgrade":3252,"Ġdaddy":3253,"Ġseries":3254,"Ġcentimeters":3255,"ĠEmily":3256,"After":3257,"Ġce":3258,"Ġmoment":3259,"Ġsalary":3260,"Ġamazing":3261,"Ġteddy":3262,"Ġreads":3263,"Ġnorm":3264,"Ġsilver":3265,"3000":3266,"gers":3267,"Ġseason":3268,"Ġdropped":3269,"Ġtemperature":3270,"Ġtalk":3271,"ĠCarl":3272,"Ġhigher":3273,"nomial":3274,"idge":3275,"Ġwasn":3276,"Ġsmart":3277,"Ġbigger":3278,"Ġpolynomial":3279,"Ġ135":3280,"airs":3281,"Ġgiving":3282,"Ġsatisfy":3283,"together":3284,"Ġsegment":3285,"Ġlater":3286,"Ġ{":3287,"Ġconc":3288,"Ġlate":3289,"Ġperiod":3290,"ĠGre":3291,"Ġepisodes":3292,"Ġpopulation":3293,"nies":3294,"une":3295,"Ġparking":3296,"Ġbroke":3297,"Ġeliminate":3298,"Ġseats":3299,"ĠPa":3300,"Ġpackage":3301,"ĠEmma":3302,"Ġdot":3303,"Ġrepe":3304,"Ġsometimes":3305,"Ġsec":3306,"ĠPrice":3307,"ival":3308,"ctors":3309,"Ġshort":3310,"Ġwaited":3311,"]{":3312,"Ġlibr":3313,"beta":3314,"cal":3315,"Ġ}":3316,"Ġsilly":3317,"Ġsandwich":3318,"Ġmarket":3319,"Ġdistrib":3320,"hest":3321,"ĠCl":3322,"Ġclasses":3323,"Ġdrives":3324,"board":3325,"ĠSte":3326,"Ġthrew":3327,"Ġyoun":3328,"Ġdiam":3329,"Ġcomputer":3330,"Ġparts":3331,"Ġpretend":3332,"Ġcomes":3333,"Ġrestaur":3334,"ucky":3335,"Ġmidpoint":3336,"Ġheart":3337,"Ġplates":3338,"secutive":3339,"Maybe":3340,"yard":3341,"Ġneg":3342,"Ġdaughter":3343,"Ġhide":3344,"Ġ78":3345,"Ġoutcomes":3346,"900":3347,"Given":3348,"Ġcongr":3349,"Ġdecor":3350,"Ġcases":3351,"4000":3352,"Ġcapacity":3353,"Ġsheep":3354,"Ġdegree":3355,"Ġwoods":3356,"Ġcondition":3357,"Ġremo":3358,"orts":3359,"Ġletter":3360,"Ġdrank":3361,"ten":3362,"Ġshells":3363,"Ġthinks":3364,"Ġconsecutive":3365,"rooms":3366,"Ġmush":3367,"Ġwritten":3368,"Ġburn":3369,"|\\":3370,"ĠHal":3371,"ape":3372,"Ġcity":3373,"Ġhouses":3374,"light":3375,"Ġboun":3376,"Ġhit":3377,"oc":3378,"Ġ.":3379,"Ġwear":3380,"Ġwomen":3381,"Ġcongru":3382,"Ġlift":3383,"hael":3384,"ordinate":3385,"dfrac":3386,"iant":3387,"Ġcoin":3388,"Ġstrange":3389,"Ġwatching":3390,"Oh":3391,"alth":3392,"Ġpati":3393,"cy":3394,"Ġangles":3395,"Ġturt":3396,"Ġft":3397,"Ġdragon":3398,"Ġclosed":3399,"Ġmiddle":3400,"Ġstreet":3401,"go":3402,"ups":3403,"Ġdanger":3404,"ugging":3405,"Ġ98":3406,"gon":3407,"Ġpainting":3408,"ipped":3409,"ĠDon":3410,")}":3411,"Ġowns":3412,"par":3413,")^{":3414,"bur":3415,"mer":3416,"Ġpush":3417,"rect":3418,"ĠHalf":3419,"Ġbake":3420,"Ġdivisors":3421,"Ġnap":3422,"Ġamazed":3423,"Ġmultiples":3424,"Ġpromised":3425,"centage":3426,"Ġswimming":3427,"corn":3428,"Ġadds":3429,"Ġrestaurant":3430,"ella":3431,"Ġsurf":3432,"ceil":3433,"Ġpost":3434,"Ġscre":3435,"Ġhomework":3436,"Ġoper":3437,"Ġmph":3438,"ites":3439,"Ġjoy":3440,"Ġpopcorn":3441,"Ġbrownies":3442,"Ġassume":3443,"Ġfloors":3444,")\\":3445,"ctions":3446,"05":3447,"Ġcovered":3448,"Ġnegative":3449,"fort":3450,"Ġtrucks":3451,"Ġsteps":3452,"gra":3453,"Ġtip":3454,"Ġexpensive":3455,"480":3456,"ear":3457,"^{\\":3458,"Ġarrange":3459,"Ġrolls":3460,"balls":3461,"Ġinterse":3462,"Ġpartic":3463,"But":3464,"Ġmouth":3465,"Ġinverse":3466,"Ġ-$":3467,"ains":3468,"Ġinstead":3469,"eor":3470,"old":3471,"}}$":3472,"Ġed":3473,"Ġbug":3474,"Ġcounted":3475,"uit":3476,"Ġgar":3477,"Ġ4000":3478,"ĠOl":3479,"46":3480,"ns":3481,"95":3482,"Ġaccident":3483,"Ġlibrary":3484,"tons":3485,"Ġ43":3486,"Ġmoral":3487,"ively":3488,"Ġslope":3489,"Ġadding":3490,"Ġbecomes":3491,"Ġregion":3492,"Ġgifts":3493,"Ġ92":3494,"Ġ320":3495,"Ġturns":3496,"Ġpattern":3497,"Ġcomplet":3498,"Ġpuppies":3499,"lc":3500,"Ġblock":3501,"31":3502,"Ġseas":3503,"Ġslowly":3504,"Ġ51":3505,"ĠJake":3506,"ĠDist":3507,"Ġtreasure":3508,"Ġbin":3509,"Ġbalance":3510,"Ġevent":3511,"Ġ81":3512,"Ġmuff":3513,"Ġharv":3514,"Ġdriving":3515,"350":3516,"Ġmail":3517,"etting":3518,"Ġgrate":3519,"ĠKen":3520,"81":3521,"iet":3522,"zy":3523,"Ġtiles":3524,"Ġver":3525,"Ġraise":3526,"Ġnumerator":3527,"Ġsuc":3528,"ĠTwo":3529,"ĠWith":3530,"ĠAB":3531,"ĠAd":3532,"Ġdream":3533,"Ġscar":3534,"Ġfemale":3535,"ĠPercentage":3536,"lings":3537,"Ġbul":3538,"ĠSoon":3539,"Ġ41":3540,"Ġnickels":3541,"aged":3542,"Ġhelping":3543,"ĠOut":3544,"Ġjourney":3545,"aded":3546,"ĠGr":3547,"Ġsick":3548,"Ġclub":3549,"144":3550,"Ġpresent":3551,"%.":3552,"Ġlollip":3553,"Ġworried":3554,"Ġbackyard":3555,"-\\":3556,"Ġant":3557,"Ġstuff":3558,"Ġ57":3559,"Ġproduce":3560,"Ġpaintings":3561,"ĠAlice":3562,"...":3563,"ĠFluffy":3564,"tes":3565,"Ġchair":3566,"Ġwelc":3567,"Ġsheets":3568,"ppers":3569,"Ġtea":3570,"}^":3571,"venue":3572,"Ġsingle":3573,"Okay":3574,"Ġkey":3575,"ermel":3576,"Ġwatermel":3577,"Ġflag":3578,"Ġbuttons":3579,"Ġ1500":3580,"Ġcalculated":3581,"Ġapartment":3582,"Ġbench":3583,"ĠTony":3584,"Ġ270":3585,"Ġgrateful":3586,"Ġmeals":3587,"Ġ1800":3588,"Ġago":3589,"Ġcrying":3590,"Ġsuppl":3591,"Ġpolygon":3592,"set":3593,"Ġtwins":3594,"Ġpicks":3595,"Ġsplit":3596,"Ġyounger":3597,"Ġcone":3598,"Ġda":3599,"quad":3600,"ĠWill":3601,"ĠRo":3602,"Ġvector":3603,"Ġear":3604,"Ġprincess":3605,"fast":3606,"ference":3607,"ik":3608,"Ġax":3609,"Ġnuts":3610,"Ġrevenue":3611,"ĠPat":3612,"Ġlemonade":3613,"Ġkno":3614,"Mommy":3615,"Tim":3616,"Ġeverywhere":3617,"Ġaftern":3618,"Ġorders":3619,"52":3620,"ĠBet":3621,"Ġmoved":3622,"ĠKim":3623,"ĠFrank":3624,"Ġproport":3625,"Ġvectors":3626,"Ġstarting":3627,"Ġident":3628,"ilt":3629,"Ben":3630,"ĠCD":3631,"ĠGrandma":3632,"Ġmatch":3633,"ences":3634,"omp":3635,"ĠLater":3636,"race":3637,"Ġ76":3638,"}$?":3639,"Ġexpressed":3640,"Ġbaseball":3641,"Ġcorrect":3642,"Ġmountain":3643,"Ġ3000":3644,"Ġafternoon":3645,"tion":3646,"ĠAr":3647,"Ġdriver":3648,"Ġcaps":3649,"Ġdangerous":3650,"Ġdimes":3651,"Ġbreakfast":3652,"Ġbathroom":3653,"Ġbic":3654,"Ġgig":3655,"ĠSetting":3656,"ĠJess":3657,"tex":3658,"Ġdefined":3659,"valuate":3660,"Ġphotos":3661,"ales":3662,")$?":3663,"Ġbracelets":3664,"ĠChar":3665,"Ġgrad":3666,"Ġproportion":3667,"OK":3668,"itch":3669,"ccer":3670,"ris":3671,"Ġtent":3672,"Ġonto":3673,"Ġfront":3674,"Ġincluding":3675,"Ġpump":3676,"weet":3677,"}\\|":3678,"Ġcleaning":3679,")!":3680,"anch":3681,"ĠHarry":3682,"Ġcomb":3683,"Ġrode":3684,"Ġages":3685,"Why":3686,"Ġproperty":3687,"cycle":3688,"lves":3689,"ĠPh":3690,"Ġmagical":3691,"Ġblanket":3692,"nis":3693,"Ġbeef":3694,"Ġharvest":3695,"althy":3696,"63":3697,"Ġcoat":3698,"illa":3699,"ĠFred":3700,"andom":3701,"Ġmonster":3702,"Ġcharge":3703,"ĠMichael":3704,"Ġcro":3705,"Ġisland":3706,"ĠJos":3707,"ĠEl":3708,"used":3709,"Ġswings":3710,"},$":3711,"Ġcyl":3712,"bert":3713,"resses":3714,"Ġoffice":3715,"Ġring":3716,"Hi":3717,"Ġins":3718,"Ġappro":3719,"Ġhighest":3720,"jects":3721,"minute":3722,"Ġoil":3723,"que":3724,"Ġwaiting":3725,"Ġdaily":3726,"51":3727,"Ġhy":3728,"ĠJason":3729,"Ġhid":3730,"Ġrub":3731,"Ġpushed":3732,"pty":3733,"ern":3734,"read":3735,"Ġoffer":3736,"Ġcolorful":3737,"Ġfaces":3738,"Ġ350":3739,"Ġarms":3740,"Ġevening":3741,"Ġattend":3742,"Ġwings":3743,"Ġpow":3744,"oom":3745,"Ġsoccer":3746,"Ġsaves":3747,"Ġstudy":3748,"Ġzoo":3749,"Ġstepped":3750,"Ġinvest":3751,"Ġble":3752,"Ġbud":3753,"ĠGeor":3754,"Ġsharp":3755,"Ġnecklace":3756,"omm":3757,"Ġwalls":3758,"Ġrespectively":3759,"Ġâ":3760,"Ġstuck":3761,"ĠSammy":3762,"Ġdisapp":3763,"Ġproduces":3764,"Ġsecret":3765,"Ġhur":3766,"Ġequival":3767,"ĠChrist":3768,"Ġexpenses":3769,"Ġdirty":3770,"olog":3771,"Ġtravels":3772,"Ġequivalent":3773,"bow":3774,"Ġcamp":3775,"700":3776,"Ġgen":3777,"Ġstar":3778,"Ġcustomer":3779,"annah":3780,"78":3781,"Ġinch":3782,"Ġquiet":3783,"Ġgrapes":3784,"Ġpasseng":3785,"shirts":3786,"ishes":3787,"Ġlad":3788,"ĠMaria":3789,"Ġrose":3790,"axis":3791,"Ġpackages":3792,"Ġbelieve":3793,"Ġml":3794,"Ġprep":3795,"Ġholding":3796,"Ġpurchases":3797,"Ġempty":3798,"Ġmot":3799,"berry":3800,"Ġstring":3801,"Ġvertex":3802,"Ġcou":3803,"Ġport":3804,"Ġslice":3805,"Ġwearing":3806,"Ġrot":3807,"Ġrandom":3808,"Ġshelf":3809,"onely":3810,"Ġlaund":3811,"Ġhos":3812,"Ġfeather":3813,"Ġmonkey":3814,"5000":3815,"io":3816,"pit":3817,"Ġexerc":3818,"Ġmeal":3819,"Sure":3820,"Ġpath":3821,"Ġpocket":3822,"Ġappe":3823,"yle":3824,"Ġborrow":3825,"Ġspots":3826,"umn":3827,"Ġmagic":3828,"%,":3829,"Ġnet":3830,"Ġvot":3831,"Ġhoped":3832,"98":3833,"Ġstack":3834,"Ġjog":3835,"Ġpeaches":3836,"Ġabs":3837,"ĠPlugging":3838,"ald":3839,"Ġfinding":3840,"achel":3841,"Ġkite":3842,"Ġplus":3843,"Ġlevel":3844,"47":3845,"ĠMatt":3846,"Ġsepar":3847,"Ġhum":3848,"ilies":3849,"ĠMama":3850,"ĠEll":3851,"Ġteeth":3852,"Ġnecklaces":3853,"terday":3854,"Ġlights":3855,"Ġconstant":3856,"ining":3857,"Ġowl":3858,"CM":3859,"Ġsitting":3860,"01":3861,"43":3862,"cus":3863,"ĠDuring":3864,"Ġdonuts":3865,"ĠMartha":3866,"rie":3867,"Ġhappen":3868,"vis":3869,"Ġbite":3870,"Ġfeels":3871,"At":3872,"days":3873,"Ġheads":3874,"Ġswam":3875,"ational":3876,"unt":3877,"1500":3878,"Ġshopping":3879,"ĠDistance":3880,"Sara":3881,"use":3882,"ĠMay":3883,"Ġ47":3884,"Ġcarried":3885,"Ġdrawing":3886,"Ġsne":3887,"Ġ62":3888,"St":3889,"ĠQ":3890,"ĠJac":3891,"Ġavail":3892,"ieved":3893,"Ġaltogether":3894,"Ġcontrib":3895,"Ġpennies":3896,"Ġclouds":3897,"cd":3898,"Ġing":3899,"Ġfab":3900,"Ġcrack":3901,"Ġbranch":3902,"!$":3903,"Ġtrou":3904,"Ġpan":3905,"Ġlonely":3906,"quar":3907,"Ġkilogram":3908,"pack":3909,"inger":3910,"Ġstation":3911,"ĠJeff":3912,"Ġ720":3913,"ertain":3914,"Ġvacation":3915,"Anna":3916,"Ġhorse":3917,"Ġfabric":3918,"Ġes":3919,"Ġweig":3920,"Ġmovies":3921,"Ġ\\]":3922,"Ġpassed":3923,"Ġpine":3924,"Ġgym":3925,"ĠJu":3926,"Ġbudget":3927,"Ġdiagon":3928,"fty":3929,"Ġrange":3930,"Ġcontaining":3931,"Ġnormal":3932,"pro":3933,"ased":3934,"coordinate":3935,"ording":3936,"Ġgentle":3937,"Ġcherry":3938,"ĠPaul":3939,"Ġsang":3940,"Ġmist":3941,"con":3942,"Ġdonated":3943,"ĠDaddy":3944,"Ġdresses":3945,"Ġnest":3946,"Ġship":3947,"\\%$":3948,"uct":3949,"Ġcow":3950,"ilarly":3951,"88":3952,"mall":3953,"inter":3954,"ĠTweet":3955,"ĠNat":3956,"Ġmagn":3957,"Ġmeasures":3958,"hood":3959,"ĠAre":3960,"Ġlive":3961,"Ġnoises":3962,"Ġmatches":3963,"Ġenvel":3964,"Ġdire":3965,"ycles":3966,"Ġnearby":3967,"Ġwelcome":3968,"Comp":3969,"James":3970,"Ġexam":3971,"Ġthrows":3972,"Ġ83":3973,"Ġshr":3974,"Ġtas":3975,"Ġcell":3976,"Ġkm":3977,"Ġbanana":3978,"Ġclapped":3979,"infty":3980,"Ġwish":3981,"Ġlife":3982,"Ġwheel":3983,"Ġmuffins":3984,"ĠBetty":3985,"Ġlaundry":3986,"ching":3987,"Ġincome":3988,"aving":3989,"nuts":3990,"time":3991,"ĠKat":3992,"ĠUn":3993,"Ġtub":3994,"Ġ112":3995,"Ġnose":3996,"Ġconsumed":3997,"Ġaccidentally":3998,"Ġavailable":3999,"ums":4000,"Ġplayer":4001,"Ġtennis":4002,"Ġsuccess":4003,"cle":4004,"ison":4005,"Ġpudd":4006,"Ġ420":4007,"Ġmang":4008,"anging":4009,"Ġyarn":4010,"Ġpeb":4011,"rd":4012,"Ġoce":4013,"Ġlocal":4014,"Ġbedroom":4015,"ĠSimilarly":4016,"Ġtele":4017,"Ġteach":4018,"Ġyoung":4019,"less":4020,"Ġeras":4021,"Ġpile":4022,"Ġmessages":4023,"Ġstories":4024,"Ġ750":4025,"Ġcheered":4026,"Ġener":4027,"Ġexploring":4028,"Ġboard":4029,"Ġcartons":4030,"Ġpuzzle":4031,"ĠInside":4032,"ĠAndrew":4033,"Ġvertices":4034,"ness":4035,"ugg":4036,"Ġfactory":4037,"Ġservings":4038,"Ġbusy":4039,"Ġincreases":4040,"Ġdetermin":4041,"Ġfigure":4042,"Compute":4043,"ators":4044,"illed":4045,"Ġ1600":4046,"Ġrolled":4047,"Ġmodul":4048,"ĠJanet":4049,")=\\":4050,"Ġfairy":4051,"Ġtreats":4052,"een":4053,"}.":4054,"Ġ91":4055,"Ġsmo":4056,"ĠRachel":4057,"Ġstock":4058,"Ġfootball":4059,"Ġtreat":4060,"Ġobt":4061,"Ġmow":4062,"Ġtun":4063,"Ġoriginally":4064,"Ġlas":4065,"Ġnove":4066,"Ġkiss":4067,"Ġplaces":4068,"Ġbush":4069,"Ġhospit":4070,"Ġbody":4071,"Ġsteak":4072,"pa":4073,"Ġdie":4074,"Ġdrew":4075,"Ġgiant":4076,"leq":4077,"Ġingred":4078,"pers":4079,"oups":4080,"oss":4081,"ĠSteve":4082,"68":4083,"ĠBl":4084,"ĠRob":4085,"morrow":4086,"Ġtomorrow":4087,"Ġsem":4088,"opes":4089,"Ġspending":4090,"ected":4091,"Ġocean":4092,"__":4093,"}\\]":4094,"Ġminus":4095,"Ġfrogs":4096,"Ġspider":4097,"Ġrob":4098,"Ġarm":4099,"Ġexplained":4100,"Ġhugs":4101,"ex":4102,"Ġcave":4103,"Ġseat":4104,"ĠWeight":4105,"Ġforget":4106,"Ġroo":4107,"Ġupset":4108,"Ġ68":4109,"Ġ168":4110,"Ġpeanut":4111,"itty":4112,"Ġwatches":4113,"Ġru":4114,"Ġpayment":4115,"ĠAndy":4116,"Ġbelong":4117,"Ġpatient":4118,"riangle":4119,"Ġwouldn":4120,"Ġtaller":4121,"Ġmushrooms":4122,"Ġenergy":4123,"rels":4124,"isc":4125,"Ġgoats":4126,"Ġdiscover":4127,"Ġpaying":4128,"Ġsnake":4129,"Ġgener":4130,"aper":4131,"Ġpanc":4132,"ĠCo":4133,"Ġwrites":4134,"Ġtaxes":4135,"nda":4136,"Ġadm":4137,"Ġcollects":4138,"Ġmotor":4139,"wh":4140,"Ġgrew":4141,"Ġsinging":4142,"graf":4143,"ipp":4144,"iel":4145,"108":4146,"raid":4147,"Ġtrips":4148,"Ġbaskets":4149,"Ġconsumes":4150,"book":4151,"Ġproject":4152,"Ġadventures":4153,"gie":4154,"Ġsack":4155,"Ġking":4156,"Ġsnack":4157,"Ġbatch":4158,"Ġbaked":4159,"Ġsupplies":4160,"Ġpassengers":4161,"do":4162,"Ġsib":4163,"Ġvan":4164,"Ġconsume":4165,"Ġrainbow":4166,"Ġrecipe":4167,"Ġmodulo":4168,"Ġbell":4169,"Ġsphere":4170,"Ġspoon":4171,"Ġloves":4172,"Ġdollar":4173,"58":4174,"poons":4175,"Ġnaught":4176,"resp":4177,"ĠRose":4178,"Ġtext":4179,"Ġmedium":4180,"house":4181,"Ġwashed":4182,"iver":4183,"llo":4184,"ĠMum":4185,"Ġlose":4186,"Ġmarks":4187,"Ġcrates":4188,"ĠComp":4189,"Ġbabys":4190,"Ġelephant":4191,"Ġproduced":4192,"Ġimag":4193,"Ġassign":4194,"For":4195,"hip":4196,"upp":4197,"Ġsuddenly":4198,"Ġhoney":4199,"iron":4200,"ĠMeg":4201,"Ġquart":4202,"ĠSusan":4203,"Ġexponents":4204,"Ġremoved":4205,"ĠAdam":4206,"41":4207,"Ġcuts":4208,"ira":4209,"Ġrh":4210,"Ġplaced":4211,"Ġshook":4212,"Ġmine":4213,"ĠJohnny":4214,"Ġnaughty":4215,"respond":4216,"Ġ128":4217,"ĠFact":4218,"ipping":4219,"orem":4220,"Ġhambur":4221,"most":4222,"ĠJune":4223,"Ġseemed":4224,"orses":4225,"Ġgarage":4226,"mons":4227,"Ġ67":4228,"105":4229,"Ġconf":4230,"Ġcater":4231,"Ġbottom":4232,"130":4233,"Ġfil":4234,"Ġcertain":4235,"Ġcoll":4236,"ĠAcc":4237,"135":4238,"Ġtowels":4239,"Ġdiameter":4240,"ĠJosh":4241,"Ġlim":4242,"Ġsoap":4243,"Ġshots":4244,"Ġsunny":4245,"Ġsounds":4246,"Ġdanced":4247,"Ġwise":4248,"Ġwashing":4249,"Ġlemons":4250,"Ġcorrespond":4251,"Ġsurface":4252,"Ġthough":4253,"Ġspaces":4254,"Of":4255,"Ġsour":4256,"Ġwoke":4257,"Ġbac":4258,"Ġhorses":4259,"Ġbegin":4260,"Ġ93":4261,"ĠPete":4262,"points":4263,"Ġ...":4264,"Ġaf":4265,"ashed":4266,"rize":4267,"week":4268,"ĠJose":4269,"Ġparab":4270,"When":4271,"Ġoven":4272,"sters":4273,"Ġcop":4274,"ĠBri":4275,"urance":4276,"Ġstripes":4277,"Ġingredients":4278,"}_":4279,"ĠAnnie":4280,"yan":4281,"Ġchocolates":4282,"Ġ[/":4283,"ĠAccording":4284,"floor":4285,"uming":4286,"Ġstorm":4287,"ĠToday":4288,"Ġgrocery":4289,"!(":4290,"Ġsim":4291,"ĠSe":4292,"ĠCome":4293,"Ġgroups":4294,"Ġevenly":4295,"siness":4296,"Ġcontainer":4297,"Ġfund":4298,"Ġpress":4299,"ĠAverage":4300,"Ġunit":4301,"Ġbrothers":4302,"Ġcircles":4303,"ĠGeorge":4304,"kin":4305,"vice":4306,"Ġber":4307,"Ġyog":4308,"Ġbusiness":4309,"Ġscience":4310,"Ġmatter":4311,"Ġpills":4312,"Ġmangoes":4313,"ĠFactoring":4314,"ena":4315,"Ġhang":4316,"ĠDave":4317,"Ġcocon":4318,"Ġattended":4319,"ĠLeo":4320,")-":4321,"\\\\":4322,"agged":4323,"Ġmetal":4324,"Ġdeliver":4325,"+(":4326,"Ġsq":4327,"enty":4328,"Ġwhist":4329,"aren":4330,"Ġwindows":4331,"Ġplays":4332,"Ġcolour":4333,"ĠJenna":4334,"Do":4335,"ourth":4336,"Ġfinds":4337,"Ġcomplex":4338,"Ġanswered":4339,"Ġbutton":4340,"Ġequals":4341,"Ġcoefficients":4342,"ique":4343,"Ġlions":4344,"Ġstairs":4345,"Ġwatermelon":4346,"Ġhospital":4347,"Ġstat":4348,"ĠThank":4349,"icked":4350,"Ġwha":4351,"Ġgoals":4352,"Ġwondered":4353,"Ġlollipops":4354,"Ġladder":4355,"ĠJacob":4356,"Ġdest":4357,"Ġann":4358,"Ġwoman":4359,"Ġmad":4360,"play":4361,"Ġbuilt":4362,"Ġdecide":4363,"ground":4364,"Ġsimplified":4365,"ĠJay":4366,"cts":4367,"shine":4368,"Ġconsidering":4369,"Ġdeterminant":4370,"57":4371,"Ġfuel":4372,"Ġtouc":4373,"ĠInit":4374,"Ġnewsp":4375,"Ġlaughing":4376,"Ġparabola":4377,"*(":4378,"Ġtiny":4379,"inos":4380,"Ġnothing":4381,"umb":4382,"Ġ700":4383,"Ġchest":4384,"Ġcere":4385,"ĠDav":4386,"Ġbugs":4387,"Ġshapes":4388,"ĠWhile":4389,"Ġteas":4390,"Ġjew":4391,"Ġdoughnuts":4392,"Ġsweets":4393,"ilities":4394,"Ġsnacks":4395,"}+":4396,"Ġbakes":4397,"Ġcraw":4398,"ĠMon":4399,"Ġleaving":4400,"ĠCarla":4401,"Ġind":4402,"Ġseven":4403,"iff":4404,"Ġsalad":4405,"Ġcylinder":4406,")}$.":4407,"bon":4408,"Ġlow":4409,"Ġelect":4410,"Ġvill":4411,"Ġstate":4412,"Ġseed":4413,"Ġwriting":4414,"fourth":4415,"})^":4416,"inders":4417,"Ġ126":4418,"arranging":4419,"Ġvotes":4420,"Ġpancakes":4421,"320":4422,"erv":4423,"Ġrice":4424,"Ġspicy":4425,"Ġpepper":4426,"Ġwrote":4427,"Ġ192":4428,"Ġreturned":4429,"Ġcute":4430,"Ġgigg":4431,"210":4432,"icles":4433,"ĠAb":4434,"uration":4435,"ĠDe":4436,"undred":4437,"Ġneighborhood":4438,"Ġsna":4439,"Ġwand":4440,"Ġgeomet":4441,"Ġafraid":4442,"Ġhundred":4443,"Ġwhose":4444,"Ġ256":4445,"ĠKe":4446,"Ġfractions":4447,"Ġdrops":4448,"}}{\\":4449,"Ġcab":4450,"Ġ225":4451,"Ġsnowman":4452,"icol":4453,"Ġcarp":4454,"Ġcompleted":4455,"Ġberries":4456,"rfloor":4457,"Ġindiv":4458,"Ġbears":4459,"Ġchoo":4460,"lfloor":4461,"phone":4462,"culate":4463,"Ġsmooth":4464,"Ġindivid":4465,"lic":4466,"Ġants":4467,"Ġcozy":4468,"Ġspoons":4469,"Ġinterior":4470,"Ġemb":4471,"Ġsnakes":4472,"ĠTina":4473,"Ġsauce":4474,"Ġturtles":4475,"Ġcombine":4476,"ĠIs":4477,"plane":4478,"Ġprov":4479,"Ġknows":4480,"ĠBobby":4481,"Ġscoops":4482,"ĠCDs":4483,"220":4484,"let":4485,"Ġpy":4486,"Ġweekly":4487,"Ġseashe":4488,"720":4489,"oe":4490,"Ġbon":4491,"Ġforward":4492,"ading":4493,"2500":4494,"Ġhotel":4495,"8000":4496,"Ġtells":4497,"Ġtouched":4498,"mm":4499,"Ġdra":4500,"Ġears":4501,"ores":4502,"aby":4503,"Ġsunshine":4504,"ĠĠĠĠĠĠĠĠ":4505,"Ġwave":4506,"Ġmarble":4507,"Ġpeanuts":4508,"Ġitself":4509,"ĠMel":4510,"Ġcele":4511,"Ġtape":4512,"Ġcash":4513,"Ġhello":4514,"Ġsoil":4515,"Ġshows":4516,"Ġjack":4517,"1600":4518,"\",(":4519,"Ġtheater":4520,"ouqu":4521,"ĠNo":4522,"Ġprot":4523,"ission":4524,"Ġpiggy":4525,"Ġcarrot":4526,"Ġbouqu":4527,")$:":4528,"Ġinvited":4529,"quation":4530,"Ġdeck":4531,"Ġbreath":4532,"ĠJulia":4533,"Ġfeathers":4534,"225":4535,"ĠÂ":4536,"Ġwore":4537,"Ġ74":4538,"ĠRyan":4539,"ials":4540,"Ġknee":4541,"lude":4542,"Ġtomato":4543,"Ar":4544,"oot":4545,"Ġwild":4546,"Ġdice":4547,"Ġformed":4548,"Ġsunfl":4549,"Ġtalking":4550,"Ġstuffed":4551,"750":4552,"Ġ$.":4553,"iling":4554,"ĠMat":4555,"elet":4556,"ĠKay":4557,"ĠAng":4558,"Ġexciting":4559,"Ġblueberries":4560,"Ġcouch":4561,"leased":4562,"ĠJackson":4563,"Ġpractice":4564,"Ġcoefficient":4565,"Hey":4566,"Sam":4567,"Ġtang":4568,"Ġdre":4569,"Ġounce":4570,"Ġveh":4571,"Ġwallet":4572,"ĠSusie":4573,"ata":4574,"umps":4575,"uted":4576,"Ġpriced":4577,"Ġhuge":4578,"Ġtelevis":4579,"Mr":4580,"Ġrepresentation":4581,"=(":4582,"Ġcoup":4583,"Ġwithin":4584,"ckets":4585,"Ġcontainers":4586,"Ġinsurance":4587,"112":4588,"Ġloses":4589,"Ġstores":4590,"Ġ$-\\":4591,"ĠVal":4592,"Ġrabbits":4593,"Ġresulting":4594,"Ġpowers":4595,"mp":4596,"Ġ((":4597,"ĠCha":4598,"Ġjo":4599,"oph":4600,"Ġyesterday":4601,"Ġcrackers":4602,"alle":4603,"enry":4604,"orter":4605,"Ġeag":4606,"irr":4607,"Ġcreate":4608,"Ġparent":4609,"Ġallowance":4610,"ĠMegan":4611,"77":4612,"nic":4613,"Ġdish":4614,"Ġhealthy":4615,"Ġanyone":4616,"Ġrequired":4617,"Ġfixed":4618,"Ġspotted":4619,"Ġhope":4620,"ille":4621,"Ġfries":4622,"Ġpeppers":4623,"Ġbecome":4624,"ĠTw":4625,"Ġasleep":4626,"Ġloaves":4627,"Ġchos":4628,"Ġfamilies":4629,"array":4630,"Ġ'":4631,"Ġhairc":4632,"ĠSc":4633,"Ġriding":4634,"Ġprocess":4635,"Ġsmelled":4636,"Ġchosen":4637,"Good":4638,"wards":4639,"Ġlap":4640,"ldots":4641,"Ġunique":4642,"Ġdoesn":4643,"Ġsubtracting":4644,"Ġsiblings":4645,"ĠMittens":4646,"Ġcombinations":4647,"Ġsleeps":4648,"Ġcorner":4649,"Ġrelieved":4650,"Ġtasty":4651,"ene":4652,"ĠSqu":4653,"ĠJon":4654,"ramid":4655,"Ġcereal":4656,"ga":4657,"pound":4658,"isha":4659,"Ġlucky":4660,"Ġrepair":4661,"73":4662,"intercept":4663,").\\]":4664,"idget":4665,"ĠSomet":4666,"Ġplate":4667,"Ġworms":4668,"Ġstret":4669,"Ġmissed":4670,"scri":4671,"Ġrobot":4672,"Ġbaking":4673,"Ġmg":4674,"itor":4675,"Ġnor":4676,"Ġmater":4677,"Ġteachers":4678,"Ġbulbs":4679,"Ġoz":4680,"Ġsend":4681,"Ġinterval":4682,"Ġtypes":4683,"Which":4684,"Ġseashells":4685,"ÏĢ":4686,"Ġbub":4687,"Ġpal":4688,"Ġstanding":4689,"Ġkittens":4690,"Ġcomfort":4691,"ĠKitty":4692,"*$":4693,"],":4694,"Ġ280":4695,"Ġcheer":4696,"iol":4697,"suit":4698,"icle":4699,"ĠRandy":4700,"Ġfills":4701,"Ġiron":4702,"ĠCase":4703,"Ġclown":4704,"Ġpeace":4705,"Ġcircum":4706,"Ġbelow":4707,"ĠCharl":4708,").$":4709,"Ġpets":4710,"Ġ260":4711,"Ġ82":4712,"Ġ$$\\":4713,"mult":4714,"enny":4715,"ĠSome":4716,"Ġvase":4717,"eck":4718,"ĠKaren":4719,"Ġpurchasing":4720,"Ġguess":4721,"Ġtriple":4722,"Ġdirt":4723,"Ġcompetition":4724,"My":4725,"Ġquot":4726,"Ġguit":4727,"ĠArea":4728,"year":4729,"}+\\":4730,"Ġnails":4731,"resh":4732,"Ġpicnic":4733,"Ġpointed":4734,"Ġdoubled":4735,"ĠNew":4736,"Ġparalle":4737,"Ġedge":4738,"Ġcelebr":4739,"Ġom":4740,"Ġcoun":4741,"ances":4742,"Ġdetermined":4743,"Ġconclude":4744,"Ġdistribute":4745,"lor":4746,"width":4747,"Ġpir":4748,"ids":4749,"ĠLu":4750,"Ġshorter":4751,"Ġsmiling":4752,"osed":4753,"Ġpackets":4754,"Ġbracelet":4755,"92":4756,"awn":4757,"Ġtires":4758,"Ġtooth":4759,"itude":4760,"ĠLength":4761,"Ġkitten":4762,"angles":4763,"Ġconsists":4764,"Ġforever":4765,"Ġ115":4766,"Ġ6000":4767,"Ġcatches":4768,"Ġtalked":4769,"ĠRearranging":4770,"Ġsearched":4771,"Ġcorresponding":4772,"Ġgeometric":4773,"icolumn":4774,"multicolumn":4775,"ĠHannah":4776,"Ġexper":4777,"ĠPark":4778,"Ġcharged":4779,"Ġsodas":4780,"Ġpromise":4781,"ĠDavid":4782,"Jack":4783,"kg":4784,"ping":4785,"ĠMad":4786,"Ġacres":4787,"Ġbikes":4788,"Ġpints":4789,"ĠGreg":4790,"cm":4791,"Ġtur":4792,"Ġload":4793,"Ġmodel":4794,"Ġjewel":4795,"Ġvillage":4796,"foot":4797,"Ġsection":4798,"Ġplayground":4799,"Ġadop":4800,"Ġincl":4801,"Ġchew":4802,"issa":4803,"Ġclothing":4804,"Ġstops":4805,"6000":4806,"Come":4807,"pill":4808,"since":4809,"Ġcongruent":4810,"Ġknocked":4811,"Ġopp":4812,"Ġparr":4813,"Ġ53":4814,"Ġspin":4815,"ĠPro":4816,"Ġsuit":4817,"Ġpicking":4818,"Ġtrouble":4819,"87":4820,"Ġ375":4821,"Ġstones":4822,"ĠBella":4823,"izon":4824,"Ġcloset":4825,"ĠBrown":4826,"ef":4827,"astic":4828,"Ġdrawn":4829,"flies":4830,"Ġmissing":4831,"Ġinteresting":4832,"Ġmillion":4833,"Ġscarf":4834,"Ġpebbles":4835,"eries":4836,"Ġ59":4837,"Ġtwig":4838,"cdots":4839,"Ġflight":4840,"Ġgun":4841,"Ġ97":4842,"Ġtwenty":4843,"Ġfridge":4844,"Ġkinds":4845,"Ġjumping":4846,"Ġmagaz":4847,"Ġmedian":4848,"Ġjoined":4849,"Ġobjects":4850,"Ġhorizon":4851,"Ġcam":4852,"oop":4853,"ples":4854,"ĠCon":4855,"Ġclo":4856,"Ġbricks":4857,"Ġvisitors":4858,"Ġelephants":4859,"Ġbicycle":4860,"quarium":4861,"selves":4862,"Ġworkers":4863,"Ġpainted":4864,"ĠâĤ¬":4865,"Ġrib":4866,"Ġbones":4867,"Ġpou":4868,"Ġsummer":4869,"Ġliter":4870,"Ġcaterpill":4871,"ott":4872,"ĠAnt":4873,"Ġhelpful":4874,"Ġmoving":4875,"Ġbeginning":4876,"Ġ216":4877,"Ġ5000":4878,"Ġblow":4879,"Ġchees":4880,"Ġrequire":4881,"gcd":4882,"Ġaquarium":4883,"Ġnights":4884,"Ġtasted":4885,"Ġoccurs":4886,"Ġlower":4887,"Ġhun":4888,"Ġrac":4889,"Ġzoom":4890,"Ġdelight":4891,"xim":4892,"Ġfresh":4893,"Ġmud":4894,"ppy":4895,"Ġflav":4896,"2400":4897,")(-":4898,"Ġimpress":4899,"Ġinclus":4900,"Ġtig":4901,"Ġlock":4902,"Ġpyramid":4903,"%)":4904,"280":4905,"Ġpots":4906,"arb":4907,"ĠSm":4908,"Ġ61":4909,"unk":4910,"ĠGrace":4911,"Ġ$\\$$":4912,"Ġblew":4913,"Ġtangent":4914,"hamed":4915,"Ġrid":4916,"Ġ69":4917,"ĠBre":4918,"ĠThree":4919,"Ġcubes":4920,"Ġburgers":4921,"Ġgently":4922,"ĠBrian":4923,"&&":4924,"Ġpears":4925,"Ġ2400":4926,"Ġdishes":4927,"Ġcrab":4928,"ology":4929,"tions":4930,"Ġobs":4931,"Ġrides":4932,"Ġyield":4933,"ĠMB":4934,"hered":4935,"Ġchem":4936,"Ġcovers":4937,"tory":4938,"Ġfancy":4939,"Ġmale":4940,"Ġduration":4941,"ils":4942,"Ġ89":4943,"ĠCross":4944,"Ġtries":4945,"Ġbridge":4946,"orns":4947,"Ġsword":4948,"Ġexpected":4949,"Ġmultiplied":4950,"nel":4951,"ĠSu":4952,"ĠMandy":4953,"Ġpacked":4954,"Ġcounting":4955,"Ġscoop":4956,"Ġexponent":4957,"yed":4958,"Ġq":4959,"Ġtrack":4960,"Ġanswers":4961,"Ġphones":4962,"Ġcloth":4963,"ĠAngel":4964,"74":4965,"Ġgrown":4966,"Ġmeasuring":4967,"Ġpigs":4968,"Ġeventually":4969,"ai":4970,"{(-":4971,"Ġself":4972,"Ġbeds":4973,"Ġdelivery":4974,"Ġpolice":4975,"Ġmeeting":4976,"lceil":4977,"mas":4978,"rceil":4979,"}{(":4980,"Ġshoot":4981,"Ġjeans":4982,"Ġscreamed":4983,"Ġrandomly":4984,"Ġroof":4985,"nie":4986,"Ġign":4987,"rey":4988,"Ġbisc":4989,"ĠLCM":4990,"67":4991,"BC":4992,"acy":4993,"Ġcharac":4994,"1800":4995,"ĠMarcus":4996,"Ġdesk":4997,"Ġconfused":4998,"Ġhorizontal":4999,"ned":5000,"}-":5001,"Ġprize":5002,"Ġ175":5003,"ense":5004,"Ġdivision":5005,"Ġlovely":5006,"ĠMarch":5007,"Ġknives":5008,"Ġdrawer":5009,"ying":5010,"ABC":5011,"Ġlogs":5012,"Ġremain":5013,"Ġdownlo":5014,"Ġ$(\\":5015,"Ġdrum":5016,"Ġphys":5017,"ĠWhich":5018,"number":5019,"Ġaunt":5020,"isher":5021,"Ġtoil":5022,"olute":5023,"Ġhandle":5024,"Ġmoon":5025,"Ġpretended":5026,"Ġshark":5027,"Ġpian":5028,"Ġded":5029,"Ġdess":5030,"Ġdata":5031,"outs":5032,"lyn":5033,"inda":5034,"Ġshining":5035,"Ġbreaks":5036,"Ġserving":5037,"iana":5038,"Ġcabin":5039,"Ġtie":5040,"Ġmass":5041,"Ġspread":5042,"keys":5043,"anches":5044,"Ġsharing":5045,"Ġforgive":5046,"62":5047,"Ġdue":5048,"ĠHenry":5049,"ĠNancy":5050,"Ġbrings":5051,"Ġbatter":5052,"Ġrepresented":5053,",\\]":5054,"625":5055,"Ġhiding":5056,"Ġ102":5057,"iew":5058,"oper":5059,"Ġgray":5060,"Ġstandard":5061,"pend":5062,"triangle":5063,"hemat":5064,"ĠPlease":5065,"Ġremainders":5066,"ĠAli":5067,"Ġabsolute":5068,"Ġpuddle":5069,"ĠInitial":5070,"uits":5071,"128":5072,"ĠOf":5073,"ĠAmanda":5074,"ĠDaniel":5075,"Ġapproxim":5076,"ci":5077,"wood":5078,"enc":5079,"Ġcosting":5080,"ĠEd":5081,"Ġtears":5082,"Ġrolling":5083,"Ġstrawberry":5084,"Ġwinning":5085,"To":5086,"Ġsaving":5087,"Ġstone":5088,"),$":5089,"ĠJulie":5090,"Ġtaste":5091,"ĠSometimes":5092,"270":5093,"yt":5094,"ita":5095,"Ġthick":5096,"ppies":5097,"Ġalb":5098,"arrass":5099,"Ġdoubles":5100,"Ġdesign":5101,"Ġquotient":5102,"ĠBeth":5103,"Ġembarrass":5104,"pendic":5105,"ination":5106,"ades":5107,"Ġnotice":5108,"Ġtrash":5109,"ĠKate":5110,"Ġguppies":5111,"AC":5112,"fifth":5113,"Ġdais":5114,"ounded":5115,"geq":5116,"Ġclever":5117,"Ġpasses":5118,"Ġgoldfish":5119,"Ġgumballs":5120,"Ġgroceries":5121,"ĠComparing":5122,"Ġdaisies":5123,"arc":5124,"ĠMo":5125,"Ġ86":5126,"Ġspo":5127,"Ġ73":5128,"Ġshy":5129,"coordinates":5130,"ĠRed":5131,"osite":5132,"Ġclassroom":5133,"Ġborrowed":5134,"Ġsemes":5135,"pendicular":5136,"ding":5137,"Ġmas":5138,"Ġbranches":5139,"Ġcooking":5140,"Ġreplace":5141,"Ġsplash":5142,"Ġparticular":5143,"van":5144,"Ġborn":5145,"Ġhon":5146,"Ġinse":5147,"Ġshown":5148,"ĠRick":5149,"Ġmathemat":5150,"ĠOr":5151,"Ġserved":5152,"iser":5153,"athered":5154,"Ġhears":5155,"ific":5156,"ĠKend":5157,"20000":5158,"ordan":5159,"Ġproduction":5160,"Ġ170":5161,"Ġplanks":5162,"Ġmedic":5163,"Ġelectric":5164,"Ġwife":5165,"Ġoy":5166,"Ġshel":5167,"Ġperpendicular":5168,"ĠEric":5169,"Ġtrust":5170,"Ġseek":5171,"Ġbushes":5172,"Ġharvested":5173,"oos":5174,"Ġleaf":5175,"Ġflash":5176,"Ġpassing":5177,"Ġlanded":5178,"Ġceiling":5179,"Ġbounce":5180,"gly":5181,"Ġwins":5182,"Ġhall":5183,"ĠEr":5184,"Ġpatch":5185,"Ġdecorations":5186,"Ġcage":5187,"Ġsaus":5188,"Ġwhis":5189,"Ġlip":5190,"Ġclear":5191,"Ġrecomm":5192,"ĠCarrie":5193,"Ġpumpkin":5194,"Ġevaluate":5195,"ĠToby":5196,"Ġscale":5197,"Ġbackpack":5198,"Ġ\\[(":5199,"Ġlaps":5200,"Ġwrap":5201,"Ġoperation":5202,"Ġoffered":5203,"Ġtul":5204,"Ġmay":5205,"Ġstamp":5206,"ĠJam":5207,"Ġcolored":5208,"izzy":5209,"Ġhypot":5210,"com":5211,"ilater":5212,"izer":5213,"Ġwhenever":5214,"Ġendpoints":5215,"Ġplanning":5216,"Ġwire":5217,"Ġsta":5218,"linewidth":5219,"Ġspray":5220,"Ġtenth":5221,"Ġeng":5222,"Ġbc":5223,"ĠTed":5224,"arth":5225,"Ġgate":5226,"ĠMiss":5227,"Ġsett":5228,"izes":5229,"Ġrounds":5230,"Ġbarked":5231,"Ġlogar":5232,"Ġparticip":5233,"Ġtoilet":5234,"216":5235,"can":5236,"Ġrocket":5237,"Ġchance":5238,"iamond":5239,"Ġmelt":5240,"ills":5241,"Ġchap":5242,"Ġsurve":5243,"Ġlimit":5244,"86":5245,"Al":5246,"rated":5247,"enuse":5248,"atures":5249,"Ġkgs":5250,"Ġvisited":5251,"Ġdelivered":5252,"Ġprotect":5253,"aw":5254,"Ġmac":5255,"Ġmain":5256,"Ġ101":5257,"ĠRos":5258,"Ġ3600":5259,"Ġcarrying":5260,"Ġintersection":5261,"Ġsneak":5262,"ĠSmith":5263,"((-":5264,"Ġfinger":5265,"Ġquiz":5266,"Ġ162":5267,"Ġreduced":5268,"Ġemails":5269,"Ġbutterflies":5270,"Ġenvelopes":5271,"Ġcircumference":5272,"Ġapproximately":5273,"Ġdinos":5274,"ĠSoph":5275,"ĠJean":5276,"Ġflies":5277,"Ġtray":5278,"Ġfrust":5279,"Ġsisters":5280,"Ġmacar":5281,"Two":5282,"uary":5283,"ĠTeddy":5284,"aters":5285,"Ġgathered":5286,"Ġrude":5287,"Ġroller":5288,"Ġfemales":5289,"neg":5290,"Ġbone":5291,"Ġnine":5292,"Ġstates":5293,"ĠDar":5294,"Ġended":5295,"Ġpolite":5296,"negative":5297,"ias":5298,"Ġmind":5299,"star":5300,"arsh":5301,"Ġtransport":5302,"Ġselected":5303,"Ġsparkly":5304,"Ġconditions":5305,"ĠJessica":5306,"Ġphysics":5307,"Ġembarrassed":5308,"Ġmirr":5309,"Ġjumps":5310,"Ġexpand":5311,"mother":5312,"Ġtaught":5313,"ĠSal":5314,"lee":5315,"ĠLast":5316,"ĠMummy":5317,"Ġ104":5318,"Ġnotes":5319,"ĠEn":5320,"Ġavoc":5321,"Ġdepend":5322,"Ġappeared":5323,"ĠSquaring":5324,"Ġavocad":5325,"lish":5326,"ye":5327,"ising":5328,"Ġmap":5329,"Ġstra":5330,"ĠJer":5331,"Ġcandle":5332,"Ġskip":5333,"rench":5334,"Ġinstall":5335,"Ġshelter":5336,"dbinom":5337,"rimin":5338,"wor":5339,"Ġbx":5340,"Ġclay":5341,"Ġcalm":5342,"Ġsleepy":5343,"Ġcarton":5344,"Ġturtle":5345,"Ġâī":5346,"Ġerasers":5347,"Ġribbon":5348,"Car":5349,"Ġearr":5350,"Ġ\\$":5351,"angar":5352,"Ġcalls":5353,"Ġfurry":5354,"Ġbonus":5355,"Ġtiger":5356,"riminant":5357,"fall":5358,"Ġgained":5359,"ĠBu":5360,"ĠEng":5361,"Ġskips":5362,"Ġknife":5363,"ĠBefore":5364,"Ġcorrectly":5365,"Ġyogurt":5366,"Ġtelevision":5367,"det":5368,"water":5369,"Ġhistory":5370,"Ġjars":5371,"Ġgrape":5372,"Ġweighed":5373,"ĠKatie":5374,"Ġcones":5375,"olf":5376,"Ġbrush":5377,"Ġtraining":5378,"Ġdisplay":5379,"Ġdiscriminant":5380,"Ġpresents":5381,"Ġallowed":5382,"Ġbinomial":5383,"Ġdiagonal":5384,"Ġsam":5385,"Ġcos":5386,"ules":5387,"Ġloads":5388,"Ġthemselves":5389,"Ġknowing":5390,"Ġdecreas":5391,"Ġmyster":5392,"Ġprint":5393,"ilateral":5394,"Ġess":5395,"ĠSand":5396,"Ġstor":5397,"Ġexcept":5398,"Ġ165":5399,"Ġweekdays":5400,"Ġskir":5401,"ĠOver":5402,"hag":5403,"Ġmeant":5404,"Ġqueen":5405,"ĠPyt":5406,"Ġscarves":5407,"ĠPythag":5408,"Mar":5409,"chan":5410,"lph":5411,"Ġmaybe":5412,"Ġeasy":5413,"Ġinfl":5414,"Ġdolph":5415,"Ġallig":5416,"Ġproducts":5417,"Ġconstru":5418,"Ġlayer":5419,"91":5420,"Ġwip":5421,"Ġcries":5422,"imp":5423,"Ġugly":5424,"Ġkangar":5425,"arson":5426,"Ġdivides":5427,"shift":5428,"Ġrecip":5429,"Ġelev":5430,"ĠPhil":5431,"ĠChristmas":5432,"Ġpiano":5433,"Ph":5434,"icing":5435,"orean":5436,"Ġasking":5437,"ÅĵI":5438,"Ġhidden":5439,"ĠPythagorean":5440,"Evaluate":5441,"uction":5442,"anny":5443,"Ġlamp":5444,"Ġeld":5445,"Ġasym":5446,"Ġshore":5447,"ĠEarth":5448,".$$":5449,"Ġtraveling":5450,"ungle":5451,"Ġsegments":5452,"Ġfighting":5453,"ds":5454,"Ġwarn":5455,"Ġoften":5456,"Ġcarn":5457,"Ġneither":5458,"Ġoffic":5459,"Ġangel":5460,"Ġburger":5461,"Ġobser":5462,"Ġbiscuits":5463,"Ġasympt":5464,"Ġfat":5465,"Ġdom":5466,"Ġjungle":5467,"Ġworm":5468,"Ġskipped":5469,"uddy":5470,"Ġcreature":5471,"ĠJoey":5472,"Ġdancing":5473,"ĠKevin":5474,"Ġmysterious":5475,"!}":5476,"+(-":5477,".)":5478,"260":5479,"61":5480,"aid":5481,"iture":5482,"Ġstood":5483,"Ġfluffy":5484,"Ġcreated":5485,"ĠWhy":5486,"Ġspring":5487,"Ġshrimp":5488,"Ġhypotenuse":5489,"420":5490,"ner":5491,"ti":5492,"Ġwed":5493,"Ġbean":5494,"}{-":5495,"Ġ77":5496,"101":5497,"isting":5498,"Ġagainst":5499,"Ġvolcan":5500,"Ġflyers":5501,"arrow":5502,"Ġcroiss":5503,"Ġindividual":5504,"ĠLake":5505,"Ġtriangles":5506,"Ġ2500":5507,"Ġsimplifying":5508,"ĠStep":5509,"ĠEnglish":5510,"rows":5511,"Ġtag":5512,"Ġtoast":5513,"idy":5514,"imize":5515,"Ġ540":5516,"Ġleop":5517,"Ġpaints":5518,"Ġgrandmother":5519,"Ġsixth":5520,"Ġreaches":5521,"ĠRex":5522,"Ġcongruence":5523,"Ġdiscovered":5524,"Ġtulips":5525,"Ġstraight":5526,"cup":5527,"Ġinf":5528,"Ġ340":5529,"indy":5530,"mates":5531,"Ġcreative":5532,"Ġtightly":5533,"Ġpuzzles":5534,"Ġhamburgers":5535,"erald":5536,"Ġnerv":5537,"ĠMs":5538,"ĠKrist":5539,"pied":5540,"Ġdonate":5541,"Ġsalt":5542,"Ġrained":5543,"ĠJanuary":5544,"Ġnervous":5545,"Are":5546,"lers":5547,"ĠâĢ":5548,"Ġrare":5549,"Ġareas":5550,"epend":5551,"month":5552,")+(":5553,"Ġgraders":5554,"ĠJuly":5555,"Ġbacon":5556,"Ġeager":5557,"Ġdessert":5558,"$)":5559,"gn":5560,"zero":5561,"Ġ71":5562,"ĠChe":5563,"Ġ10000":5564,"Ġholes":5565,"Ġserve":5566,"Ġpotato":5567,"Ġearrings":5568,"ĠTheorem":5569,"Ġhus":5570,"iders":5571,"168":5572,"umpy":5573,"Ġcalling":5574,"Ġknight":5575,"Ġmarkers":5576,"ler":5577,"Ġhens":5578,"Ġchased":5579,"teen":5580,"Ġopens":5581,"Ġglue":5582,"Ġfalls":5583,"Ġpasta":5584,"Ġwhistle":5585,"Ġsunflower":5586,"Ġvehicles":5587,"Ġcamer":5588,"cumber":5589,"Ġsen":5590,"Ġstir":5591,"Ġ840":5592,"place":5593,"Ġflat":5594,"Ġtrump":5595,"Ġcucumber":5596,"Ġweights":5597,"Ġyelled":5598,"ĠWilliam":5599,"Ġmathematics":5600,"Ġstorage":5601,"83":5602,"night":5603,"ĠLou":5604,"Ġashamed":5605,"sey":5606,"Ġbuckets":5607,"Ġpeach":5608,"ĠThom":5609,"Ġshape":5610,"Ġsandbox":5611,"Ġbatches":5612,"thirds":5613,"Ġvacu":5614,"Ġmixed":5615,"Ġnovels":5616,"Ġfurn":5617,"enn":5618,"Ġkick":5619,"Ġ8000":5620,"ĠJordan":5621,"Ġliz":5622,"Ġconne":5623,"ĠAmer":5624,"Ġtrains":5625,"Ġdiamond":5626,"Ġspoil":5627,"rm":5628,"Ġwidget":5629,"Ġpour":5630,"ĠHel":5631,"ĠBarb":5632,"Ġcheaper":5633,"Ġshowing":5634,"Ġscreen":5635,"Ġearth":5636,"Ġdirection":5637,"Ġobtained":5638,"Ġcheesec":5639,"inary":5640,"Ġrout":5641,"121":5642,"ĠPolly":5643,"Ġpapers":5644,"Ġframe":5645,"othy":5646,"ĠSimon":5647,"Ġindepend":5648,"arshmall":5649,"pec":5650,"Ġfine":5651,"Ġpm":5652,"asha":5653,"Ġmanaged":5654,"ĠFeb":5655,"Ġsetting":5656,"Ġfishing":5657,"Ġpowerful":5658,"Ġgrowing":5659,"Ġactiv":5660,"Ġdepos":5661,"ruary":5662,"Ġidentical":5663,"Ġdisappoin":5664,"ĠFebruary":5665,"kins":5666,"elle":5667,"eline":5668,"ĠEverywhere":5669,"Ġcontained":5670,"Ġelements":5671,"Ġopposite":5672,"Ġselfish":5673,"175":5674,"Where":5675,"inch":5676,"Ġbored":5677,"Ġonions":5678,"102":5679,"raph":5680,"Ġjam":5681,"Ġoutf":5682,"Ġshad":5683,"Ġexercise":5684,"Ġtask":5685,"Ġflashlight":5686,"works":5687,"Ġfurniture":5688,"''":5689,"ca":5690,"mb":5691,"mod":5692,"Ġtab":5693,"Ġtiss":5694,"Ġfisher":5695,"Ġhomes":5696,"lla":5697,"Ġ640":5698,"Ġ12000":5699,"ĠNor":5700,"ĠRem":5701,"Ġcooler":5702,"Ġpracticed":5703,"ĠDanny":5704,"cher":5705,"Ġach":5706,"Ġath":5707,"ĠHence":5708,"Ġlead":5709,"Ġmem":5710,"ĠEven":5711,"Ġalmost":5712,"126":5713,"Ġbasil":5714,"Ġdeer":5715,"Ġ<=":5716,"Ġtan":5717,"imens":5718,"Ġ79":5719,"Ġ94":5720,"ĠGo":5721,"Ġpacket":5722,"Ġairplane":5723,"Ġrecords":5724,"iraff":5725,"Ġcoconut":5726,"ĠKendra":5727,"Ġindependent":5728,"375":5729,"hline":5730,"Ġren":5731,"Ġ255":5732,"Ġputting":5733,"3600":5734,"Ġnods":5735,"ĠABC":5736,"Ġdomain":5737,"wal":5738,"Ġ330":5739,"Ġ121":5740,"Ġmoms":5741,"Ġremained":5742,"Ġglow":5743,"azy":5744,"Ġshoe":5745,"Ġtowers":5746,"Ġlawns":5747,"ĠOliver":5748,"bc":5749,"ka":5750,"Ġter":5751,"Ġwaves":5752,"Ġcous":5753,"Ġgem":5754,"ĠSum":5755,"ict":5756,"utes":5757,"Ġrings":5758,"Ġremind":5759,"Ġ245":5760,"Ġresc":5761,"Ġconcert":5762,"Stop":5763,"Ġmistake":5764,"Ġelder":5765,"Mary":5766,"ino":5767,"Ġboss":5768,"atorn":5769,"Ġnur":5770,"tered":5771,"Ġpops":5772,"Ġliqu":5773,"Ġflute":5774,"Ġaccept":5775,"ĠBrad":5776,"Ġtablespoons":5777,"Ġorganized":5778,"Ġappears":5779,"operatorn":5780,"operatorname":5781,"Bob":5782,"Ġoct":5783,"ief":5784,"ffic":5785,"Ġcrick":5786,"Ġsupport":5787,"ĠCalculate":5788,"Ġgiggled":5789,"abytes":5790,"'d":5791,"ez":5792,"multiplying":5793,"upied":5794,"Ġbeha":5795,"ulas":5796,"elia":5797,"omega":5798,"Ġsweater":5799,"Ġidentity":5800,"gl":5801,"Ġgiraff":5802,"Ġbicycles":5803,"cip":5804,"nab":5805,"uisha":5806,"Ġsight":5807,"ana":5808,"Ġruined":5809,"uishable":5810,"eros":5811,"Ġmarshmall":5812,"eremy":5813,"udy":5814,"Ġmead":5815,"Ġpray":5816,"Ġdecorate":5817,"ĠâĪ":5818,"ĠElla":5819,"Ġdisappointed":5820,"During":5821,"ĠSha":5822,"ĠSandy":5823,"Ġsports":5824,"ĠGerald":5825,"iley":5826,"Ġguest":5827,"ĠVol":5828,"Ġpige":5829,"Ġlegos":5830,"tain":5831,"iter":5832,"Ġnos":5833,"Ġstage":5834,"rod":5835,"ushes":5836,"ĠKyle":5837,"Ġshower":5838,"pril":5839,"Ġstatue":5840,"het":5841,"Ġbarn":5842,"Ġmic":5843,"aron":5844,"Ġ$\\|\\":5845,"Ġshipping":5846,"Ġloaf":5847,"Ġoffers":5848,"Ġcleaned":5849,"Ġkeeps":5850,"999":5851,"Ġvisits":5852,"Ġtowel":5853,"Ġsquirrels":5854,"Ġbabysitting":5855,"ĠLuke":5856,"Ġinsects":5857,"ĠâĢĵ":5858,"):":5859,"53":5860,"Ġwinner":5861,"Ġlam":5862,"ĠSun":5863,"Ġweak":5864,"Ġsheet":5865,"oger":5866,"Ġoptions":5867,"Ġbowls":5868,"Ġsailed":5869,"Ġweighing":5870,"ĠNathan":5871,"ĠTwice":5872,"ĠCharlie":5873,"nabla":5874,"115":5875,"ĠÃ":5876,"Ġbark":5877,"Ġfake":5878,"ĠmL":5879,"Ġmall":5880,"ceed":5881,"aders":5882,"Ġmechan":5883,"ĠRic":5884,"Ġdrawings":5885,"Ġboats":5886,"Ġdeal":5887,"ption":5888,"uppose":5889,"Ġannual":5890,"Ġjewelry":5891,"}^{":5892,"Ġellip":5893,"Ġvine":5894,"Ġequilateral":5895,"Ġ124":5896,"Ġcheap":5897,"Ġpetals":5898,"Ġesc":5899,"Ġpeaceful":5900,"Ġmedicine":5901,"Ġreciproc":5902,"rick":5903,"}|":5904,"Ġpiles":5905,"Ġ230":5906,"ĠApril":5907,"Ġlessons":5908,"Ġskin":5909,"Ġstudying":5910,"Ġdiagonals":5911,"Ġtasks":5912,"ĠKayla":5913,"Ġwedding":5914,"Ġliquid":5915,"Mark":5916,"bf":5917,"band":5918,"Ġtut":5919,"itches":5920,"ingers":5921,"Ġtools":5922,"ĠOK":5923,"lock":5924,"Ġsafely":5925,"Ġdinosaur":5926,"Cal":5927,"Please":5928,"Ġdam":5929,"Ġfear":5930,"Ġgrows":5931,"ĠRay":5932,"avier":5933,"Ġenc":5934,"issors":5935,"Ġfilling":5936,"Ġchanged":5937,"Ġbabies":5938,"Ġwrapping":5939,"Ġwhales":5940,"Ġguitar":5941,"ament":5942,"Ġ2010":5943,"ĠDor":5944,"Ġmuse":5945,"Ġchip":5946,"Ġreceiving":5947,"Ġmole":5948,"ĠChris":5949,"ounce":5950,"$\",(":5951,"ĠQu":5952,"Ġsemester":5953,"Ġmeadow":5954,"Ġboring":5955,"ilit":5956,"ĠLittle":5957,"ĠMy":5958,"htub":5959,"Ġscissors":5960,"Ġblood":5961,"Ġunderstood":5962,"Ġpillow":5963,"Ġcoupon":5964,"ĠSophie":5965,"93":5966,"eared":5967,"gen":5968,"Ġfart":5969,"ention":5970,"Ġcoco":5971,"ĠJas":5972,"ĠCol":5973,"Ġexamp":5974,"Ġbathtub":5975,"Ġcompetitor":5976,"ĠJamie":5977,"Ġexample":5978,"Ġbees":5979,"ĠLiz":5980,"ĠGab":5981,"Ġhopping":5982,"Ġchecked":5983,"Ġcountry":5984,"Ġsweetie":5985,"space":5986,"ware":5987,"Ġwool":5988,"Ġgather":5989,"una":5990,"Ġshorts":5991,"Ġhelm":5992,"ĠKelly":5993,"Ġdonates":5994,"Ġfamous":5995,"Ġbakery":5996,"Ġhusband":5997,"Ġmicro":5998,"oid":5999,"Ġtro":6000,"Ġtidy":6001,"Ġfif":6002,"ĠTyl":6003,"ĠShan":6004,"ada":6005,"Ġpoor":6006,"Ġloan":6007,"Ġtrays":6008,"Ġmonkeys":6009,"Ġformulas":6010,"Ġsunda":6011,"Ġmoves":6012,"Ġplanned":6013,"Ġdefin":6014,"Ġespec":6015,"Ġlasts":6016,"Ġgenerous":6017,"Ġfrustrated":6018,"Ġespecially":6019,"ole":6020,"Ġviol":6021,"ĠOnce":6022,"Ġremove":6023,"ession":6024,"Ġcontent":6025,"Ġguard":6026,"Ġstream":6027,"Jim":6028,"Ġwagged":6029,"Ġhipp":6030,"ically":6031,"uth":6032,"Ġcoats":6033,"vers":6034,"heses":6035,"neq":6036,"Ġboots":6037,"Ġrainfall":6038,"Ġbarrels":6039,"Ġmessy":6040,"Ġrelax":6041,"Ġnonnegative":6042,"Ġselecting":6043,"ĠTweety":6044,"Ġtunnel":6045,"Ġwhisper":6046,"Ġmuseum":6047,"ckey":6048,"Ġmales":6049,"ution":6050,"ĠAss":6051,"Ġroar":6052,"istry":6053,"ushed":6054,"Ġtripl":6055,"Ġposition":6056,"Ġpenny":6057,"Ġcrate":6058,"textbf":6059,"Ġrounded":6060,"Ġsigns":6061,"Ġbiology":6062,"Ġcomfortable":6063,"Ġcamera":6064,"Now":6065,"Ġwing":6066,"Ġtons":6067,"Ġsock":6068,"Ġ87":6069,"Ġlikely":6070,"Ġapply":6071,"Ġearning":6072,"Ġsuits":6073,"Ġ195":6074,"Ġpulls":6075,"ĠYork":6076,"Ġhurts":6077,"Ġlapt":6078,"Ġcucumbers":6079,"ĠHigh":6080,"ĠCarson":6081,"10000":6082,"Ġmilks":6083,"Ġhockey":6084,"Ġexcite":6085,"Ġ190":6086,"Ġinclude":6087,"Ġsentences":6088,"Ġseasons":6089,"Ġcounter":6090,"Ġturkey":6091,"Ġmarshmallows":6092,"back":6093,"fic":6094,"men":6095,"head":6096,"Ġrese":6097,"ighed":6098,"Ġ&\\":6099,"Ġimpro":6100,"Ġparentheses":6101,"Ġhonest":6102,"omed":6103,"ĠRoger":6104,"Ġyourself":6105,"Ġchose":6106,"Ġcrow":6107,"Ġwooden":6108,"Ġwrapped":6109,"Ġquarts":6110,"Ġwidgets":6111,"Ġrental":6112,"Ġtract":6113,"Ġeas":6114,"ĠLook":6115,"unc":6116,"Ġjoke":6117,"ustin":6118,"Ġcollecting":6119,"Ġsweaters":6120,"ĠMarg":6121,"clus":6122,"ĠRobert":6123,"hspace":6124,"Ġsubstituting":6125,"Ġdimens":6126,"Ġlives":6127,"Ġhoop":6128,"Ġ\\|\\":6129,"Ġthin":6130,"urch":6131,"Ġperm":6132,"Ġbiggest":6133,"anged":6134,"170":6135,"eptember":6136,"Ġcompletely":6137,"Ġtextbook":6138,"cast":6139,"ral":6140,"Ġhay":6141,"umes":6142,"Ġwashes":6143,"endy":6144,"ĠCity":6145,"Ġscream":6146,"Ġhose":6147,"Ġcombination":6148,"Ġservice":6149,"ĠJanice":6150,"Ġincluded":6151,"Ġcommerc":6152,"Ġtrail":6153,"Ġoccupied":6154,"Ġcherries":6155,"Ġhappening":6156,"Ġvanilla":6157,"Ġexcitement":6158,"nor":6159,"pay":6160,"peed":6161,"Ġeye":6162,"Ġnormally":6163,"Ġenvelope":6164,"Ġsuccessful":6165,"Ġomelet":6166,"mine":6167,"Ġsighed":6168,"Ġhourly":6169,"Ġlosing":6170,"andel":6171,"Ġgrumpy":6172,"Ġovertime":6173,"ĠBobo":6174,"Ġcounts":6175,"Ġdead":6176,"Ġbuildings":6177,"Ġgrandpa":6178,"Ġcontinue":6179,"Ġkissed":6180,"____":6181,"Ġdestro":6182,"Ġinclusive":6183,"Ġsine":6184,"ĠHar":6185,"104":6186,"Ġends":6187,"Ġbased":6188,"Ġenter":6189,"Ġstreets":6190,"Ġsplashed":6191,"Ġdelivers":6192,"Ġpractices":6193,"Ġtuna":6194,"Ġbouquets":6195,"Ġmaterial":6196,"Ġtwigs":6197,"Ġmirror":6198,"Hel":6199,"Ġtire":6200,"Ġtips":6201,"Ġsort":6202,"ĠSchool":6203,"cel":6204,"Ġmini":6205,"ĠDawn":6206,"Ġchurch":6207,"Ġchain":6208,"aura":6209,"Ġgeese":6210,"Ġteaspoons":6211,"Ġchemistry":6212,"Ġengine":6213,"Ġterri":6214,"Ġmilksha":6215,"Sol":6216,"bie":6217,"Ġwagon":6218,"Ġgroom":6219,"Ġheal":6220,"ĠSeptember":6221,"sting":6222,"ĠLola":6223,"Ġsections":6224,"Ġflips":6225,"ĠGary":6226,"Ġthrown":6227,"loe":6228,"Ġreward":6229,"Ġprincip":6230,"ika":6231,"Ġpoured":6232,"Ġcaterpillar":6233,"ism":6234,"ĠSh":6235,"riger":6236,"Ġattract":6237,"ĠDucky":6238,"Ġbull":6239,"apers":6240,"Ġlearning":6241,"chard":6242,"Ġrefriger":6243,"Ġmighty":6244,"Ġchoosing":6245,"aps":6246,"che":6247,"ville":6248,"Ġaver":6249,"Ġapr":6250,"Ġfingers":6251,"Ġpleased":6252,"iring":6253,"adium":6254,"Ġunus":6255,"udge":6256,"256":6257,"Ġcontest":6258,"Ġschools":6259,"Ġapartments":6260,"Ġnewspapers":6261,")?":6262,"stick":6263,"Ġonline":6264,"Ġsup":6265,"Ġcharity":6266,"ĠMartin":6267,"Ġactually":6268,"Ġcraft":6269,"shirt":6270,"Ġdisappeared":6271,"ĠJoseph":6272,"Ġnewspaper":6273,"Ġfool":6274,"Ġdandel":6275,"Ġstadium":6276,"Ġbeak":6277,"Ġprince":6278,"Ġarg":6279,"Ġdiscounted":6280,"Ġburned":6281,"Ġvacuum":6282,"Sorry":6283,"nal":6284,"int":6285,"Ġwage":6286,"Ġfert":6287,"Ġshell":6288,"Ġcobs":6289,"Ġspir":6290,"12000":6291,"Ġcred":6292,"Ġsharks":6293,"ĠÂ£":6294,"Ġparallel":6295,"Ġdimensions":6296,"330":6297,"Ġware":6298,"Ġmummy":6299,"Ġxy":6300,"aine":6301,"1400":6302,"Ġstrings":6303,"Ġbases":6304,"ĠAltogether":6305,"}.$$":6306,"Ġpresident":6307,"Ġvertical":6308,"Ġeraser":6309,"Ġdreams":6310,"Simplify":6311,"Ġlying":6312,"Ġlazy":6313,"ican":6314,"Ġplastic":6315,"Ġdiffic":6316,"Ġpurse":6317,"Ġhanded":6318,"luding":6319,"Ġemployee":6320,"Ġoysters":6321,"Ġdifficult":6322,"qquad":6323,"ron":6324,"tuce":6325,"vet":6326,"Ġhol":6327,"lement":6328,"imi":6329,"Ġ336":6330,"ĠBry":6331,"Ġdoors":6332,"Ġleak":6333,"hanie":6334,"Ġ156":6335,"?\".":6336,"Ġlettuce":6337,"Ġvend":6338,"Ġcrayon":6339,"ABCD":6340,"Ġtails":6341,"Ġsubscri":6342,"Ġol":6343,"ermark":6344,"Ġ288":6345,"laire":6346,"Ġlaid":6347,"Who":6348,"Ġepisode":6349,"ĠCaleb":6350,"Ġcrawled":6351,"Ġcarnations":6352,"Ġreciprocal":6353,"Ġsupermark":6354,"Ġsupermarket":6355,"for":6356,"Ġearly":6357,"ĠSp":6358,"Ġrough":6359,"Ġtwirl":6360,"abc":6361,"Ġ1400":6362,"Ġuseful":6363,"Ġresults":6364,"coli":6365,"Ġfigures":6366,"Ġfolder":6367,"Ġrubber":6368,"Ġhuman":6369,"Ġbubbles":6370,"Ġpirate":6371,"ĠVolume":6372,"Ġgummy":6373,"ĠSn":6374,"Ġrev":6375,"Ġuncle":6376,"ĠEnd":6377,"Ġgolf":6378,"Ġincred":6379,"Ġstudies":6380,"Ġchanges":6381,"Ġmachines":6382,"yd":6383,"Ġaud":6384,"ĠSpeed":6385,"Ġcoal":6386,"ĠCindy":6387,"Ġhelps":6388,"ugh":6389,"Ġpointing":6390,"ĠKel":6391,"oint":6392,"Ġcupboard":6393,"ĠUS":6394,"Ġswims":6395,"ylie":6396,"Ġsupposed":6397,"Ġsuggest":6398,"Ġmultiplic":6399,"Ġblankets":6400,"Ġburns":6401,"Ġshooting":6402,"Ġasymptote":6403,"Ġfisherman":6404,"Ġnurse":6405,"Ġfertil":6406,"aj":6407,"alph":6408,"Ġgor":6409,"aghet":6410,"Ġgoat":6411,"ipment":6412,")(\\":6413,"Ġhighlight":6414,"Ġthrowing":6415,"ĠCarlos":6416,"Ġdestination":6417,"aghetti":6418,"560":6419,"Ġ2100":6420,"ashing":6421,"Ġ\\,":6422,"ivia":6423,"Ġyet":6424,"ĠLee":6425,"Ġspaghetti":6426,"Ġnote":6427,"Ġshake":6428,"Ġcrown":6429,"Ġzeb":6430,"appro":6431,"Ġthankful":6432,"Ġlollipop":6433,"ĠBrenda":6434,"ĠRosie":6435,"Ġlambs":6436,"Ġunusual":6437,"-(":6438,"230":6439,"bx":6440,"rup":6441,"Ġ%":6442,"Ġfountain":6443,"Ġ-(":6444,"ĠJeremy":6445,"Ġspilled":6446,"Ġshift":6447,"ublic":6448,"Ġarrow":6449,"Ġ3500":6450,"Ġmeaning":6451,"gray":6452,"Ġroute":6453,"Ġtanks":6454,"Ġellipse":6455,"Help":6456,"rices":6457,"Ġtac":6458,"Ġobed":6459,"Ġpipe":6460,"ĠTr":6461,"Ġgoose":6462,"Ġ275":6463,"imed":6464,"ĠHank":6465,"ĠAaron":6466,"ifer":6467,"Ġtherefore":6468,"ĠEquation":6469,"Ġchop":6470,"Ġ113":6471,"elling":6472,"Ġmatrices":6473,"ship":6474,"Ġnovel":6475,"ĠBlue":6476,"))$":6477,"under":6478,"Ġwolf":6479,"itive":6480,"Ġnut":6481,"Ġsew":6482,"Ġjer":6483,"Ġpapay":6484,"Ġ365":6485,"Ġimp":6486,"Ġradio":6487,"Ġadventur":6488,"Ġsearching":6489,"Ġflags":6490,"Ġmowing":6491,"Ġmotorcycle":6492,"Ġcosine":6493,"ced":6494,"fa":6495,"pen":6496,"Ġrat":6497,"Ġcopper":6498,"asses":6499,"engu":6500,"Ġsnowfl":6501,"ĠYour":6502,"ĠiPh":6503,"Ġwinter":6504,"Ġskirts":6505,"ĠAssuming":6506,"Ġobedient":6507,"89":6508,"iness":6509,"Ġhex":6510,"Ġstove":6511,"ĠMag":6512,"ĠJoy":6513,"Ġ2019":6514,"Ġsuper":6515,"Ġcommission":6516,"Ġbringing":6517,"Ġcomputers":6518,"Ġrepeated":6519,"Ġinvestment":6520,"Ġseparate":6521,"Ġcollar":6522,"Ġjacket":6523,"Ġrescue":6524,"Equation":6525,"lets":6526,"ĠYes":6527,"Ġsco":6528,"Ġsimpl":6529,"Ġpad":6530,"Ġhorn":6531,"Ġequipment":6532,"Ġexter":6533,"Ġbuses":6534,"Ġdecrease":6535,"111":6536,"Ġbroc":6537,"ĠJuan":6538,"Ġcharacter":6539,"Ġhelmet":6540,"Ex":6541,"LCM":6542,"ien":6543,"net":6544,"Ġaff":6545,"Ġtough":6546,"Ġev":6547,"Ġweird":6548,"stal":6549,"ĠIan":6550,"Ġsmelly":6551,"Ġloss":6552,"hess":6553,"aven":6554,"Ġcompute":6555,"Ġacorns":6556,"graders":6557,"Ġstronger":6558,"Ġcommitt":6559,"Ġjournal":6560,"Ġgrades":6561,"Ġmagnitude":6562,"Ġcolourful":6563,"Ġchapters":6564,"Ġavocados":6565,"Ġincredible":6566,"71":6567,"Out":6568,"cient":6569,"iane":6570,"Ġtile":6571,"ham":6572,"Ġ550":6573,"ĠHeight":6574,"Ġ999":6575,"Ġquit":6576,"Ġpear":6577,"Ġagree":6578,"Ġblueberry":6579,"Ġpossib":6580,"Ġfollowers":6581,"ĠCarol":6582,"Ġattic":6583,"Ġknock":6584,"Ġproportional":6585,"Ġcashier":6586,"Ġhaircut":6587,"ĠThomas":6588,"Ġfarther":6589,"Ġadventurous":6590,"Be":6591,"iers":6592,"Ġtheorem":6593,"Ġfan":6594,"Ġpengu":6595,"ĠTe":6596,"omb":6597,"ifting":6598,"Ġ960":6599,"Ġprogr":6600,"ecause":6601,"Ġadj":6602,"Ġteams":6603,"Ġchoice":6604,"Ġdrop":6605,"Ġfrozen":6606,"ĠAddition":6607,"Ġinvol":6608,"Ġripe":6609,"Ġpracticing":6610,"Ġsearch":6611,"ĠClara":6612,"Ġdirect":6613,"Ġfilm":6614,"Ġwhale":6615,"Ġclock":6616,"Ġimpressed":6617,"cline":6618,"die":6619,"father":6620,"lete":6621,"Ġ$=":6622,"Ġmel":6623,"Ġ650":6624,"ĠEvent":6625,"Ġappl":6626,"Ġshamp":6627,"Ġlaw":6628,"ibble":6629,"Ġarranged":6630,"Ġmillilit":6631,"graph":6632,"Ġdefinition":6633,"Ġbroccoli":6634,"+$":6635,"840":6636,"Me":6637,"Ġtied":6638,"Ġcycle":6639,"ĠApp":6640,"Ġbund":6641,"Ġbrill":6642,"Ġresid":6643,"ĠStat":6644,"Ġorganiz":6645,"Ġwatermelons":6646,"ĠMelissa":6647,"Ġtrumpet":6648,"Ġlizard":6649,"ĠEventually":6650,"Ġchess":6651,"Ġ$[":6652,"Ġ116":6653,"ĠLuna":6654,"ĠCher":6655,"Ġdisting":6656,"cccc":6657,"Ġgrandfather":6658,"Ġbitter":6659,"Ġweekends":6660,"Ġrepeating":6661,"Ġdistributed":6662,"Ġcontribute":6663,"Ġtoothp":6664,"59":6665,"kers":6666,"Ġtap":6667,"Ġtoes":6668,"Ġdizzy":6669,"Ġlicked":6670,"Ġsofa":6671,"Ġview":6672,"ĠBC":6673,"child":6674,"147":6675,"ĠVer":6676,"Ġsymb":6677,"Ġprepare":6678,"Ġhamburger":6679,"Ġdependable":6680,"walk":6681,"Ġbrilliant":6682,"540":6683,"82":6684,"gor":6685,"ties":6686,"ari":6687,"Ġlie":6688,"ĠWal":6689,"Ġclients":6690,"Ġchores":6691,"Ġmakeup":6692,"Ġamounts":6693,"Ġfrown":6694,"Ġsubjects":6695,"Ġjackets":6696,"Ġsymbol":6697,"AD":6698,"bl":6699,"bra":6700,"mile":6701,"Ġvalid":6702,"ĠBrand":6703,"Ġfees":6704,"ĠĠĠ":6705,"Ġpaw":6706,"Ġtests":6707,"Ġthinking":6708,"ĠUncle":6709,"Ġdistinguishable":6710,"born":6711,"ray":6712,"hand":6713,"Ġbeet":6714,"Ġpoem":6715,"Ġjug":6716,"Ġloaded":6717,"abel":6718,"Ġprefer":6719,"Ġsuitc":6720,"Ġthroughout":6721,"inese":6722,"ĠChinese":6723,"ierce":6724,"Ġsounded":6725,"Ġpatients":6726,"Ġcoconuts":6727,"Ġhaircuts":6728,"xts":6729,"Ġpood":6730,"ilar":6731,"owed":6732,"Ġrich":6733,"Ġspan":6734,"Ġspiders":6735,"ĠNem":6736,"Ġunic":6737,"Ġsmoke":6738,"isted":6739,"ĠRate":6740,"Ġtexts":6741,"Ġraft":6742,"Ġbarrel":6743,"Ġdrinking":6744,"Ġmushroom":6745,"Ġfoolish":6746,"Ġhighlighters":6747,"Ġshampoo":6748,"Ġmilliliters":6749,"ĠNemo":6750,"ixt":6751,"sided":6752,"small":6753,"uro":6754,"heart":6755,"arian":6756,"Ġeast":6757,"ĠBuddy":6758,"ffle":6759,"ograph":6760,"Ġnois":6761,"2008":6762,"Ġdeb":6763,"Ġ(-\\":6764,"Ġsupply":6765,"Ġcommun":6766,"Ġconstruction":6767,"Ġelevator":6768,"ĠStephanie":6769,"Solve":6770,"Ġwarehouse":6771,"Ġsimplest":6772,"page":6773,"tle":6774,"Ġfre":6775,"alous":6776,"Ġwealthy":6777,"ĠAC":6778,"ĠMir":6779,"elve":6780,"armer":6781,"Ġexpressions":6782,"Ġpup":6783,"ĠRemy":6784,"Ġowes":6785,"Ġjealous":6786,"Ġlifted":6787,"Ġpowder":6788,"ĠTweetie":6789,"Ġcelebrate":6790,"Ġspoiled":6791,"Ġgorilla":6792,"Ġexterior":6793,"Ġnoisy":6794,"Ġpor":6795,"Ġnail":6796,"ĠBeck":6797,"Ġplot":6798,"Ġclap":6799,"Ġscare":6800,"Ġcooked":6801,"Ġfactored":6802,"ĠMonica":6803,"Ġsenior":6804,"Ġpopsicle":6805,"ĠâĪļ":6806,"1100":6807,"Ġhi":6808,"Ġhits":6809,"Ġweather":6810,"Ġcoaster":6811,"Ġdoz":6812,"unately":6813,"ĠClaire":6814,"Ġchase":6815,"Ġkindness":6816,"Ġdesc":6817,"Ġclimbing":6818,"ĠJustin":6819,"Ġseparately":6820,"Ġcontributed":6821,"ĠSection":6822,"Ġfundra":6823,"Ġchooses":6824,"Ġdreamed":6825,"Ġlogarithm":6826,"Ġsurveyed":6827,"ĠBarbara":6828,"Ġmechanic":6829,"Ġhexagon":6830,"He":6831,"Lila":6832,"Re":6833,"kens":6834,"Ġcot":6835,"Ġtokens":6836,"Ġnames":6837,"Ġthir":6838,"Ġ625":6839,"Ġdove":6840,"ĠGina":6841,"Ġ132":6842,"aze":6843,"Ġvideos":6844,"Ġpineapp":6845,"uggled":6846,"Ġbacter":6847,"Ġlowest":6848,"ĠJasmine":6849,"clusion":6850,"And":6851,"Ġumb":6852,"Ġwag":6853,"Ġcau":6854,"acent":6855,"Ġ315":6856,"Ġancient":6857,"Ġforth":6858,"Ġcoordinate":6859,"Ġuncom":6860,"iece":6861,"Ġcomic":6862,"ĠKylie":6863,"Ġspecific":6864,"Ġ>=":6865,"ĠGrant":6866,"Ġsharpen":6867,"Ġbelonged":6868,"Ġcopies":6869,"Ġbouquet":6870,"Ġumbre":6871,"Ms":6872,"ĠTam":6873,"onze":6874,"quent":6875,"ĠAM":6876,"Ġsolved":6877,"ĠDif":6878,"Ġremains":6879,"ement":6880,"Ġintersect":6881,"iko":6882,"Ġattendees":6883,"Ġpreparing":6884,"Ġparrot":6885,"Ġmagazine":6886,"ki":6887,"rice":6888,"Ġtourn":6889,"ilot":6890,"Ġvar":6891,"roke":6892,"Ġdonation":6893,"Ġmeter":6894,"Ġcutting":6895,"Ġtyp":6896,"Ġbulb":6897,"Ġhundredth":6898,"ĠTyler":6899,"Ġsuggested":6900,"97":6901,"Jan":6902,"Ġweeds":6903,"Ġpee":6904,"Ġharm":6905,"Ġserious":6906,"ebec":6907,"Ġsleeping":6908,"Ġpulling":6909,"Ġparrots":6910,"Ġalbum":6911,"Ġcocoa":6912,"ule":6913,"Ġtummy":6914,"Ġbunch":6915,"Ġ224":6916,"ascal":6917,"Ġink":6918,"ĠAg":6919,"Ġnotation":6920,"Ġoption":6921,"Ġproperties":6922,"Ġbaker":6923,"Ġrepeat":6924,"ĠPatrick":6925,"Ġcarpet":6926,"Ġconnect":6927,"Here":6928,"dom":6929,"kip":6930,"liter":6931,"meter":6932,"Ġoats":6933,"Ġgrace":6934,"umbled":6935,"ĠWendy":6936,"ĠMilly":6937,"Ġmango":6938,"Ġexams":6939,"Ġyours":6940,"ĠAndre":6941,"Ġthrice":6942,"Ġsaying":6943,"Ġrais":6944,"Ġfavorable":6945,"Ġhammer":6946,"Ġdreaming":6947,"Ġsimilar":6948,"Ġelectricity":6949,"Ġtroph":6950,"-$":6951,"dge":6952,"eer":6953,"Ġsink":6954,"Ġok":6955,"ĠThese":6956,"acing":6957,"ĠMill":6958,"ĠManny":6959,"Ġsever":6960,"Ġscrew":6961,"Ġadvert":6962,"Ġsquee":6963,"ircle":6964,"Ġswan":6965,"Ġowned":6966,"60000":6967,"Ġmaximize":6968,"Ġcollege":6969,"ommod":6970,"Ġvendor":6971,"approx":6972,"isses":6973,"Ġdots":6974,"oni":6975,"ĠDiane":6976,"ured":6977,"Ġplanting":6978,"phi":6979,"Ġaccommod":6980,"laimed":6981,"ĠChloe":6982,"Ġprints":6983,"Ġposters":6984,"}\\|^":6985,"Ġmagazines":6986,"Ġbattery":6987,"ĠSandra":6988,"Ġdolphin":6989,"Ġcotton":6990,"Suppose":6991,"Ġwine":6992,"Ġpent":6993,"alia":6994,"Ġinde":6995,"lection":6996,"Ġforks":6997,"Ġshelves":6998,"Ġaside":6999,"ĠPascal":7000,"ĠRalph":7001,"venth":7002,"Ġgrandchild":7003,"Ġarrive":7004,"Ġrecommended":7005,"640":7006,"Cost":7007,"pts":7008,"poon":7009,"rina":7010,"yal":7011,"Ġhired":7012,"Ġ440":7013,"Ġreleased":7014,"Ġrational":7015,"ĠLaura":7016,"iform":7017,"Ġuniform":7018,"Ġorchard":7019,"ĠPam":7020,"ĠAnne":7021,"Ġexclaimed":7022,"Ġcrane":7023,"Ġsungl":7024,"Ġrealised":7025,")))":7026,"Ġinterv":7027,"Ġsticker":7028,"Ġacre":7029,"Ġjogging":7030,"ĠParker":7031,"Ġrefrigerator":7032,"Ġfertilizer":7033,"Ġdozens":7034,"Ġsunglasses":7035,"960":7036,"Ġut":7037,"Ġdull":7038,"ached":7039,"ilty":7040,"ĠLind":7041,"ĠBun":7042,"Ġpole":7043,"Ġ169":7044,"252":7045,"165":7046,"Ġguilty":7047,"Ġpolish":7048,"Ġbasketballs":7049,"ĠGrandpa":7050,"Ġrepeats":7051,"Ġhippo":7052,"Ġprogram":7053,"Max":7054,"Well":7055,"nels":7056,"Ġicy":7057,"Ġties":7058,"ĠTrac":7059,"ĠTara":7060,"Ġdem":7061,"ettes":7062,"Ġvest":7063,"Ġstub":7064,"ivers":7065,"ĠLarry":7066,"Ġsolving":7067,"gebra":7068,"ĠBritt":7069,"Ġsprink":7070,"ĠCharles":7071,"Ġmagnet":7072,"umsy":7073,"ĠEnter":7074,"Ġtissues":7075,"Ġelderly":7076,"Ġtextbooks":7077,"Ġmultiplication":7078,"ĠDifference":7079,"phere":7080,"Ġtar":7081,"Ġ370":7082,"Ġreind":7083,"Ġrules":7084,"Ġvalu":7085,"Ġflip":7086,"Ġfriendship":7087,"ĠPap":7088,"Ġstudied":7089,"ĠJoan":7090,"Ġprobabilities":7091,"ricia":7092,"Ġfastest":7093,"Ġtyped":7094,"Ġkilometer":7095,"Ġcheerful":7096,"Ġmice":7097,"atch":7098,"Ġeff":7099,"Ġhedge":7100,"ĠSnow":7101,"Ġund":7102,"iews":7103,"Ġmeg":7104,"ĠDel":7105,"Ġscrat":7106,"They":7107,"ĠGCD":7108,"Ġlongest":7109,"Ġsalmon":7110,"Ġenjoying":7111,"Ġprinter":7112,"Ġapolog":7113,"Ġarrangements":7114,"ĠOlivia":7115,"Ġjokes":7116,"Ġinfin":7117,"Ġtournament":7118,"Ġreindeer":7119,"Give":7120,"li":7121,"olyn":7122,"Ġcudd":7123,"Ġpunch":7124,"Ġmos":7125,"alie":7126,"ĠMath":7127,"ĠNina":7128,"aret":7129,"Ġhappiness":7130,"155":7131,"ansion":7132,"Ġsoldiers":7133,"Ġencl":7134,"ordon":7135,"ĠJenn":7136,"ĠLeila":7137,"Ġobject":7138,"ĠDonna":7139,"Ġaxis":7140,"Ġprepared":7141,"Ġmistakes":7142,"scribed":7143,"oz":7144,"rance":7145,"skip":7146,"rev":7147,"Ġcact":7148,"Ġtor":7149,"Ġtopp":7150,"Ġrushed":7151,"Ġ810":7152,"ĠCam":7153,"Ġharder":7154,"Ġsandcast":7155,"Ġexpansion":7156,"Ġlouder":7157,"Ġwheat":7158,"atural":7159,"boards":7160,"appy":7161,"Three":7162,"Ġlaughs":7163,"Ġmacarons":7164,"Ġessay":7165,"Ġviolin":7166,"Ġcommittee":7167,"))^":7168,"79":7169,"Ow":7170,"sum":7171,"Ġest":7172,"Ġtens":7173,"Ġaut":7174,"Ġfenc":7175,"half":7176,"Ġmop":7177,"Ġur":7178,"Ġthread":7179,"Ġtwelve":7180,"ĠFrench":7181,"Ġloyal":7182,"Ġprim":7183,"Ġsidewalk":7184,"ĠJohnson":7185,"Ġending":7186,"Ġtallest":7187,"Ġreflect":7188,"Ġstretch":7189,"Ġsausage":7190,"Ġachieve":7191,"Ġcousin":7192,"smallskip":7193,"Ġvaluable":7194,"gall":7195,"mond":7196,"nomes":7197,"ober":7198,"packs":7199,"tains":7200,"Ġtins":7201,"Ġgnomes":7202,"Ġhem":7203,"quare":7204,"Ġ123":7205,"Ġ$\\{":7206,"ĠFarmer":7207,"Ġalloc":7208,"Ġappet":7209,"Ġ146":7210,"elta":7211,"Ġmarch":7212,"Ġloudly":7213,"Ġtyping":7214,"Ġincreasing":7215,"Ġladyb":7216,"Ġreturns":7217,"ĠBrownie":7218,"Ġholiday":7219,"Ġstubborn":7220,"Ġcactus":7221,"ners":7222,"Ġsch":7223,"Ġhive":7224,"sticks":7225,"amb":7226,"ayson":7227,"Ġchir":7228,"ĠPe":7229,"ĠGordon":7230,"ugust":7231,"Ġslipped":7232,"Ġ114":7233,"ĠSamuel":7234,"Ġchef":7235,"Ġfavour":7236,"Ġjuicy":7237,"aligned":7238,"Ġbunnies":7239,"Ġshortest":7240,"ĠFreddy":7241,"proj":7242,"Ġpressure":7243,"Ġbossy":7244,"Ġcricket":7245,"Ġescape":7246,"Ġtractor":7247,"ĠJennifer":7248,"-(-":7249,"Ġfed":7250,"ĠTer":7251,"uture":7252,"stairs":7253,"ĠMil":7254,"Ġmild":7255,"Ġleftover":7256,"ĠRon":7257,"ĠRow":7258,"Ġchamp":7259,"usting":7260,"ĠAlan":7261,"Ġpersonal":7262,")*(":7263,"Ġfully":7264,"Ġbelt":7265,"atively":7266,"ĠAngela":7267,"Ġoutfits":7268,"Alex":7269,"Em":7270,"apped":7271,"rich":7272,"ĠÏĢ":7273,"Ġsqrt":7274,"ister":7275,"Ġmm":7276,"idi":7277,"Ġ$\\#":7278,"Ġlean":7279,"Ġ2018":7280,"Ġclumsy":7281,"eggy":7282,"Ġ148":7283,"Ġbowling":7284,"Tommy":7285,"Ġincludes":7286,"Ġsentence":7287,"Calculate":7288,"ĠBecky":7289,"ebecca":7290,"case":7291,"jug":7292,"multiply":7293,"wise":7294,"Ġwake":7295,"Ġpale":7296,"quit":7297,"Ġ660":7298,"ĠCy":7299,"ĠCat":7300,"ĠCur":7301,"cope":7302,"Ġminer":7303,"Ġads":7304,"Ġoverall":7305,"ĠOre":7306,"Ġlitter":7307,"rical":7308,"{-\\":7309,"Ġcoffees":7310,"upid":7311,"Ġfields":7312,"ĠMichel":7313,"Ġbald":7314,"Ġprovide":7315,"Ġstaff":7316,"Ġreminded":7317,"gallon":7318,"Ġfavourite":7319,"down":7320,"ians":7321,"round":7322,"Ġaction":7323,"ori":7324,"Ġnatural":7325,"Ġfright":7326,"123":7327,"Ġ2004":7328,"ĠWhenever":7329,"Ġclassmates":7330,"Ġcountries":7331,"ĠStan":7332,"Ġairport":7333,"Ġparade":7334,"fortunately":7335,"ĠValue":7336,"Ġcroissants":7337,"Ġterrible":7338,"gorithm":7339,"Ġseveral":7340,"uing":7341,"Ġsle":7342,"Ġwages":7343,"owers":7344,"0000":7345,"ĠAugust":7346,"ĠBarry":7347,"roll":7348,"Ġspun":7349,"Ġquant":7350,"ĠRh":7351,"Ġ111":7352,"Ġ2002":7353,"Ġthoughtful":7354,"Ġgasped":7355,"Ġsequins":7356,"Ġsyrup":7357,"Ġdepth":7358,"valuating":7359,"Ġaxe":7360,"ĠChand":7361,"ĠAnton":7362,"Ġdownload":7363,"Ġmilkshakes":7364,"Ġot":7365,"Ġfiles":7366,"Ġfierce":7367,"Ġwebs":7368,"ument":7369,"riend":7370,"ĠBert":7371,"ĠNick":7372,"Ġplayful":7373,"Ġshove":7374,"Ġloc":7375,"keep":7376,"irsty":7377,"Ġconjug":7378,"Ġsliced":7379,"(-\\":7380,"Ġcalculator":7381,"192":7382,"Ġdeaf":7383,"Ġentrance":7384,"Ġplanet":7385,"Ġbrightly":7386,"Ġneighbors":7387,"Ġdaughters":7388,"Ġpanels":7389,"Ġmaterials":7390,"ĠCasey":7391,"Ġpirates":7392,"Ġdelighted":7393,"Ġdeduct":7394,"Ġadjacent":7395,"Ġporch":7396,"fact":7397,"iot":7398,"po":7399,"real":7400,"Ġdug":7401,"Ġisos":7402,"Ġ525":7403,"celes":7404,"iable":7405,"Ġlocked":7406,"1250":7407,"Ġarc":7408,"Ġadvice":7409,"ĠKing":7410,"Ġgrabs":7411,"Ġclosest":7412,"Ġexplored":7413,"flav":7414,"Ġreliable":7415,"384":7416,"Ġnonzero":7417,"Ġbouncy":7418,"Ġrubbed":7419,"Ġcarpets":7420,"Ġadopted":7421,"Ġparticipants":7422,"Ġnosy":7423,"Ġcommunity":7424,"Ġmosquit":7425,"Ġisosceles":7426,"ho":7427,"ius":7428,"ĠIv":7429,"Ġraced":7430,"choose":7431,"Ġpoll":7432,"arting":7433,"Ġprote":7434,"ĠInc":7435,"Ġcolumn":7436,"Ġcompass":7437,"Ġexcitedly":7438,")*$":7439,"ÅĵLet":7440,"Ġlistening":7441,"Ġneighbour":7442,"Ġinversely":7443,"Ġlipstick":7444,"Ġalligators":7445,"ection":7446,"Ġahead":7447,"inc":7448,"Ġlumber":7449,"iction":7450,"Ġstupid":7451,"}{}":7452,"Ġtrick":7453,"Ġ145":7454,"Ġfinishes":7455,"132":7456,"Ġchoir":7457,"Ġrespons":7458,"Ġvacc":7459,"Ġinvested":7460,"Ġportra":7461,"Ġstatues":7462,"Ġwiped":7463,"Ġathlete":7464,"Ġaccepted":7465,"Ġdamaged":7466,"Ġpapayas":7467,"keeper":7468,"$$":7469,"yn":7470,"Ġsacks":7471,"Ġfishes":7472,"Ġpit":7473,"Ġ++":7474,"ĠLau":7475,"Ġkicked":7476,"Ġspit":7477,"Ġ9000":7478,"Ġshone":7479,"Ġ&&":7480,"Ġ20000":7481,"2002":7482,"Ġmarried":7483,"club":7484,"oomy":7485,"Ġadmired":7486,"Ġexperience":7487,"ĠErica":7488,"Ġtoppings":7489,"/$":7490,"See":7491,"func":7492,"rs":7493,"Ġhike":7494,"Ġ325":7495,"igail":7496,"Ġ1250":7497,"Ġ2020":7498,"arship":7499,"opus":7500,"istent":7501,"Ġzip":7502,"Ġimage":7503,"Ġpapercl":7504,"Ġentered":7505,"Ġelement":7506,"Ġcardboard":7507,"Ġdelicate":7508,"Ġphoto":7509,"Ġassignment":7510,"Ġfrightened":7511,"Ġpaperclips":7512,"650":7513,"Every":7514,"GCD":7515,"da":7516,"ipper":7517,"ua":7518,"})$":7519,"})(":7520,"Ġwitch":7521,"Ġoak":7522,"Ġcush":7523,"eding":7524,"Ġpublic":7525,"Ġlicks":7526,"Ġ520":7527,"Ġcoach":7528,"ĠFer":7529,"implies":7530,"}$$":7531,"Ġcompon":7532,"Ġclimbs":7533,"ĠCarter":7534,"Ġbarber":7535,"Ġtelling":7536,"Ġducklings":7537,"Ġpebble":7538,"Ġteaching":7539,"Ġsneakers":7540,"Ġoctopus":7541,"Ġwhispered":7542,"Ġfundraiser":7543,"Ġbacteria":7544,"revor":7545,"Ġschol":7546,"340":7547,"DE":7548,"pare":7549,"tab":7550,"Ġcable":7551,"Ġmaze":7552,"anes":7553,"leen":7554,"Ġfork":7555,"ante":7556,"indrom":7557,"indrical":7558,"ĠDay":7559,"tsize":7560,"essa":7561,"Ġ196":7562,"Ġrecyc":7563,"Ġquadr":7564,"ĠConnor":7565,"Ġracers":7566,"fifths":7567,"Ġresear":7568,"ĠMaggie":7569,"Ġpossibilities":7570,"tabular":7571,"ieta":7572,"lvet":7573,"itter":7574,"Ġnature":7575,"Ġhan":7576,"ĠSant":7577,"store":7578,"robe":7579,"Ġintrod":7580,"Ġsquat":7581,"Ġoldest":7582,"Ġbirdhouse":7583,"Ġdistances":7584,"ĠSamant":7585,"Ġswitch":7586,"Ġpayments":7587,"Ġvelvet":7588,"ĠLucas":7589,"Ġcomplain":7590,"Ġsatisfied":7591,"Ġperfume":7592,"Ġcylindrical":7593,"Ġabsent":7594,"ĠUnfortunately":7595,"Ġhangers":7596,"Ġwarned":7597,"Ġpigeon":7598,"check":7599,")}{\\":7600,"Mic":7601,"size":7602,"Ġlatt":7603,"ĠSk":7604,"ĠSean":7605,"Ġ310":7606,"Ġonion":7607,"Ġstumbled":7608,"Ġrush":7609,"ĠWhere":7610,"Ġcanoes":7611,"Ġknown":7612,"Ġseal":7613,"hange":7614,"cod":7615,"Ġsolid":7616,"ĠPenny":7617,"ĠKath":7618,"Ġ2005":7619,"Ġcareless":7620,"Ġfrag":7621,"Ġstranger":7622,"azz":7623,"Ġserves":7624,"ĠCarly":7625,"Ġgolden":7626,"Ġ[(":7627,"Ġtrape":7628,"Ġordinary":7629,"Ġearl":7630,"Ġobtain":7631,"person":7632,"Ġsnail":7633,")}\\":7634,"2200":7635,"hony":7636,"})$.":7637,"Ġig":7638,"hels":7639,"Ġpins":7640,"Ġpilot":7641,"ĠMimi":7642,"Ġ780":7643,"elery":7644,"Ġleash":7645,"Ġjail":7646,"ormous":7647,"ffs":7648,"Ġenormous":7649,"Ġskelet":7650,"Ġglove":7651,"Ġbushels":7652,"ĠStacy":7653,"Ġmodern":7654,"ĠZoe":7655,"Ġdancer":7656,"iffany":7657,"fourths":7658,"Ġactivities":7659,"Ġprinciple":7660,"Ġsnowflakes":7661,"ĠMillie":7662,"ĠPapa":7663,"Ġslept":7664,"Ġotter":7665,")\\]":7666,"@{":7667,"Am":7668,"Pa":7669,"ault":7670,"Ġ212":7671,"Ġsaf":7672,"ĠAny":7673,"ĠAustin":7674,"sel":7675,"ury":7676,"Ġscat":7677,"Ġscient":7678,"Ġpaws":7679,"Ġ138":7680,"Ġ2007":7681,"Ġ4500":7682,"Ġvolumes":7683,"Ġmodular":7684,"Ġassuming":7685,"hard":7686,"Ġmailbox":7687,"Ġcrocod":7688,"Ġshadow":7689,"Ġconjugate":7690,"02":7691,"Diamond":7692,"cream":7693,"diamond":7694,"Ġmaster":7695,"ann":7696,"Ġnone":7697,"Ġ290":7698,"Ġrug":7699,"Ġraces":7700,"Ġthirsty":7701,"amin":7702,"reek":7703,"ĠDiana":7704,"Ġcarri":7705,"Ġtrade":7706,"ĠGB":7707,"Ġ2006":7708,"Ġveil":7709,"Ġbloom":7710,"logram":7711,"Ġtaxi":7712,"Ġlaser":7713,"Ġparallelogram":7714,"Ġfifteen":7715,"Ġcompassion":7716,"@{}":7717,"Ġgain":7718,"Ġ3200":7719,"Ġrack":7720,"Ġke":7721,"unte":7722,"ela":7723,"Ġunpack":7724,"ĠDen":7725,"Ġprism":7726,"Ġ185":7727,"Ġbreat":7728,"onda":7729,"Ġprec":7730,"Ġdisg":7731,"Ġvolunte":7732,"Ġbeauty":7733,"Ġfallen":7734,"Ġsubse":7735,")!}":7736,"Ġpepperoni":7737,"Ġflavors":7738,"Ġcabinet":7739,"Ġdecreased":7740,"Ġkangaroo":7741,"flavored":7742,"ml":7743,"Ġwishes":7744,"Ġfuture":7745,"Ġ390":7746,"Ġfort":7747,"ĠHere":7748,"ĠLinda":7749,"ĠNote":7750,"Ġclient":7751,"ickers":7752,"Ġ16000":7753,"Ġtricks":7754,")^{-":7755,"ĠMarcy":7756,"Ġfrosting":7757,"Ġpopular":7758,"Ġsteal":7759,"Ġrepairs":7760,"Ġorganize":7761,"Ġoffering":7762,"Ġseparated":7763,"Ġsteaks":7764,"Ġimagined":7765,"Ġ...,":7766,"ĠSecond":7767,"Ġnorth":7768,"Ġsausages":7769,"ĠBuzz":7770,"Ġencour":7771,"Ġlaptop":7772,"ĠCurrent":7773,"'ve":7774,"sses":7775,"Ġaw":7776,"Ġmention":7777,"Ġreco":7778,"Ġ680":7779,"Ġalt":7780,"Ġalgorithm":7781,"Ġquizz":7782,"ĠRebecca":7783,"Ġslides":7784,"248":7785,"Ġdrain":7786,"}}.\\]":7787,"Ġcharming":7788,"Ġsniff":7789,"Ġsplits":7790,"Ġgifted":7791,"Ġbandages":7792,"Ġsilk":7793,"ĠBeat":7794,"Ġopera":7795,"}_{\\":7796,"Ġsettings":7797,"Ġcommercials":7798,")}$":7799,"114":7800,"69":7801,"Billy":7802,"gart":7803,"|$":7804,"Ġsorts":7805,"Ġdent":7806,"Ġdust":7807,"anola":7808,"Ġled":7809,"Ġlic":7810,"ĠSasha":7811,"Ġthumb":7812,"ĠMP":7813,"agram":7814,"erson":7815,"ĠEls":7816,"Ġquite":7817,"auc":7818,"indergart":7819,"Ġconsisting":7820,"Ġcleaner":7821,"Ġdevel":7822,"atherine":7823,"Ġbarks":7824,"bold":7825,"Ġfigur":7826,"Ġhumble":7827,"Ġalbums":7828,"ĠMargaret":7829,"Ġpoodle":7830,"clubsuit":7831,"Ġfragile":7832,"Ġearlier":7833,"Ġquizzes":7834,"ffer":7835,"hill":7836,"Ġsons":7837,"Ġwig":7838,"Ġfail":7839,"ims":7840,"icop":7841,"Ġ560":7842,"Ġkern":7843,"Ġjet":7844,"124":7845,"1001":7846,"Ġbronze":7847,"Ġhelicop":7848,"Ġboxc":7849,"ugged":7850,"ometer":7851,"Ġworker":7852,"Ġcreams":7853,"Ġcreatures":7854,"Ġflex":7855,"ÅĵYes":7856,"Ġparked":7857,"aurice":7858,"Ġrefused":7859,"Ġrhin":7860,"Ġstretched":7861,"Ġbubble":7862,"Ġmasks":7863,"Ġleopards":7864,"Ġfencing":7865,"AM":7866,"Ġtagged":7867,"reen":7868,"Ġfauc":7869,"Ġcelery":7870,"Ġtour":7871,"Ġpanda":7872,"ĠTiffany":7873,"Ġvet":7874,"Ġhero":7875,"Ġ630":7876,"Ġequate":7877,"ĠJud":7878,"ctober":7879,"Ġshot":7880,"2010":7881,"!\".":7882,"Ġusually":7883,"Ġnews":7884,"Ġ252":7885,"Ġtric":7886,"Ġ118":7887,"2007":7888,"Ġsalon":7889,"Ġ198":7890,"Ġfactoring":7891,"ĠCalvin":7892,"spades":7893,"Ġpalindrom":7894,"ĠAnthony":7895,"Ġdestroyed":7896,"ĠiPhone":7897,"Ġumbrella":7898,"Ġpeeked":7899,"Ġsubstitut":7900,"reci":7901,"orant":7902,"Ġlays":7903,"ashes":7904,"Ġcob":7905,"ulu":7906,"Ġpers":7907,"elets":7908,"Ġcircular":7909,"Ġnicely":7910,"Ġbooth":7911,"Ġfinishing":7912,"ĠBruce":7913,"boat":7914,"Ġrelatively":7915,"xygen":7916,"ĠMickey":7917,"Ġvegetable":7918,"fortable":7919,"Ġattending":7920,"arcsin":7921,"Ġbundles":7922,"Ġuncomfortable":7923,"Ġgraceful":7924,"Ġgrandchildren":7925,"Ġestim":7926,"Ġtrapez":7927,"Ġlicense":7928,"190":7929,"576":7930,"Circle":7931,"Jane":7932,"ainder":7933,"iors":7934,"ufact":7935,"Ġsou":7936,"Ġoat":7937,"Ġbrand":7938,"Ġ235":7939,"Ġinscribed":7940,"Ġthief":7941,"Ġ1050":7942,"ĠEaster":7943,"Ġintell":7944,"ĠInst":7945,"Ġslid":7946,"Ġpacking":7947,"Ġcompare":7948,"Ġpainter":7949,"ĠOctober":7950,"Ġproudly":7951,"Ġhairy":7952,"Ġbrighter":7953,"Ġreflection":7954,"Ġedges":7955,"Ġantac":7956,"ĠJessie":7957,"Ġhurry":7958,"Ġexercised":7959,"Ġkangaroos":7960,"Ġtrophy":7961,"Ġmegabytes":7962,"diamondsuit":7963,"Ġrecogn":7964,"Ġtrapezoid":7965,"Ġintellig":7966,"ugs":7967,"ndan":7968,"Ġhut":7969,"Ġbeg":7970,"cepts":7971,"Ġcancel":7972,"ĠMal":7973,"ĠBird":7974,"Ġshut":7975,"Ġprices":7976,"}$:":7977,"ĠPeggy":7978,"15000":7979,"Ġanywhere":7980,"ective":7981,"ĠOrigin":7982,"Ġspeak":7983,"Ġdriven":7984,"bability":7985,"ĠVieta":7986,"ĠMarc":7987,"grade":7988,"Ġopening":7989,"Ġpastries":7990,"Ġsparkled":7991,"Ġrotten":7992,"doll":7993,"Arrows":7994,"Ġomelets":7995,"Ġvolcanoes":7996,"ĠHelen":7997,"Ġcheesecakes":7998,"ĠRichard":7999,"Jimmy":8000,"ĠBryan":8001,"Ġtorn":8002,"Ġcrocodile":8003}